{
  "added_tokens": [
    {
      "content": "",
      "id": 0,
      "lstrip": false,
      "normalized": false,
      "rstrip": false,
      "single_word": false,
      "special": true
    },
    {
      "content": "<|im_start|>",
      "id": 1,
      "lstrip": false,
      "normalized": false,
      "rstrip": false,
      "single_word": false,
      "special": true
    },
    {
      "content": "<|im_end|>",
      "id": 2,
      "lstrip": false,
      "normalized": false,
      "rstrip": false,
      "single_word": false,
      "special": true
    }
  ],
  "decoder": {
    "add_prefix_space": true,
    "trim_offsets": true,
    "type": "ByteLevel",
    "use_regex": true
  },
  "model": {
    "byte_fallback": false,
    "continuing_subword_prefix": null,
    "dropout": null,
    "end_of_word_suffix": null,
    "fuse_unk": false,
    "ignore_merges": false,
    "merges": [
      [
        "ǯ",
        "Ƽ"
      ],
      [
        "Ǥ",
        "Ƹ"
      ],
      [
        "ǧ",
        "ƚ"
      ],
      [
        "Ƽ",
        "ƌ"
      ],
      [
        "ǣ",
        "ƀ"
      ],
      [
        "ǧƚ",
        "Ƅ"
      ],
      [
        "ǧ",
        "ƚƄ"
      ],
      [
        "ƀ",
        "Ƃ"
      ],
      [
        "Ǥ",
        "ƻ"
      ],
      [
        "Ǥ",
        "ƺ"
      ],
      [
        "ǥ",
        "Ə"
      ],
      [
        "Ǧ",
        "Ɯ"
      ],
      [
        "Ǧ",
        "ƈ"
      ],
      [
        "Ǥ",
        "ƽ"
      ],
      [
        "Ǩ",
        "ƿ"
      ],
      [
        "ǥ",
        "ƅ"
      ],
      [
        "ǥ",
        "ƒ"
      ],
      [
        "ǥ",
        "ƈ"
      ],
      [
        "ǧ",
        "Ɣ"
      ],
      [
        "ǥ",
        "Ƥ"
      ],
      [
        "Ǧ",
        "Ƙ"
      ],
      [
        "ǥ",
        "Ʈ"
      ],
      [
        "ǥ",
        "Ɯ"
      ],
      [
        "ǥ",
        "ƒƌ"
      ],
      [
        "ǥƒ",
        "ƌ"
      ],
      [
        "ǥ",
        "Ɗ"
      ],
      [
        "Ǩ",
        "Ư"
      ],
      [
        "Ƽ",
        "ƚ"
      ],
      [
        "Ǧ",
        "Ɩ"
      ],
      [
        "ǥ",
        "Ɛ"
      ],
      [
        "Ǥ",
        "ƹ"
      ],
      [
        "ǧ",
        "ƻ"
      ],
      [
        "ǤƸ",
        "ƀ"
      ],
      [
        "Ǥ",
        "Ƹƀ"
      ],
      [
        "ƀ",
        "Ɓ"
      ],
      [
        "ǥ",
        "ư"
      ],
      [
        "ǥ",
        "ƭ"
      ],
      [
        "Ǩ",
        "Ʈ"
      ],
      [
        "ƃ",
        "ƽ"
      ],
      [
        "Ǥƻ",
        "ƥ"
      ],
      [
        "Ǥ",
        "ƻƥ"
      ],
      [
        "Ǧ",
        "ƘƯ"
      ],
      [
        "ǦƘ",
        "Ư"
      ],
      [
        "ǥ",
        "ƺ"
      ],
      [
        "Ǧ",
        "ƕ"
      ],
      [
        "ǥƏ",
        "Ư"
      ],
      [
        "ǥ",
        "ƏƯ"
      ],
      [
        "ǥ",
        "Ƹ"
      ],
      [
        "Ǧ",
        "Ɲ"
      ],
      [
        "Ǧ",
        "Ɨ"
      ],
      [
        "ǩ",
        "Ƈ"
      ],
      [
        "ƚ",
        "Ƅ"
      ],
      [
        "ǥ",
        "ƹ"
      ],
      [
        "Ǧƈ",
        "Ƒ"
      ],
      [
        "Ǧ",
        "ƈƑ"
      ],
      [
        "Ǩ",
        "ơ"
      ],
      [
        "ǥ",
        "Ɯƨ"
      ],
      [
        "ǥƜ",
        "ƨ"
      ],
      [
        "ǥ",
        "ƌ"
      ],
      [
        "ǥ",
        "ƛ"
      ],
      [
        "ǥ",
        "Ʒ"
      ],
      [
        "Ǥ",
        "Ƹƪ"
      ],
      [
        "ǤƸ",
        "ƪ"
      ],
      [
        "ǩ",
        "ƀ"
      ],
      [
        "Ǩ",
        "Ƨ"
      ],
      [
        "Ǩ",
        "ƃƽ"
      ],
      [
        "Ǩƃ",
        "ƽ"
      ],
      [
        "Ǥƺ",
        "ƺ"
      ],
      [
        "Ǥ",
        "ƺƺ"
      ],
      [
        "Ǩ",
        "Ʀ"
      ],
      [
        "ǥ",
        "Ư"
      ],
      [
        "ǥ",
        "Ƈ"
      ],
      [
        "Ǧ",
        "ƜƉ"
      ],
      [
        "ǦƜ",
        "Ɖ"
      ],
      [
        "ǧ",
        "Ǝ"
      ],
      [
        "ǧ",
        "ƭ"
      ],
      [
        "ǥ",
        "Ƽ"
      ],
      [
        "ǥ",
        "Ɔ"
      ],
      [
        "ǩ",
        "Ƣ"
      ],
      [
        "ǥ",
        "ƥ"
      ],
      [
        "ǧ",
        "Ɖ"
      ],
      [
        "Ǧ",
        "Ɗ"
      ],
      [
        "ǧ",
        "Ƨ"
      ],
      [
        "ǥƏƯ",
        "Ǥƻƥ"
      ],
      [
        "ǧ",
        "Ɣƨ"
      ],
      [
        "ǧƔ",
        "ƨ"
      ],
      [
        "ǥ",
        "ƾ"
      ],
      [
        "ǩ",
        "Ɨ"
      ],
      [
        "Ǥ",
        "ƻƬ"
      ],
      [
        "Ǥƻ",
        "Ƭ"
      ],
      [
        "Ǥ",
        "ƿ"
      ],
      [
        "Ǩ",
        "ƿƙ"
      ],
      [
        "Ǩƿ",
        "ƙ"
      ],
      [
        "ǨƦ",
        "Ɓ"
      ],
      [
        "Ǩ",
        "ƦƁ"
      ],
      [
        "Ǧ",
        "ƀ"
      ],
      [
        "Ǧ",
        "Ɖ"
      ],
      [
        "Ǧ",
        "ƞ"
      ],
      [
        "Ǥ",
        "ƺƆ"
      ],
      [
        "Ǥƺ",
        "Ɔ"
      ],
      [
        "ǥ",
        "Ʀ"
      ],
      [
        "Ǧ",
        "Ƴ"
      ],
      [
        "Ǩ",
        "ƀ"
      ],
      [
        "Ǥ",
        "Ƹƭ"
      ],
      [
        "ǤƸ",
        "ƭ"
      ],
      [
        "Ǧ",
        "ƭ"
      ],
      [
        "ǥ",
        "ƽ"
      ],
      [
        "ǧ",
        "ƛ"
      ],
      [
        "Ǥ",
        "Ƹƺ"
      ],
      [
        "ǤƸ",
        "ƺ"
      ],
      [
        "ǩ",
        "Ɲ"
      ],
      [
        "Ǧ",
        "Ơ"
      ],
      [
        "Ǧ",
        "Ə"
      ],
      [
        "Ǩ",
        "Ƈ"
      ],
      [
        "Ǧ",
        "Ƅ"
      ],
      [
        "ǥ",
        "ƍ"
      ],
      [
        "ǧ",
        "Ɛ"
      ],
      [
        "Ġ",
        "t"
      ],
      [
        "Ǥ",
        "Ƽ"
      ],
      [
        "Ǥ",
        "Ƹƍ"
      ],
      [
        "ǤƸ",
        "ƍ"
      ],
      [
        "Ǧ",
        "ƛ"
      ],
      [
        "ǥ",
        "Ɠ"
      ],
      [
        "Ǥ",
        "ƾ"
      ],
      [
        "Ǧ",
        "ƃ"
      ],
      [
        "Ɯ",
        "ƀ"
      ],
      [
        "Ǧ",
        "ƙ"
      ],
      [
        "Ǧ",
        "Ǝ"
      ],
      [
        "i",
        "n"
      ],
      [
        "ǧ",
        "ƔƟ"
      ],
      [
        "ǧƔ",
        "Ɵ"
      ],
      [
        "t",
        "h"
      ],
      [
        "Ǧ",
        "Ɲƥ"
      ],
      [
        "ǦƝ",
        "ƥ"
      ],
      [
        "Ǧ",
        "ư"
      ],
      [
        "Ǧ",
        "Ƌ"
      ],
      [
        "ǥ",
        "Ƒ"
      ],
      [
        "Ǧ",
        "Ɣ"
      ],
      [
        "Ǩ",
        "ƴ"
      ],
      [
        "Ǧ",
        "Ƃ"
      ],
      [
        "Ġ",
        "a"
      ],
      [
        "ǥ",
        "ƿ"
      ],
      [
        "Ǥƺ",
        "ƛ"
      ],
      [
        "Ǥ",
        "ƺƛ"
      ],
      [
        "h",
        "e"
      ],
      [
        "Ǣ",
        "ƀ"
      ],
      [
        "Ǧ",
        "ƌ"
      ],
      [
        "Ǧ",
        "Ƶ"
      ],
      [
        "Ǧ",
        "ƍ"
      ],
      [
        "Ǩ",
        "ơƌ"
      ],
      [
        "Ǩơ",
        "ƌ"
      ],
      [
        "ǦƖ",
        "ƹ"
      ],
      [
        "Ǧ",
        "Ɩƹ"
      ],
      [
        "Ǥ",
        "Ƽƚ"
      ],
      [
        "ǤƼ",
        "ƚ"
      ],
      [
        "Ǧ",
        "Ư"
      ],
      [
        "Ǥ",
        "ƽƠ"
      ],
      [
        "Ǥƽ",
        "Ơ"
      ],
      [
        "ǥ",
        "Ǝ"
      ],
      [
        "Ǧ",
        "ƛƴ"
      ],
      [
        "Ǧƛ",
        "ƴ"
      ],
      [
        "ǥ",
        "Ɯư"
      ],
      [
        "ǥƜ",
        "ư"
      ],
      [
        "Ǩ",
        "Ƶ"
      ],
      [
        "Ǧ",
        "ƈƐ"
      ],
      [
        "Ǧƈ",
        "Ɛ"
      ],
      [
        "ǥƭ",
        "Ʀ"
      ],
      [
        "ǥ",
        "ƭƦ"
      ],
      [
        "ǥ",
        "ƈư"
      ],
      [
        "ǥƈ",
        "ư"
      ],
      [
        "Ƽ",
        "Ɵ"
      ],
      [
        "e",
        "r"
      ],
      [
        "ǧ",
        "Ʈ"
      ],
      [
        "ǥ",
        "Ʊ"
      ],
      [
        "Ǧƕ",
        "ư"
      ],
      [
        "Ǧ",
        "ƕư"
      ],
      [
        "ǥ",
        "Ưƹ"
      ],
      [
        "ǥƯ",
        "ƹ"
      ],
      [
        "Ƹ",
        "ƀ"
      ],
      [
        "ǦƗ",
        "ƶ"
      ],
      [
        "Ǧ",
        "Ɨƶ"
      ],
      [
        "ǤƸƀ",
        "ǤƸƪ"
      ],
      [
        "Ǥ",
        "ƺƎ"
      ],
      [
        "Ǥƺ",
        "Ǝ"
      ],
      [
        "ǩ",
        "Ɯƀ"
      ],
      [
        "ǩƜ",
        "ƀ"
      ],
      [
        "o",
        "n"
      ],
      [
        "ǦƏ",
        "Ɛ"
      ],
      [
        "Ǧ",
        "ƏƐ"
      ],
      [
        "ǥ",
        "ƦƂ"
      ],
      [
        "ǥƦ",
        "Ƃ"
      ],
      [
        "Ǩ",
        "ƾ"
      ],
      [
        "Ǩ",
        "Ƈƪ"
      ],
      [
        "ǨƇ",
        "ƪ"
      ],
      [
        "Ǥ",
        "ƽƜ"
      ],
      [
        "Ǥƽ",
        "Ɯ"
      ],
      [
        "a",
        "n"
      ],
      [
        "ǦƈƑ",
        "ǤƻƬ"
      ],
      [
        "r",
        "e"
      ],
      [
        "Ǥ",
        "ƻƖ"
      ],
      [
        "Ǥƻ",
        "Ɩ"
      ],
      [
        "ǩ",
        "ƣ"
      ],
      [
        "ǧ",
        "Ʊ"
      ],
      [
        "ǥ",
        "Ɵ"
      ],
      [
        "ǥ",
        "Ƥƚ"
      ],
      [
        "ǥƤ",
        "ƚ"
      ],
      [
        "ǥƷ",
        "ƥ"
      ],
      [
        "ǥ",
        "Ʒƥ"
      ],
      [
        "Ǧ",
        "ƴ"
      ],
      [
        "ǧ",
        "ƺ"
      ],
      [
        "ǧƭ",
        "Ɖ"
      ],
      [
        "ǧ",
        "ƭƉ"
      ],
      [
        "ǦƖ",
        "Ƈ"
      ],
      [
        "Ǧ",
        "ƖƇ"
      ],
      [
        "ǩ",
        "ƙ"
      ],
      [
        "ǩ",
        "ƫ"
      ],
      [
        "ǥƈ",
        "Ɔ"
      ],
      [
        "ǥ",
        "ƈƆ"
      ],
      [
        "ǥ",
        "Ɗƨ"
      ],
      [
        "ǥƊ",
        "ƨ"
      ],
      [
        "ǧ",
        "ƫ"
      ],
      [
        "Ǧ",
        "Ƹ"
      ],
      [
        "Ƙ",
        "Ư"
      ],
      [
        "Ƅ",
        "Ǧ"
      ],
      [
        "ǥƇ",
        "ƺ"
      ],
      [
        "ǥ",
        "Ƈƺ"
      ],
      [
        "Ǩ",
        "Ɖ"
      ],
      [
        "ǧ",
        "ƐƆ"
      ],
      [
        "ǧƐ",
        "Ɔ"
      ],
      [
        "ǥƏ",
        "Ƒ"
      ],
      [
        "ǥ",
        "ƏƑ"
      ],
      [
        "Ǥ",
        "ƸƋ"
      ],
      [
        "ǤƸ",
        "Ƌ"
      ],
      [
        "ǥ",
        "Ɓ"
      ],
      [
        "ǧƉ",
        "Ʃ"
      ],
      [
        "ǧ",
        "ƉƩ"
      ],
      [
        "ǥ",
        "ƹƶ"
      ],
      [
        "ǥƹ",
        "ƶ"
      ],
      [
        "ǥ",
        "ƤƧ"
      ],
      [
        "ǥƤ",
        "Ƨ"
      ],
      [
        "ǥ",
        "ƌƖ"
      ],
      [
        "ǥƌ",
        "Ɩ"
      ],
      [
        "ǥ",
        "ƺƔ"
      ],
      [
        "ǥƺ",
        "Ɣ"
      ],
      [
        "ǧ",
        "ƨ"
      ],
      [
        "ǩ",
        "Ɓ"
      ],
      [
        "Ǩƿ",
        "Ƈ"
      ],
      [
        "Ǩ",
        "ƿƇ"
      ],
      [
        "ǩƜƀ",
        "ǨƦƁ"
      ],
      [
        "Ǧ",
        "Ʊ"
      ],
      [
        "Ǧ",
        "ƈƖ"
      ],
      [
        "Ǧƈ",
        "Ɩ"
      ],
      [
        "Ǧ",
        "Ʋ"
      ],
      [
        "ǧ",
        "Ƅ"
      ],
      [
        "Ǥ",
        "ƸƊ"
      ],
      [
        "ǤƸ",
        "Ɗ"
      ],
      [
        "ƻ",
        "ƥ"
      ],
      [
        "ǦƳ",
        "ƕ"
      ],
      [
        "Ǧ",
        "Ƴƕ"
      ],
      [
        "ǧƧ",
        "ƍ"
      ],
      [
        "ǧ",
        "Ƨƍ"
      ],
      [
        "t",
        "e"
      ],
      [
        "Ǩƿ",
        "ƛ"
      ],
      [
        "Ǩ",
        "ƿƛ"
      ],
      [
        "Ġ",
        "i"
      ],
      [
        "Ƹ",
        "ƪ"
      ],
      [
        "Ǧ",
        "ƀƧ"
      ],
      [
        "Ǧƀ",
        "Ƨ"
      ],
      [
        "ǦƂ",
        "ƨ"
      ],
      [
        "Ǧ",
        "Ƃƨ"
      ],
      [
        "Ǧ",
        "Ɗƀ"
      ],
      [
        "ǦƊ",
        "ƀ"
      ],
      [
        "Ǥƿ",
        "Ɲ"
      ],
      [
        "Ǥ",
        "ƿƝ"
      ],
      [
        "e",
        "s"
      ],
      [
        "Ǩ",
        "ƽ"
      ],
      [
        "ǩƀ",
        "ƚ"
      ],
      [
        "ǩ",
        "ƀƚ"
      ],
      [
        "ǧ",
        "Ǝư"
      ],
      [
        "ǧƎ",
        "ư"
      ],
      [
        "ǥƊ",
        "ƛ"
      ],
      [
        "ǥ",
        "Ɗƛ"
      ],
      [
        "Ǧ",
        "Ƭ"
      ],
      [
        "ǥư",
        "Ɔ"
      ],
      [
        "ǥ",
        "ưƆ"
      ],
      [
        "Ǥ",
        "ƽƿ"
      ],
      [
        "Ǥƽ",
        "ƿ"
      ],
      [
        "e",
        "n"
      ],
      [
        "ǧ",
        "Ƴ"
      ],
      [
        "ǥ",
        "ƊƠ"
      ],
      [
        "ǥƊ",
        "Ơ"
      ],
      [
        "t",
        "i"
      ],
      [
        "Ƌ",
        "ǥ"
      ],
      [
        "Ƅ",
        "ǥ"
      ],
      [
        "ǥ",
        "ƥƽ"
      ],
      [
        "ǥƥ",
        "ƽ"
      ],
      [
        "Ʀ",
        "Ƃ"
      ],
      [
        "Ǥƽ",
        "Ɠ"
      ],
      [
        "Ǥ",
        "ƽƓ"
      ],
      [
        "ǥƮ",
        "ƚ"
      ],
      [
        "ǥ",
        "Ʈƚ"
      ],
      [
        "ǧ",
        "ơ"
      ],
      [
        "Ǩ",
        "ƃ"
      ],
      [
        "ǩ",
        "ƝƢ"
      ],
      [
        "ǩƝ",
        "Ƣ"
      ],
      [
        "Ư",
        "Ǥ"
      ],
      [
        "Ǩ",
        "ƶ"
      ],
      [
        "ǥ",
        "ƅƳ"
      ],
      [
        "ǥƅ",
        "Ƴ"
      ],
      [
        "Ǩ",
        "Ƨƣ"
      ],
      [
        "ǨƧ",
        "ƣ"
      ],
      [
        "a",
        "t"
      ],
      [
        "ǩ",
        "Ƙ"
      ],
      [
        "Ġ",
        "Ġ"
      ],
      [
        "ǧƚ",
        "Ƅǧ"
      ],
      [
        "ǧƚƄ",
        "ǧ"
      ],
      [
        "ǥƮ",
        "ƃ"
      ],
      [
        "ǥ",
        "Ʈƃ"
      ],
      [
        "ƒ",
        "ƌ"
      ],
      [
        "ƺ",
        "ǥ"
      ],
      [
        "Ġ",
        "s"
      ],
      [
        "ƻ",
        "ǧ"
      ],
      [
        "o",
        "r"
      ],
      [
        "ǥƐ",
        "ƌ"
      ],
      [
        "ǥ",
        "Ɛƌ"
      ],
      [
        "ǥ",
        "ƸƸ"
      ],
      [
        "ǥƸ",
        "Ƹ"
      ],
      [
        "Ǩ",
        "ư"
      ],
      [
        "Ǥƹ",
        "Ɵ"
      ],
      [
        "Ǥ",
        "ƹƟ"
      ],
      [
        "ƀ",
        "ǥ"
      ],
      [
        "Ǧ",
        "ƍƮ"
      ],
      [
        "Ǧƍ",
        "Ʈ"
      ],
      [
        "ǩ",
        "ƢƘ"
      ],
      [
        "ǩƢ",
        "Ƙ"
      ],
      [
        "ǥ",
        "Ƣ"
      ],
      [
        "ƀ",
        "Ǥ"
      ],
      [
        "ǥƅ",
        "ƶ"
      ],
      [
        "ǥ",
        "ƅƶ"
      ],
      [
        "ǩ",
        "ƫƘ"
      ],
      [
        "ǩƫ",
        "Ƙ"
      ],
      [
        "Ɯ",
        "ƨ"
      ],
      [
        "ǥ",
        "ƻ"
      ],
      [
        "ǧ",
        "Ƃ"
      ],
      [
        "ǩƇ",
        "ƍ"
      ],
      [
        "ǩ",
        "Ƈƍ"
      ],
      [
        "Ǧƞ",
        "Ɯ"
      ],
      [
        "Ǧ",
        "ƞƜ"
      ],
      [
        "Ǩ",
        "Ƃ"
      ],
      [
        "i",
        "s"
      ],
      [
        "ǧ",
        "Ƥ"
      ],
      [
        "ǥ",
        "ƭƐ"
      ],
      [
        "ǥƭ",
        "Ɛ"
      ],
      [
        "ǥ",
        "ƓƁ"
      ],
      [
        "ǥƓ",
        "Ɓ"
      ],
      [
        "ǥ",
        "ƀ"
      ],
      [
        "Ǧ",
        "ƜƯ"
      ],
      [
        "ǦƜ",
        "Ư"
      ],
      [
        "ǩ",
        "ƇƏ"
      ],
      [
        "ǩƇ",
        "Ə"
      ],
      [
        "ǦƄ",
        "Ɵ"
      ],
      [
        "Ǧ",
        "ƄƟ"
      ],
      [
        "Ġ",
        "o"
      ],
      [
        "ƈ",
        "Ƒ"
      ],
      [
        "ǧ",
        "Ɯ"
      ],
      [
        "ǩ",
        "ƗƮ"
      ],
      [
        "ǩƗ",
        "Ʈ"
      ],
      [
        "Ǧ",
        "ƃƅ"
      ],
      [
        "Ǧƃ",
        "ƅ"
      ],
      [
        "ơ",
        "Ǧ"
      ],
      [
        "ǥƺ",
        "Ʀ"
      ],
      [
        "ǥ",
        "ƺƦ"
      ],
      [
        "ǧ",
        "Ʊƻ"
      ],
      [
        "ǧƱ",
        "ƻ"
      ],
      [
        "ǧ",
        "Ɲ"
      ],
      [
        "s",
        "t"
      ],
      [
        "a",
        "l"
      ],
      [
        "ǩ",
        "Ɣ"
      ],
      [
        "ǥƊ",
        "Ʃ"
      ],
      [
        "ǥ",
        "ƊƩ"
      ],
      [
        "Ǩ",
        "Ɗ"
      ],
      [
        "Ǧ",
        "Ɯƀ"
      ],
      [
        "ǦƜ",
        "ƀ"
      ],
      [
        "ǥ",
        "Ʈƶ"
      ],
      [
        "ǥƮ",
        "ƶ"
      ],
      [
        "a",
        "r"
      ],
      [
        "n",
        "t"
      ],
      [
        "Ǧ",
        "ƙƺ"
      ],
      [
        "Ǧƙ",
        "ƺ"
      ],
      [
        "ǥƐ",
        "ƈ"
      ],
      [
        "ǥ",
        "Ɛƈ"
      ],
      [
        "Ġ",
        "c"
      ],
      [
        "Ǧ",
        "Ɩư"
      ],
      [
        "ǦƖ",
        "ư"
      ],
      [
        "Ǩ",
        "ơƨ"
      ],
      [
        "Ǩơ",
        "ƨ"
      ],
      [
        "n",
        "g"
      ],
      [
        "ƀ",
        "Ɲ"
      ],
      [
        "ǩ",
        "Ɨƴ"
      ],
      [
        "ǩƗ",
        "ƴ"
      ],
      [
        "ǥ",
        "ưƏ"
      ],
      [
        "ǥư",
        "Ə"
      ],
      [
        "ǧ",
        "Ɵ"
      ],
      [
        "ǥ",
        "Ɖ"
      ],
      [
        "Ǥƽƿ",
        "ǧƔƨ"
      ],
      [
        "ǥ",
        "ƾƗ"
      ],
      [
        "ǥƾ",
        "Ɨ"
      ],
      [
        "ǤƸ",
        "ƚ"
      ],
      [
        "Ǥ",
        "Ƹƚ"
      ],
      [
        "ǤƸƀ",
        "Ǥƺƛ"
      ],
      [
        "ǧ",
        "ƴ"
      ],
      [
        "Ǧƙƺ",
        "Ǩƃƽ"
      ],
      [
        "l",
        "e"
      ],
      [
        "ǩ",
        "ƚ"
      ],
      [
        "n",
        "d"
      ],
      [
        "Ǩ",
        "Ʈơ"
      ],
      [
        "ǨƮ",
        "ơ"
      ],
      [
        "ǧƨ",
        "Ƌ"
      ],
      [
        "ǧ",
        "ƨƋ"
      ],
      [
        "ƥ",
        "ƽ"
      ],
      [
        "ǧ",
        "ƾ"
      ],
      [
        "ǧƻ",
        "Ə"
      ],
      [
        "ǧ",
        "ƻƏ"
      ],
      [
        "ǧơ",
        "Ʈ"
      ],
      [
        "ǧ",
        "ơƮ"
      ],
      [
        "ƀ",
        "Ɯ"
      ],
      [
        "Ǥƹ",
        "Ơ"
      ],
      [
        "Ǥ",
        "ƹƠ"
      ],
      [
        "ƥ",
        "ǥ"
      ],
      [
        "ǥ",
        "Ʈƞ"
      ],
      [
        "ǥƮ",
        "ƞ"
      ],
      [
        "Ġ",
        "ǥ"
      ],
      [
        "ǥƼ",
        "Ə"
      ],
      [
        "ǥ",
        "ƼƏ"
      ],
      [
        "Ƹ",
        "ƭ"
      ],
      [
        "ǧ",
        "ƽ"
      ],
      [
        "Ǩƀ",
        "ƌ"
      ],
      [
        "Ǩ",
        "ƀƌ"
      ],
      [
        "Ġ",
        "="
      ],
      [
        "ǥ",
        "ƸƮ"
      ],
      [
        "ǥƸ",
        "Ʈ"
      ],
      [
        "ƺ",
        "ƺ"
      ],
      [
        "ǧ",
        "Ʃ"
      ],
      [
        "ƌ",
        "Ǧ"
      ],
      [
        "Ɓ",
        "Ư"
      ],
      [
        "ƀ",
        "Ǧ"
      ],
      [
        "ǩ",
        "ơ"
      ],
      [
        "Ǥƾ",
        "ƛ"
      ],
      [
        "Ǥ",
        "ƾƛ"
      ],
      [
        "ǥƽ",
        "Ʊ"
      ],
      [
        "ǥ",
        "ƽƱ"
      ],
      [
        "ǩ",
        "Ʀ"
      ],
      [
        "ǥ",
        "ƈƶ"
      ],
      [
        "ǥƈ",
        "ƶ"
      ],
      [
        "ǦƊƀ",
        "ǦƜƯ"
      ],
      [
        "Ǩƀ",
        "ƅ"
      ],
      [
        "Ǩ",
        "ƀƅ"
      ],
      [
        "Ǧ",
        "ƄƏ"
      ],
      [
        "ǦƄ",
        "Ə"
      ],
      [
        "i",
        "t"
      ],
      [
        "ǥ",
        "ƅƬ"
      ],
      [
        "ǥƅ",
        "Ƭ"
      ],
      [
        "*",
        "*"
      ],
      [
        "ƥ",
        "Ǥ"
      ],
      [
        "ǥƏƯ",
        "Ǩƃƽ"
      ],
      [
        "Ġ",
        "p"
      ],
      [
        "ǥ",
        "ƛƠ"
      ],
      [
        "ǥƛ",
        "Ơ"
      ],
      [
        "ƭ",
        "Ɖ"
      ],
      [
        "ǤƸ",
        "Ǝ"
      ],
      [
        "Ǥ",
        "ƸƎ"
      ],
      [
        "ƙ",
        "ƨ"
      ],
      [
        "s",
        "e"
      ],
      [
        "Ǧ",
        "Ʒ"
      ],
      [
        "Ə",
        "Ư"
      ],
      [
        "Ǧ",
        "ƜƬ"
      ],
      [
        "ǦƜ",
        "Ƭ"
      ],
      [
        "t",
        "o"
      ],
      [
        "r",
        "a"
      ],
      [
        "Ǩ",
        "Ưƭ"
      ],
      [
        "ǨƯ",
        "ƭ"
      ],
      [
        "ƨ",
        "ǥ"
      ],
      [
        "ǧ",
        "ƕ"
      ],
      [
        "ǥƻ",
        "ƺ"
      ],
      [
        "ǥ",
        "ƻƺ"
      ],
      [
        "ǥ",
        "ƞ"
      ],
      [
        "Ƹ",
        "Ƌ"
      ],
      [
        "ǦƏƐ",
        "Ǥƾƛ"
      ],
      [
        "ǩ",
        "Ƃ"
      ],
      [
        "Ǩƿƛ",
        "Ǩơƌ"
      ],
      [
        "Ġ",
        "f"
      ],
      [
        "o",
        "u"
      ],
      [
        "ǩƗƮ",
        "ǩƢƘ"
      ],
      [
        "Ǧƴ",
        "ƻ"
      ],
      [
        "Ǧ",
        "ƴƻ"
      ],
      [
        "ǥƱ",
        "ƕ"
      ],
      [
        "ǥ",
        "Ʊƕ"
      ],
      [
        "ǥƅ",
        "Ʒ"
      ],
      [
        "ǥ",
        "ƅƷ"
      ],
      [
        "Ǥƺ",
        "Ƨ"
      ],
      [
        "Ǥ",
        "ƺƧ"
      ],
      [
        "ǧ",
        "Ƴƻ"
      ],
      [
        "ǧƳ",
        "ƻ"
      ],
      [
        "ǩ",
        "ƕ"
      ],
      [
        "ƨ",
        "Ǧ"
      ],
      [
        "ǦƜ",
        "ƺ"
      ],
      [
        "Ǧ",
        "Ɯƺ"
      ],
      [
        "r",
        "i"
      ],
      [
        "Ǩ",
        "Ɓ"
      ],
      [
        "Ġ",
        "w"
      ],
      [
        "ƽ",
        "ǧ"
      ],
      [
        "ǧƛ",
        "Ƹ"
      ],
      [
        "ǧ",
        "ƛƸ"
      ],
      [
        "Ơ",
        "Ǧ"
      ],
      [
        "ǥƸƮ",
        "ǥƊƩ"
      ],
      [
        "Ɣ",
        "Ɵ"
      ],
      [
        "Ǥƹ",
        "Ƌ"
      ],
      [
        "Ǥ",
        "ƹƋ"
      ],
      [
        "ǧ",
        "Ƭ"
      ],
      [
        "Ɯ",
        "Ɖ"
      ],
      [
        "ƿ",
        "ƙ"
      ],
      [
        "Ǩ",
        "Ʒ"
      ],
      [
        "ǩ",
        "ƃ"
      ],
      [
        "Ɩ",
        "Ƈ"
      ],
      [
        "ǧƎ",
        "Ư"
      ],
      [
        "ǧ",
        "ƎƯ"
      ],
      [
        "Ġ",
        "b"
      ],
      [
        "ǩƃ",
        "ƽ"
      ],
      [
        "ǩ",
        "ƃƽ"
      ],
      [
        "ǩ",
        "ƅ"
      ],
      [
        "Ǩ",
        "ƉƲ"
      ],
      [
        "ǨƉ",
        "Ʋ"
      ],
      [
        "ǥ",
        "ƿƃ"
      ],
      [
        "ǥƿ",
        "ƃ"
      ],
      [
        "Ǩƿ",
        "Ƙ"
      ],
      [
        "Ǩ",
        "ƿƘ"
      ],
      [
        "ǥƤ",
        "Ʃ"
      ],
      [
        "ǥ",
        "ƤƩ"
      ],
      [
        "ǩ",
        "ƪ"
      ],
      [
        "ǥƅ",
        "ƥ"
      ],
      [
        "ǥ",
        "ƅƥ"
      ],
      [
        "ǧ",
        "Ɖƹ"
      ],
      [
        "ǧƉ",
        "ƹ"
      ],
      [
        "Ǥƹ",
        "ƈ"
      ],
      [
        "Ǥ",
        "ƹƈ"
      ],
      [
        "ǤƸ",
        "ƻ"
      ],
      [
        "Ǥ",
        "Ƹƻ"
      ],
      [
        "ƺ",
        "Ǩ"
      ],
      [
        "ǥ",
        "Ɗơ"
      ],
      [
        "ǥƊ",
        "ơ"
      ],
      [
        "ǧ",
        "Ơ"
      ],
      [
        "ǧ",
        "ƃ"
      ],
      [
        "0",
        "0"
      ],
      [
        "ǥ",
        "Ɩ"
      ],
      [
        "Ǧ",
        "ƃƳ"
      ],
      [
        "Ǧƃ",
        "Ƴ"
      ],
      [
        "i",
        "o"
      ],
      [
        "Ɔ",
        "ǥ"
      ],
      [
        "ǧ",
        "ƮƗ"
      ],
      [
        "ǧƮ",
        "Ɨ"
      ],
      [
        "ǧƄ",
        "ƶ"
      ],
      [
        "ǧ",
        "Ƅƶ"
      ],
      [
        "Ġ",
        "1"
      ],
      [
        "ǨƯ",
        "ƥ"
      ],
      [
        "Ǩ",
        "Ưƥ"
      ],
      [
        "d",
        "e"
      ],
      [
        "Ǧƕư",
        "ǦƍƮ"
      ],
      [
        "Ġ",
        "\\"
      ],
      [
        "Ǩ",
        "Ƣ"
      ],
      [
        "ǨƮ",
        "Ʃ"
      ],
      [
        "Ǩ",
        "ƮƩ"
      ],
      [
        "ǩ",
        "ƛ"
      ],
      [
        "ǧƔ",
        "Ƶ"
      ],
      [
        "ǧ",
        "ƔƵ"
      ],
      [
        "Ǧƌ",
        "Ɓ"
      ],
      [
        "Ǧ",
        "ƌƁ"
      ],
      [
        "m",
        "e"
      ],
      [
        "Ǧ",
        "Ɖƀ"
      ],
      [
        "ǦƉ",
        "ƀ"
      ],
      [
        "ǥƭƦ",
        "ǤƹƠ"
      ],
      [
        "ƭ",
        "Ƥ"
      ],
      [
        "v",
        "e"
      ],
      [
        "ǧ",
        "Ƽ"
      ],
      [
        "ǥ",
        "Ɲ"
      ],
      [
        "Ǧ",
        "Ɵ"
      ],
      [
        "ƺ",
        "ƫ"
      ],
      [
        "Ǧ",
        "ơ"
      ],
      [
        "ƨ",
        "Ǩ"
      ],
      [
        "ǧ",
        "Ƃƹ"
      ],
      [
        "ǧƂ",
        "ƹ"
      ],
      [
        "Ǩƿƙ",
        "Ǥƺƛ"
      ],
      [
        "Ƅ",
        "ǧ"
      ],
      [
        "ǩƀƚ",
        "ǨƿƇ"
      ],
      [
        "e",
        "d"
      ],
      [
        "ǩ",
        "Ɵ"
      ],
      [
        "Ǩ",
        "ƙ"
      ],
      [
        "ǥ",
        "ƅƨ"
      ],
      [
        "ǥƅ",
        "ƨ"
      ],
      [
        "ǥ",
        "ƷƱ"
      ],
      [
        "ǥƷ",
        "Ʊ"
      ],
      [
        "ǥƏ",
        "Ƙ"
      ],
      [
        "ǥ",
        "ƏƘ"
      ],
      [
        "Ǧ",
        "ƘƎ"
      ],
      [
        "ǦƘ",
        "Ǝ"
      ],
      [
        "Ƹ",
        "ƺ"
      ],
      [
        "ǨƇƪ",
        "ǥƷƱ"
      ],
      [
        "Ƽ",
        "Ɖ"
      ],
      [
        "c",
        "o"
      ],
      [
        "ư",
        "Ə"
      ],
      [
        "ƥ",
        "Ǧ"
      ],
      [
        "a",
        "s"
      ],
      [
        "Ǧư",
        "ƴ"
      ],
      [
        "Ǧ",
        "ưƴ"
      ],
      [
        "ƭ",
        "Ʀ"
      ],
      [
        "Ɵ",
        "Ǧ"
      ],
      [
        "Ǥƺƺ",
        "ǥƷƥ"
      ],
      [
        "ǧƻ",
        "ƙ"
      ],
      [
        "ǧ",
        "ƻƙ"
      ],
      [
        "Ǥƻ",
        "Ǝ"
      ],
      [
        "Ǥ",
        "ƻƎ"
      ],
      [
        "Ƒ",
        "Ǧ"
      ],
      [
        "ǥƾ",
        "ƈ"
      ],
      [
        "ǥ",
        "ƾƈ"
      ],
      [
        "Ġ",
        "m"
      ],
      [
        "Ġ",
        "d"
      ],
      [
        "Ǥ",
        "ƽƆ"
      ],
      [
        "Ǥƽ",
        "Ɔ"
      ],
      [
        "ǥƛ",
        "ƽ"
      ],
      [
        "ǥ",
        "ƛƽ"
      ],
      [
        "ǧ",
        "Ɲƀ"
      ],
      [
        "ǧƝ",
        "ƀ"
      ],
      [
        "Ǧ",
        "Ʈ"
      ],
      [
        "Ǥ",
        "ƽƕ"
      ],
      [
        "Ǥƽ",
        "ƕ"
      ],
      [
        "ǩ",
        "ƀƂ"
      ],
      [
        "ǩƀ",
        "Ƃ"
      ],
      [
        "Ǥƻ",
        "ƣ"
      ],
      [
        "Ǥ",
        "ƻƣ"
      ],
      [
        "l",
        "i"
      ],
      [
        "ƶ",
        "ǥ"
      ],
      [
        "Ƽ",
        "ƈ"
      ],
      [
        "ǤƺƺǥƷƥ",
        "ǦƙƺǨƃƽ"
      ],
      [
        "Ɣ",
        "ƨ"
      ],
      [
        "Ġ",
        "Ǧ"
      ],
      [
        "ǩ",
        "ƣƟ"
      ],
      [
        "ǩƣ",
        "Ɵ"
      ],
      [
        "Ǧ",
        "ưƔ"
      ],
      [
        "Ǧư",
        "Ɣ"
      ],
      [
        "t",
        "a"
      ],
      [
        "ǩ",
        "ƀƉ"
      ],
      [
        "ǩƀ",
        "Ɖ"
      ],
      [
        "c",
        "e"
      ],
      [
        "Ǩƿƙ",
        "ǤƸƪ"
      ],
      [
        "Ǩ",
        "Ɛ"
      ],
      [
        "Ə",
        "ǥ"
      ],
      [
        "Ƒ",
        "ǥ"
      ],
      [
        "Ǥ",
        "ƺƋ"
      ],
      [
        "Ǥƺ",
        "Ƌ"
      ],
      [
        "r",
        "o"
      ],
      [
        "ƪ",
        "ǥ"
      ],
      [
        "Ɨ",
        "ƶ"
      ],
      [
        "ƪ",
        "Ǧ"
      ],
      [
        "ư",
        "ǥ"
      ],
      [
        "Ǩ",
        "ƨ"
      ],
      [
        "e",
        "a"
      ],
      [
        "i",
        "c"
      ],
      [
        "Ǩ",
        "Ʈƾ"
      ],
      [
        "ǨƮ",
        "ƾ"
      ],
      [
        "Ʀ",
        "Ɓ"
      ],
      [
        "o",
        "f"
      ],
      [
        "Ư",
        "ǥ"
      ],
      [
        "ƽ",
        "Ɠ"
      ],
      [
        "ǧ",
        "ƛƮ"
      ],
      [
        "ǧƛ",
        "Ʈ"
      ],
      [
        "Ǧƈ",
        "Ʒ"
      ],
      [
        "Ǧ",
        "ƈƷ"
      ],
      [
        "ƽ",
        "Ơ"
      ],
      [
        "Ƣ",
        "Ƙ"
      ],
      [
        "ǥ",
        "ƌƅ"
      ],
      [
        "ǥƌ",
        "ƅ"
      ],
      [
        "ƕ",
        "ư"
      ],
      [
        "ǥ",
        "ƐƎ"
      ],
      [
        "ǥƐ",
        "Ǝ"
      ],
      [
        "Ə",
        "Ǧ"
      ],
      [
        "ǩ",
        "Ɲƞ"
      ],
      [
        "ǩƝ",
        "ƞ"
      ],
      [
        "ǥƏ",
        "Ɩ"
      ],
      [
        "ǥ",
        "ƏƖ"
      ],
      [
        "ƌ",
        "ǥ"
      ],
      [
        "ƹ",
        "Ǧ"
      ],
      [
        "ƅ",
        "Ǧ"
      ],
      [
        "ǥ",
        "ƏƊ"
      ],
      [
        "ǥƏ",
        "Ɗ"
      ],
      [
        "ƙ",
        "Ǥ"
      ],
      [
        "ǦƯ",
        "Ɣ"
      ],
      [
        "Ǧ",
        "ƯƔ"
      ],
      [
        "Ǩ",
        "Ƌ"
      ],
      [
        "Ɩ",
        "ǥ"
      ],
      [
        "ƨ",
        "ǧ"
      ],
      [
        "Ǥ",
        "ƺƤ"
      ],
      [
        "Ǥƺ",
        "Ƥ"
      ],
      [
        "ƾ",
        "Ƌ"
      ],
      [
        "ǥ",
        "ƸƂ"
      ],
      [
        "ǥƸ",
        "Ƃ"
      ],
      [
        "ǨƯ",
        "Ʒ"
      ],
      [
        "Ǩ",
        "ƯƷ"
      ],
      [
        "ǥƏ",
        "Ɨ"
      ],
      [
        "ǥ",
        "ƏƗ"
      ],
      [
        "h",
        "a"
      ],
      [
        "ǧ",
        "Ɩ"
      ],
      [
        "ǥƐ",
        "ƍ"
      ],
      [
        "ǥ",
        "Ɛƍ"
      ],
      [
        "Ǧ",
        "ƕƈ"
      ],
      [
        "Ǧƕ",
        "ƈ"
      ],
      [
        "ǩ",
        "ƥ"
      ],
      [
        "ǧƻ",
        "Ɵ"
      ],
      [
        "ǧ",
        "ƻƟ"
      ],
      [
        "ǦƯ",
        "Ə"
      ],
      [
        "Ǧ",
        "ƯƏ"
      ],
      [
        "ƈ",
        "Ɛ"
      ],
      [
        "ǧƐ",
        "ƃ"
      ],
      [
        "ǧ",
        "Ɛƃ"
      ],
      [
        "Ƈ",
        "ǥ"
      ],
      [
        "ǥƹ",
        "Ƴ"
      ],
      [
        "ǥ",
        "ƹƳ"
      ],
      [
        "Ǧ",
        "ƭƣ"
      ],
      [
        "Ǧƭ",
        "ƣ"
      ],
      [
        "Ƌ",
        "Ǧ"
      ],
      [
        "ǧ",
        "Ƌ"
      ],
      [
        "ǥ",
        "ƽƓ"
      ],
      [
        "ǥƽ",
        "Ɠ"
      ],
      [
        "ǤƸƍ",
        "ǥƐƌ"
      ],
      [
        "1",
        "0"
      ],
      [
        "Ǥ",
        "ƻƻ"
      ],
      [
        "Ǥƻ",
        "ƻ"
      ],
      [
        "Ġ",
        "r"
      ],
      [
        "Ɵ",
        "ǥ"
      ],
      [
        "ǦƘƯ",
        "ǤƸƀ"
      ],
      [
        "ǥƜ",
        "ƺ"
      ],
      [
        "ǥ",
        "Ɯƺ"
      ],
      [
        "Ġ",
        "e"
      ],
      [
        "Ǩ",
        "ƴƨ"
      ],
      [
        "Ǩƴ",
        "ƨ"
      ],
      [
        "Ɛ",
        "Ǥ"
      ],
      [
        "ǥƦƂ",
        "ǦƞƜ"
      ],
      [
        "ƽ",
        "ǥ"
      ],
      [
        "n",
        "e"
      ],
      [
        "a",
        "c"
      ],
      [
        "ǥ",
        "Ɠƍ"
      ],
      [
        "ǥƓ",
        "ƍ"
      ],
      [
        "Ƈ",
        "ǧ"
      ],
      [
        "ǧ",
        "ƾƎ"
      ],
      [
        "ǧƾ",
        "Ǝ"
      ],
      [
        "ǩ",
        "ƕƿ"
      ],
      [
        "ǩƕ",
        "ƿ"
      ],
      [
        "ǩƇƍ",
        "ǨƦƁ"
      ],
      [
        "ƺ",
        "Ɛ"
      ],
      [
        "ǥƈ",
        "ƛ"
      ],
      [
        "ǥ",
        "ƈƛ"
      ],
      [
        "ǥ",
        "ƤƟ"
      ],
      [
        "ǥƤ",
        "Ɵ"
      ],
      [
        "ǦƱ",
        "Ƃ"
      ],
      [
        "Ǧ",
        "ƱƂ"
      ],
      [
        "n",
        "s"
      ],
      [
        "ƍ",
        "ǥ"
      ],
      [
        "Ƅ",
        "ƶ"
      ],
      [
        "Ɩ",
        "Ɨ"
      ],
      [
        "Ǧ",
        "ƶ"
      ],
      [
        "e",
        "t"
      ],
      [
        "Ǩ",
        "Ƣƫ"
      ],
      [
        "ǨƢ",
        "ƫ"
      ],
      [
        "ǥƺƔ",
        "ǧƔƨ"
      ],
      [
        "ǥ",
        "ƭƗ"
      ],
      [
        "ǥƭ",
        "Ɨ"
      ],
      [
        "Ǥƻƥ",
        "ǤƸƋ"
      ],
      [
        "ƻ",
        "Ƭ"
      ],
      [
        "Ǝ",
        "ǥ"
      ],
      [
        "ǧ",
        "Ư"
      ],
      [
        "Ƒ",
        "Ǥ"
      ],
      [
        "Ġ",
        "2"
      ],
      [
        "ǤƻƖ",
        "ǤƻƬ"
      ],
      [
        "o",
        "m"
      ],
      [
        "Ʈ",
        "ǩ"
      ],
      [
        "ǥƆ",
        "ƅ"
      ],
      [
        "ǥ",
        "Ɔƅ"
      ],
      [
        "ǤƸƭ",
        "ǧƚƄ"
      ],
      [
        "ƥ",
        "Ǩ"
      ],
      [
        "ǥƆ",
        "Ƴ"
      ],
      [
        "ǥ",
        "ƆƳ"
      ],
      [
        "ǧ",
        "ƈ"
      ],
      [
        "ǩƁ",
        "Ɠ"
      ],
      [
        "ǩ",
        "ƁƓ"
      ],
      [
        "ǥƈ",
        "Ʃ"
      ],
      [
        "ǥ",
        "ƈƩ"
      ],
      [
        "Ɲ",
        "ƥ"
      ],
      [
        "ǥ",
        "ƞƋ"
      ],
      [
        "ǥƞ",
        "Ƌ"
      ],
      [
        "ǧ",
        "Ɨ"
      ],
      [
        "Ƈ",
        "Ǧ"
      ],
      [
        "Ƹ",
        "ƍ"
      ],
      [
        "ƴ",
        "ǥ"
      ],
      [
        "Ǩ",
        "ƵƷ"
      ],
      [
        "ǨƵ",
        "Ʒ"
      ],
      [
        "`",
        "`"
      ],
      [
        "u",
        "r"
      ],
      [
        "ǥƽƱ",
        "ǥƓƍ"
      ],
      [
        "ƨ",
        "ơ"
      ],
      [
        "ǥƢ",
        "ƃ"
      ],
      [
        "ǥ",
        "Ƣƃ"
      ],
      [
        "ǥƤ",
        "Ƅ"
      ],
      [
        "ǥ",
        "ƤƄ"
      ],
      [
        "Ơ",
        "ǥ"
      ],
      [
        "A",
        "I"
      ],
      [
        "2",
        "0"
      ],
      [
        "Ġ",
        "n"
      ],
      [
        "Ǥ",
        "ƻƶ"
      ],
      [
        "Ǥƻ",
        "ƶ"
      ],
      [
        "ǩ",
        "ƃƨ"
      ],
      [
        "ǩƃ",
        "ƨ"
      ],
      [
        "l",
        "l"
      ],
      [
        "ǥƏƑ",
        "ǥƱƕ"
      ],
      [
        "ǩƂ",
        "ƣ"
      ],
      [
        "ǩ",
        "Ƃƣ"
      ],
      [
        "Ǩ",
        "ƈ"
      ],
      [
        "s",
        "i"
      ],
      [
        "ǧ",
        "ƥ"
      ],
      [
        "l",
        "a"
      ],
      [
        "ƀ",
        "Ǩ"
      ],
      [
        "ƈ",
        "Ɔ"
      ],
      [
        "ǥ",
        "ưƑ"
      ],
      [
        "ǥư",
        "Ƒ"
      ],
      [
        "Ǧ",
        "ƠƇ"
      ],
      [
        "ǦƠ",
        "Ƈ"
      ],
      [
        "ǩƝƞ",
        "ǥƸƸ"
      ],
      [
        "Ǥƽ",
        "ƍ"
      ],
      [
        "Ǥ",
        "ƽƍ"
      ],
      [
        "ƀ",
        "ǧ"
      ],
      [
        "-",
        "-"
      ],
      [
        "ǩƣ",
        "Ǝ"
      ],
      [
        "ǩ",
        "ƣƎ"
      ],
      [
        "m",
        "a"
      ],
      [
        "ǦƉ",
        "Ƌ"
      ],
      [
        "Ǧ",
        "ƉƋ"
      ],
      [
        "ǧƻ",
        "Ɠ"
      ],
      [
        "ǧ",
        "ƻƓ"
      ],
      [
        "Ʈ",
        "ǥ"
      ],
      [
        "ƺ",
        "Ɔ"
      ],
      [
        "Ġ",
        "l"
      ],
      [
        "ǩ",
        "ƢƆ"
      ],
      [
        "ǩƢ",
        "Ɔ"
      ],
      [
        "ƞ",
        "Ɯ"
      ],
      [
        "ǦƗƶ",
        "ǩƗƴ"
      ],
      [
        "Ƅ",
        "Ǥ"
      ],
      [
        "ǦƳ",
        "ƨ"
      ],
      [
        "Ǧ",
        "Ƴƨ"
      ],
      [
        "ǥƹ",
        "ƴ"
      ],
      [
        "ǥ",
        "ƹƴ"
      ],
      [
        "e",
        "l"
      ],
      [
        "Ƭ",
        "ǥ"
      ],
      [
        "Ɨ",
        "Ʈ"
      ],
      [
        "Ġ",
        "h"
      ],
      [
        "ǥƏ",
        "Ƹ"
      ],
      [
        "ǥ",
        "ƏƸ"
      ],
      [
        "ǩ",
        "Ɯ"
      ],
      [
        "ǩƟ",
        "Ƴ"
      ],
      [
        "ǩ",
        "ƟƳ"
      ],
      [
        "Ƅ",
        "Ǩ"
      ],
      [
        "ǥ",
        "ƮƉ"
      ],
      [
        "ǥƮ",
        "Ɖ"
      ],
      [
        "Ə",
        "Ɛ"
      ],
      [
        "Ǩ",
        "Ʊ"
      ],
      [
        "ƺ",
        "Ǝ"
      ],
      [
        "ƺ",
        "Ǥ"
      ],
      [
        "ǦƋ",
        "Ʃ"
      ],
      [
        "Ǧ",
        "ƋƩ"
      ],
      [
        "ǩ",
        "Ƈƌ"
      ],
      [
        "ǩƇ",
        "ƌ"
      ],
      [
        "ǧ",
        "ƧƑ"
      ],
      [
        "ǧƧ",
        "Ƒ"
      ],
      [
        "ǩƀƉ",
        "ǦƋƩ"
      ],
      [
        "ǨƮ",
        "Ʈ"
      ],
      [
        "Ǩ",
        "ƮƮ"
      ],
      [
        "ǨƯ",
        "Ɔ"
      ],
      [
        "Ǩ",
        "ƯƆ"
      ],
      [
        "p",
        "r"
      ],
      [
        "Ɔ",
        "Ǧ"
      ],
      [
        "h",
        "i"
      ],
      [
        "Ƃ",
        "ƨ"
      ],
      [
        "ǥ",
        "ƈƫ"
      ],
      [
        "ǥƈ",
        "ƫ"
      ],
      [
        "c",
        "a"
      ],
      [
        "Ǩ",
        "ƍ"
      ],
      [
        "Ǥ",
        "ƻƀ"
      ],
      [
        "Ǥƻ",
        "ƀ"
      ],
      [
        "Ʒ",
        "ƥ"
      ],
      [
        "ƽ",
        "Ɯ"
      ],
      [
        "Ɖ",
        "ǥ"
      ],
      [
        "Ġ",
        "-"
      ],
      [
        "Ƥ",
        "ǥ"
      ],
      [
        "Ƙ",
        "ǥ"
      ],
      [
        "ǥƼ",
        "ƀ"
      ],
      [
        "ǥ",
        "Ƽƀ"
      ],
      [
        "Ǧ",
        "Ɓ"
      ],
      [
        "ǥƦƂ",
        "Ǥƽƕ"
      ],
      [
        "Ư",
        "ƹ"
      ],
      [
        "ǥ",
        "ƟƟ"
      ],
      [
        "ǥƟ",
        "Ɵ"
      ],
      [
        "Ǩƃƽ",
        "ǥƤƟ"
      ],
      [
        "ǨƃƽǥƤ",
        "Ɵ"
      ],
      [
        "ǧ",
        "Ƥƾ"
      ],
      [
        "ǧƤ",
        "ƾ"
      ],
      [
        "ơǦ",
        "ƁƯ"
      ],
      [
        "ơ",
        "ǦƁƯ"
      ],
      [
        "ƙ",
        "ǥ"
      ],
      [
        "n",
        "c"
      ],
      [
        "ǥƅƬ",
        "ǥƏƸ"
      ],
      [
        "Ǧ",
        "ƜƟ"
      ],
      [
        "ǦƜ",
        "Ɵ"
      ],
      [
        "ƺ",
        "Ʀ"
      ],
      [
        "Ǧ",
        "ƵƁ"
      ],
      [
        "ǦƵ",
        "Ɓ"
      ],
      [
        "ǩ",
        "ƻ"
      ],
      [
        "Ǥƿ",
        "ơǦƁƯ"
      ],
      [
        "Ǥƿơ",
        "ǦƁƯ"
      ],
      [
        "c",
        "t"
      ],
      [
        "Ǥƻƀ",
        "Ǥƹƈ"
      ],
      [
        "ǥƷƥ",
        "ǤƽƜ"
      ],
      [
        "ƺ",
        "Ǧ"
      ],
      [
        "ǧ",
        "Ʋ"
      ],
      [
        "h",
        "o"
      ],
      [
        "Ġ",
        "|"
      ],
      [
        "Ǩ",
        "ƺƫ"
      ],
      [
        "Ǩƺ",
        "ƫ"
      ],
      [
        "ǧ",
        "Ɵƥ"
      ],
      [
        "ǧƟ",
        "ƥ"
      ],
      [
        "Ǧ",
        "ƗƠ"
      ],
      [
        "ǦƗ",
        "Ơ"
      ],
      [
        "Ɛ",
        "ǥ"
      ],
      [
        "Ǩ",
        "Ə"
      ],
      [
        "ǧ",
        "ƙ"
      ],
      [
        "ǥƉ",
        "ƍ"
      ],
      [
        "ǥ",
        "Ɖƍ"
      ],
      [
        "Ġ",
        "*"
      ],
      [
        "c",
        "h"
      ],
      [
        "ǩ",
        "ƒ"
      ],
      [
        "ǥƽ",
        "Ƣ"
      ],
      [
        "ǥ",
        "ƽƢ"
      ],
      [
        "ǦƠ",
        "ƹ"
      ],
      [
        "Ǧ",
        "Ơƹ"
      ],
      [
        "ư",
        "Ǧ"
      ],
      [
        "ǧ",
        "Ɓ"
      ],
      [
        "ƻ",
        "ǥ"
      ],
      [
        "ƛ",
        "Ơ"
      ],
      [
        "ǧƎƯ",
        "ǥƢƃ"
      ],
      [
        "ǦƏƐ",
        "ǩƫƘ"
      ],
      [
        "ƍ",
        "Ǧ"
      ],
      [
        "ǥ",
        "ƑƘ"
      ],
      [
        "ǥƑ",
        "Ƙ"
      ],
      [
        "ǥ",
        "ƯƼ"
      ],
      [
        "ǥƯ",
        "Ƽ"
      ],
      [
        "Ǧ",
        "ƠƷ"
      ],
      [
        "ǦƠ",
        "Ʒ"
      ],
      [
        "ǦƜ",
        "ƍ"
      ],
      [
        "Ǧ",
        "Ɯƍ"
      ],
      [
        "ǦƖƹ",
        "ǥƼƏ"
      ],
      [
        "Ǩƀ",
        "ƃ"
      ],
      [
        "Ǩ",
        "ƀƃ"
      ],
      [
        "ǥư",
        "Ʊ"
      ],
      [
        "ǥ",
        "ưƱ"
      ],
      [
        "ǦƔ",
        "ƾ"
      ],
      [
        "Ǧ",
        "Ɣƾ"
      ],
      [
        "Ǩ",
        "Ƅ"
      ],
      [
        "ǧƜ",
        "Ƌ"
      ],
      [
        "ǧ",
        "ƜƋ"
      ],
      [
        "ƅ",
        "ǥ"
      ],
      [
        "ǦƜ",
        "ƪ"
      ],
      [
        "Ǧ",
        "Ɯƪ"
      ],
      [
        "Ƙ",
        "Ǝ"
      ],
      [
        "u",
        "m"
      ],
      [
        "ǨƯ",
        "ƍ"
      ],
      [
        "Ǩ",
        "Ưƍ"
      ],
      [
        "Ɖ",
        "Ǧ"
      ],
      [
        "f",
        "o"
      ],
      [
        "ǥƍ",
        "ƕ"
      ],
      [
        "ǥ",
        "ƍƕ"
      ],
      [
        "ǥ",
        "Ɓƥ"
      ],
      [
        "ǥƁ",
        "ƥ"
      ],
      [
        "Ǧ",
        "Ɨƥ"
      ],
      [
        "ǦƗ",
        "ƥ"
      ],
      [
        "e",
        "c"
      ],
      [
        "ǥ",
        "ƕ"
      ],
      [
        "ǥ",
        "Ɔƙ"
      ],
      [
        "ǥƆ",
        "ƙ"
      ],
      [
        "b",
        "e"
      ],
      [
        "Ǥ",
        "ƹƐ"
      ],
      [
        "Ǥƹ",
        "Ɛ"
      ],
      [
        "ǥ",
        "Ƽƺ"
      ],
      [
        "ǥƼ",
        "ƺ"
      ],
      [
        "ǩ",
        "Ʃ"
      ],
      [
        "Ǧ",
        "ƸƸ"
      ],
      [
        "ǦƸ",
        "Ƹ"
      ],
      [
        "Ǧƛƴ",
        "ǥƥƽ"
      ],
      [
        "Ǩ",
        "ưƃ"
      ],
      [
        "Ǩư",
        "ƃ"
      ],
      [
        "o",
        "t"
      ],
      [
        "ƙ",
        "Ǧ"
      ],
      [
        "Ǧ",
        "ƌƇ"
      ],
      [
        "Ǧƌ",
        "Ƈ"
      ],
      [
        "Ġ",
        "ǧ"
      ],
      [
        "ƚ",
        "ǥ"
      ],
      [
        "ǥ",
        "Ɵƺ"
      ],
      [
        "ǥƟ",
        "ƺ"
      ],
      [
        "ǨƯ",
        "ƴ"
      ],
      [
        "Ǩ",
        "Ưƴ"
      ],
      [
        "Ǥƺƺ",
        "ǧƱƻ"
      ],
      [
        "ǥƎ",
        "ƻ"
      ],
      [
        "ǥ",
        "Ǝƻ"
      ],
      [
        "ǨƇƪǥƷƱ",
        "ǧƚƄ"
      ],
      [
        "Ǧ",
        "ƊƤ"
      ],
      [
        "ǦƊ",
        "Ƥ"
      ],
      [
        "ƺ",
        "ǧ"
      ],
      [
        "ǨƮ",
        "Ƥ"
      ],
      [
        "Ǩ",
        "ƮƤ"
      ],
      [
        "Ƈ",
        "Ə"
      ],
      [
        "Ə",
        "ǧ"
      ],
      [
        "ƍ",
        "Ʈ"
      ],
      [
        "ǥƮƃ",
        "ǤƻƬ"
      ],
      [
        "ƹ",
        "Ƌ"
      ],
      [
        "Ɓ",
        "ǥ"
      ],
      [
        "ǦƋ",
        "Ƭ"
      ],
      [
        "Ǧ",
        "ƋƬ"
      ],
      [
        "Ǩ",
        "Ǝ"
      ],
      [
        "r",
        "s"
      ],
      [
        "ǦƖƹ",
        "ǦƳƕ"
      ],
      [
        "Ǧƛƴ",
        "ǥƊƠ"
      ],
      [
        "Ǧ",
        "ƠƼ"
      ],
      [
        "ǦƠ",
        "Ƽ"
      ],
      [
        "Ǧ",
        "ƷƱ"
      ],
      [
        "ǦƷ",
        "Ʊ"
      ],
      [
        "Ɩ",
        "ƹ"
      ],
      [
        "ǥƅƶ",
        "ǤƻƖ"
      ],
      [
        "ǧƔƟ",
        "Ǧƴƻ"
      ],
      [
        "l",
        "o"
      ],
      [
        "ƹ",
        "ƴ"
      ],
      [
        "ǥ",
        "ƮƢ"
      ],
      [
        "ǥƮ",
        "Ƣ"
      ],
      [
        "ǨƊ",
        "Ƃ"
      ],
      [
        "Ǩ",
        "ƊƂ"
      ],
      [
        "ơ",
        "ƌ"
      ],
      [
        "ǥƺƔ",
        "ǨƯƥ"
      ],
      [
        "n",
        "a"
      ],
      [
        "ǧ",
        "ƴƠ"
      ],
      [
        "ǧƴ",
        "Ơ"
      ],
      [
        "Ǩƿ",
        "ư"
      ],
      [
        "Ǩ",
        "ƿư"
      ],
      [
        "Ʃ",
        "Ǧ"
      ],
      [
        "Ƹ",
        "Ɗ"
      ],
      [
        "ǧ",
        "ƫƠ"
      ],
      [
        "ǧƫ",
        "Ơ"
      ],
      [
        "ǧ",
        "Ʈơ"
      ],
      [
        "ǧƮ",
        "ơ"
      ],
      [
        "ƶ",
        "Ǧ"
      ],
      [
        "ǥƐ",
        "Ƅ"
      ],
      [
        "ǥ",
        "ƐƄ"
      ],
      [
        "Ǧ",
        "Ɩƭ"
      ],
      [
        "ǦƖ",
        "ƭ"
      ],
      [
        "ǦƠƹ",
        "ǦƍƮ"
      ],
      [
        "Ƨ",
        "ǥ"
      ],
      [
        "Ƥ",
        "Ɩ"
      ],
      [
        "Ǧƙ",
        "Ư"
      ],
      [
        "Ǧ",
        "ƙƯ"
      ],
      [
        "Ǧ",
        "ƻ"
      ],
      [
        "ƛ",
        "ǥ"
      ],
      [
        "ǨƧ",
        "Ƃ"
      ],
      [
        "Ǩ",
        "ƧƂ"
      ],
      [
        "ǥƺ",
        "Ʒ"
      ],
      [
        "ǥ",
        "ƺƷ"
      ],
      [
        "Ʊ",
        "ǥ"
      ],
      [
        "Ǧ",
        "Ɖƾ"
      ],
      [
        "ǦƉ",
        "ƾ"
      ],
      [
        "ƿ",
        "Ɲ"
      ],
      [
        "Ƨ",
        "Ƌ"
      ],
      [
        "ǨƯ",
        "ƕ"
      ],
      [
        "Ǩ",
        "Ưƕ"
      ],
      [
        "Ǧ",
        "ƕƙ"
      ],
      [
        "Ǧƕ",
        "ƙ"
      ],
      [
        "Ɠ",
        "ǥ"
      ],
      [
        "Ʀ",
        "Ǥ"
      ],
      [
        "Ư",
        "ǧ"
      ],
      [
        "d",
        "i"
      ],
      [
        "ǤƸ",
        "Ƥ"
      ],
      [
        "Ǥ",
        "ƸƤ"
      ],
      [
        "ƾ",
        "ǥ"
      ],
      [
        "ǩƢƆ",
        "ǥƟƟ"
      ],
      [
        "ƪ",
        "ǧ"
      ],
      [
        "Ǥ",
        "ƼƠ"
      ],
      [
        "ǤƼ",
        "Ơ"
      ],
      [
        "ǦƵ",
        "Ƌ"
      ],
      [
        "Ǧ",
        "ƵƋ"
      ],
      [
        "ǧƻ",
        "Ƅ"
      ],
      [
        "ǧ",
        "ƻƄ"
      ],
      [
        "ǥ",
        "ƈƗ"
      ],
      [
        "ǥƈ",
        "Ɨ"
      ],
      [
        "Ǥƾ",
        "Ƌ"
      ],
      [
        "Ǥ",
        "ƾƋ"
      ],
      [
        "u",
        "s"
      ],
      [
        "Ǧ",
        "ƭƥ"
      ],
      [
        "Ǧƭ",
        "ƥ"
      ],
      [
        "ơ",
        "ǧ"
      ],
      [
        "ǨƮơ",
        "ǧƮƗ"
      ],
      [
        "ǥ",
        "ƐƑ"
      ],
      [
        "ǥƐ",
        "Ƒ"
      ],
      [
        "Ǩ",
        "ƣ"
      ],
      [
        "ƙ",
        "ƺ"
      ],
      [
        "Ƃ",
        "ǥ"
      ],
      [
        "ǦƔ",
        "ƹ"
      ],
      [
        "Ǧ",
        "Ɣƹ"
      ],
      [
        "ǩ",
        "ƪƌ"
      ],
      [
        "ǩƪ",
        "ƌ"
      ],
      [
        "Ʈ",
        "Ǧ"
      ],
      [
        "g",
        "e"
      ],
      [
        "ƀ",
        "ƻ"
      ],
      [
        "ǥƸ",
        "Ʀ"
      ],
      [
        "ǥ",
        "ƸƦ"
      ],
      [
        "t",
        "r"
      ],
      [
        "ǥƁƥ",
        "ǥƺƷ"
      ],
      [
        "ǦƖƇ",
        "ǧƫƠ"
      ],
      [
        "ǥƌƅ",
        "ǦƋƬ"
      ],
      [
        "Ư",
        "Ǧ"
      ],
      [
        "ƫ",
        "Ƙ"
      ],
      [
        "ǩƀ",
        "Ơ"
      ],
      [
        "ǩ",
        "ƀƠ"
      ],
      [
        "ǥƇ",
        "Ɔ"
      ],
      [
        "ǥ",
        "ƇƆ"
      ],
      [
        "Ɖ",
        "ǧ"
      ],
      [
        "Ǧ",
        "Ɩƙ"
      ],
      [
        "ǦƖ",
        "ƙ"
      ],
      [
        "Ƃ",
        "Ǧ"
      ],
      [
        "ǥ",
        "ƇƏ"
      ],
      [
        "ǥƇ",
        "Ə"
      ],
      [
        "Ɯ",
        "ƺ"
      ],
      [
        "Ǩƿ",
        "Ɛ"
      ],
      [
        "Ǩ",
        "ƿƐ"
      ],
      [
        "ƻ",
        "Ǥ"
      ],
      [
        "p",
        "e"
      ],
      [
        "ǤƼ",
        "Ƙ"
      ],
      [
        "Ǥ",
        "ƼƘ"
      ],
      [
        "Ɛ",
        "Ɔ"
      ],
      [
        "ǥ",
        "Əƥ"
      ],
      [
        "ǥƏ",
        "ƥ"
      ],
      [
        "Ƹ",
        "Ƹ"
      ],
      [
        "ƭ",
        "Ɛ"
      ],
      [
        "ƽ",
        "Ǧ"
      ],
      [
        "ƿ",
        "ǧ"
      ],
      [
        "ƛ",
        "ƴ"
      ],
      [
        "ǦƖƹ",
        "ǩƝƢ"
      ],
      [
        "ǥ",
        "Ʈƹ"
      ],
      [
        "ǥƮ",
        "ƹ"
      ],
      [
        "Ǧ",
        "ƞƐ"
      ],
      [
        "Ǧƞ",
        "Ɛ"
      ],
      [
        "ǥ",
        "ƤƇ"
      ],
      [
        "ǥƤ",
        "Ƈ"
      ],
      [
        "ǥƛ",
        "ƞ"
      ],
      [
        "ǥ",
        "ƛƞ"
      ],
      [
        "Ƥ",
        "Ʃ"
      ],
      [
        "ǧƔ",
        "Ʊ"
      ],
      [
        "ǧ",
        "ƔƱ"
      ],
      [
        "Ɠ",
        "ǧ"
      ],
      [
        "i",
        "l"
      ],
      [
        "Ġ",
        "$"
      ],
      [
        "Ǩƾ",
        "ƾ"
      ],
      [
        "Ǩ",
        "ƾƾ"
      ],
      [
        "ƻǧ",
        "ƖƗ"
      ],
      [
        "T",
        "h"
      ],
      [
        "ǤƺƆ",
        "ǨƧƣ"
      ],
      [
        "Ǧ",
        "ƕƴ"
      ],
      [
        "Ǧƕ",
        "ƴ"
      ],
      [
        "Ƈ",
        "ƺ"
      ],
      [
        "ǥ",
        "ƷƲ"
      ],
      [
        "ǥƷ",
        "Ʋ"
      ],
      [
        "Ɲ",
        "Ƣ"
      ],
      [
        "ǥƏƯ",
        "ǤƻƥǥƸƮǥƊƩ"
      ],
      [
        "ǥƏƯǤƻƥ",
        "ǥƸƮǥƊƩ"
      ],
      [
        "ǥƻƺ",
        "ǨƮƮ"
      ],
      [
        "ǧƳƻ",
        "ǧƻƟ"
      ],
      [
        "Ơ",
        "ǧ"
      ],
      [
        "ǥƈƆ",
        "ǦƞƐ"
      ],
      [
        "u",
        "t"
      ],
      [
        "ǥ",
        "ƀƼ"
      ],
      [
        "ǥƀ",
        "Ƽ"
      ],
      [
        "ǦƜƺ",
        "ǥ"
      ],
      [
        "ǦƜ",
        "ƺǥ"
      ],
      [
        "Ƅ",
        "ǩ"
      ],
      [
        "ǥ",
        "Ƣƞ"
      ],
      [
        "ǥƢ",
        "ƞ"
      ],
      [
        "ǧ",
        "ƿ"
      ],
      [
        "Ǩ",
        "ƧƆ"
      ],
      [
        "ǨƧ",
        "Ɔ"
      ],
      [
        "ǥ",
        "ƺƏ"
      ],
      [
        "ǥƺ",
        "Ə"
      ],
      [
        "Ǩƨ",
        "ƀ"
      ],
      [
        "Ǩ",
        "ƨƀ"
      ],
      [
        "ƍ",
        "Ǩ"
      ],
      [
        "Ǥƺƺ",
        "ǤƻƬ"
      ],
      [
        "ƈ",
        "ư"
      ],
      [
        "p",
        "l"
      ],
      [
        "Ɨ",
        "Ǧ"
      ],
      [
        "Ƽ",
        "Ɓ"
      ],
      [
        "Ɓ",
        "ǧ"
      ],
      [
        "ǥ",
        "Ɓƚ"
      ],
      [
        "ǥƁ",
        "ƚ"
      ],
      [
        "Ġ",
        "3"
      ],
      [
        "ƀ",
        "Ƌ"
      ],
      [
        "ǩ",
        "Ɠ"
      ],
      [
        "Ǥƻ",
        "Ʒ"
      ],
      [
        "Ǥ",
        "ƻƷ"
      ],
      [
        "i",
        "m"
      ],
      [
        "o",
        "l"
      ],
      [
        "ƀ",
        "Ɗ"
      ],
      [
        "Ƒ",
        "ǧ"
      ],
      [
        "ǦƜƺ",
        "ǥƙƨ"
      ],
      [
        "ǦƜƺǥ",
        "ƙƨ"
      ],
      [
        "o",
        "w"
      ],
      [
        "ǦƵ",
        "Ʒ"
      ],
      [
        "Ǧ",
        "ƵƷ"
      ],
      [
        "Ƈ",
        "ƪ"
      ],
      [
        "ƻ",
        "ƙ"
      ],
      [
        "ǥ",
        "Əƪ"
      ],
      [
        "ǥƏ",
        "ƪ"
      ],
      [
        "w",
        "e"
      ],
      [
        "ǦƖƇ",
        "ǥƌƖ"
      ],
      [
        "Ƴ",
        "ǥ"
      ],
      [
        "ǥ",
        "ƎƆ"
      ],
      [
        "ǥƎ",
        "Ɔ"
      ],
      [
        "Ʀ",
        "ǥ"
      ],
      [
        "Ɩǧ",
        "ƕ"
      ],
      [
        "Ɩ",
        "ǧƕ"
      ],
      [
        "Ɓ",
        "Ǧ"
      ],
      [
        "ƹ",
        "ǥ"
      ],
      [
        "Ʒ",
        "Ǧ"
      ],
      [
        "ǧƤ",
        "ƺ"
      ],
      [
        "ǧ",
        "Ƥƺ"
      ],
      [
        "ǩƢ",
        "Ƅ"
      ],
      [
        "ǩ",
        "ƢƄ"
      ],
      [
        "ǦƲ",
        "ơ"
      ],
      [
        "Ǧ",
        "Ʋơ"
      ],
      [
        "Ġ",
        "("
      ],
      [
        "ǥ",
        "Ʈƌ"
      ],
      [
        "ǥƮ",
        "ƌ"
      ],
      [
        "ǥ",
        "ƊƟ"
      ],
      [
        "ǥƊ",
        "Ɵ"
      ],
      [
        "ǧ",
        "ƎƇ"
      ],
      [
        "ǧƎ",
        "Ƈ"
      ],
      [
        "Ǝ",
        "Ǧ"
      ],
      [
        "Ǧ",
        "Ǝƥ"
      ],
      [
        "ǦƎ",
        "ƥ"
      ],
      [
        "ƨ",
        "Ǥ"
      ],
      [
        "ƈ",
        "ǥ"
      ],
      [
        "Ɛ",
        "ƌ"
      ],
      [
        "ǧƽ",
        "Ƒ"
      ],
      [
        "ǧ",
        "ƽƑ"
      ],
      [
        "Ǩƽ",
        "Ʀ"
      ],
      [
        "Ǩ",
        "ƽƦ"
      ],
      [
        "u",
        "l"
      ],
      [
        "ƞ",
        "ǥ"
      ],
      [
        "ǦƜƪ",
        "ǦƝƥ"
      ],
      [
        "Ɖ",
        "Ʃ"
      ],
      [
        "Ġ",
        "y"
      ],
      [
        "Ɯ",
        "Ƭ"
      ],
      [
        "ǥ",
        "ƑƳ"
      ],
      [
        "ǥƑ",
        "Ƴ"
      ],
      [
        "u",
        "n"
      ],
      [
        "Ɔ",
        "ǧ"
      ],
      [
        "ǧ",
        "Ɗ"
      ],
      [
        "ǥƆ",
        "Ƶ"
      ],
      [
        "ǥ",
        "ƆƵ"
      ],
      [
        "ǧƚƄ",
        "Ǧ"
      ],
      [
        "ǧƚ",
        "ƄǦ"
      ],
      [
        "Ư",
        "ƭ"
      ],
      [
        "ǩ",
        "ơƹ"
      ],
      [
        "ǩơ",
        "ƹ"
      ],
      [
        "ǦƬ",
        "Ƣ"
      ],
      [
        "Ǧ",
        "ƬƢ"
      ],
      [
        "Ʈ",
        "ƚ"
      ],
      [
        "ƿ",
        "Ƈ"
      ],
      [
        "Ġ",
        "Ǩ"
      ],
      [
        "ǨƮ",
        "ƺ"
      ],
      [
        "Ǩ",
        "Ʈƺ"
      ],
      [
        "Ǧ",
        "ơƈ"
      ],
      [
        "Ǧơ",
        "ƈ"
      ],
      [
        "ǦƔ",
        "Ư"
      ],
      [
        "Ǧ",
        "ƔƯ"
      ],
      [
        "Ġ",
        "+"
      ],
      [
        "ǥ",
        "ƐƦ"
      ],
      [
        "ǥƐ",
        "Ʀ"
      ],
      [
        "ǥ",
        "ƹƿ"
      ],
      [
        "ǥƹ",
        "ƿ"
      ],
      [
        "Ʈ",
        "ơ"
      ],
      [
        "Ġ",
        "\""
      ],
      [
        "ǥƤƄ",
        "ǧƐƆ"
      ],
      [
        "ǥƤ",
        "Ɩ"
      ],
      [
        "ǥ",
        "ƤƖ"
      ],
      [
        "Ǧ",
        "ƀƝ"
      ],
      [
        "Ǧƀ",
        "Ɲ"
      ],
      [
        "Ɯ",
        "Ǧ"
      ],
      [
        "e",
        "x"
      ],
      [
        "s",
        "s"
      ],
      [
        "ƍ",
        "ǧ"
      ],
      [
        "Ɩ",
        "ǧ"
      ],
      [
        "ǦƘƯ",
        "ǤƸƀǤƸƪ"
      ],
      [
        "ǦƘƯǤƸƀ",
        "ǤƸƪ"
      ],
      [
        "Ƅ",
        "Ə"
      ],
      [
        "ƶ",
        "Ǥ"
      ],
      [
        "ƭ",
        "Ɣ"
      ],
      [
        "ǤƸ",
        "Ɣ"
      ],
      [
        "Ǥ",
        "ƸƔ"
      ],
      [
        "ƌ",
        "Ɩ"
      ],
      [
        "ƅ",
        "ƶ"
      ],
      [
        "ƅ",
        "Ƴ"
      ],
      [
        "ƹ",
        "Ǩ"
      ],
      [
        "ƻ",
        "Ɩ"
      ],
      [
        "Ǥƿ",
        "ơ"
      ],
      [
        "Ǥ",
        "ƿơ"
      ],
      [
        "ǥ",
        "Ƽƕ"
      ],
      [
        "ǥƼ",
        "ƕ"
      ],
      [
        "ǨƇƪ",
        "ǧƄƶ"
      ],
      [
        "ǨƮ",
        "Ƹ"
      ],
      [
        "Ǩ",
        "ƮƸ"
      ],
      [
        "ǥ",
        "ƐƗ"
      ],
      [
        "ǥƐ",
        "Ɨ"
      ],
      [
        "Ɛ",
        "Ǝ"
      ],
      [
        "ǩ",
        "Ƹ"
      ],
      [
        "ǦƮ",
        "Ƶ"
      ],
      [
        "Ǧ",
        "ƮƵ"
      ],
      [
        "ƌ",
        "ǧ"
      ],
      [
        "ǥ",
        "ƭƘ"
      ],
      [
        "ǥƭ",
        "Ƙ"
      ],
      [
        "Ɗ",
        "ƨ"
      ],
      [
        "Ƴ",
        "ƕ"
      ],
      [
        "ǥƏ",
        "ƣ"
      ],
      [
        "ǥ",
        "Əƣ"
      ],
      [
        "ǧ",
        "Ʀ"
      ],
      [
        "Ɣ",
        "ǥ"
      ],
      [
        "ƹ",
        "ƈ"
      ],
      [
        "ǥƛƠ",
        "ǤƸƺ"
      ],
      [
        "ǥ",
        "ƌƺ"
      ],
      [
        "ǥƌ",
        "ƺ"
      ],
      [
        "ǥƓ",
        "ƪ"
      ],
      [
        "ǥ",
        "Ɠƪ"
      ],
      [
        "Ǥƻƥ",
        "ǥƏƊ"
      ],
      [
        "ƭ",
        "ǥ"
      ],
      [
        "ǤƺƧ",
        "ǥƓƁ"
      ],
      [
        "Ɯ",
        "ư"
      ],
      [
        "Ġ",
        "T"
      ],
      [
        "r",
        "t"
      ],
      [
        "Ǧƛƴǥƥƽ",
        "ǥƜư"
      ],
      [
        "Ư",
        "Ʒ"
      ],
      [
        "Ǥ",
        "ƹƉ"
      ],
      [
        "Ǥƹ",
        "Ɖ"
      ],
      [
        "t",
        "s"
      ],
      [
        "ƺ",
        "ƛ"
      ],
      [
        "Ǧ",
        "ƭƤ"
      ],
      [
        "Ǧƭ",
        "Ƥ"
      ],
      [
        "e",
        "m"
      ],
      [
        "ƌ",
        "Ǩ"
      ],
      [
        "ǤƸƪ",
        "Ǥƺƺ"
      ],
      [
        "Ǧƞ",
        "Ɓ"
      ],
      [
        "Ǧ",
        "ƞƁ"
      ],
      [
        "ǥ",
        "ƈƙ"
      ],
      [
        "ǥƈ",
        "ƙ"
      ],
      [
        "Ɔ",
        "Ǩ"
      ],
      [
        "ǧƩ",
        "ƺ"
      ],
      [
        "ǧ",
        "Ʃƺ"
      ],
      [
        "ǧƺ",
        "ƿ"
      ],
      [
        "ǧ",
        "ƺƿ"
      ],
      [
        "Ġ",
        "A"
      ],
      [
        "Ƣ",
        "Ǧ"
      ],
      [
        "l",
        "y"
      ],
      [
        "ǦƲơ",
        "ǦƜƉ"
      ],
      [
        "Ƥ",
        "Ƨ"
      ],
      [
        "Ǩ",
        "Ƈƴ"
      ],
      [
        "ǨƇ",
        "ƴ"
      ],
      [
        "Ɨ",
        "ǥ"
      ],
      [
        "ǥƅ",
        "Ɖ"
      ],
      [
        "ǥ",
        "ƅƉ"
      ],
      [
        "Ƒ",
        "Ǩ"
      ],
      [
        "Ġ",
        "S"
      ],
      [
        "ǥƈ",
        "ƒ"
      ],
      [
        "ǥ",
        "ƈƒ"
      ],
      [
        "ƌ",
        "Ǥ"
      ],
      [
        "ǥ",
        "Əƍ"
      ],
      [
        "ǥƏ",
        "ƍ"
      ],
      [
        "ǧƔƨ",
        "ǦƈƷ"
      ],
      [
        "ǥƅƳ",
        "ǤƺƎ"
      ],
      [
        "Ǩ",
        "ƙƑ"
      ],
      [
        "Ǩƙ",
        "Ƒ"
      ],
      [
        "ǥ",
        "ƣ"
      ],
      [
        "Ǩ",
        "ƯƝ"
      ],
      [
        "ǨƯ",
        "Ɲ"
      ],
      [
        "ǥƿ",
        "ƫ"
      ],
      [
        "ǥ",
        "ƿƫ"
      ],
      [
        "ǧơƮ",
        "ǤƿƝ"
      ],
      [
        "n",
        "o"
      ],
      [
        "ƶ",
        "Ǩ"
      ],
      [
        "ǨƵ",
        "Ƅ"
      ],
      [
        "Ǩ",
        "ƵƄ"
      ],
      [
        "f",
        "i"
      ],
      [
        "i",
        "d"
      ],
      [
        "Ġ",
        "Ǥ"
      ],
      [
        "ǥ",
        "Ƥƍ"
      ],
      [
        "ǥƤ",
        "ƍ"
      ],
      [
        "ƹ",
        "Ơ"
      ],
      [
        "Ɵ",
        "ǧ"
      ],
      [
        "ǤƸ",
        "Ɖ"
      ],
      [
        "Ǥ",
        "ƸƉ"
      ],
      [
        "Ǧƛƴ",
        "ǥƤƚ"
      ],
      [
        "Ǩƶ",
        "Ɗ"
      ],
      [
        "Ǩ",
        "ƶƊ"
      ],
      [
        "ǤƿƝ",
        "ǦƊƤ"
      ],
      [
        "Ɵ",
        "ƥ"
      ],
      [
        "ǩƙ",
        "Ʃ"
      ],
      [
        "ǩ",
        "ƙƩ"
      ],
      [
        "ƃ",
        "Ə"
      ],
      [
        "i",
        "v"
      ],
      [
        "p",
        "o"
      ],
      [
        "Ɔ",
        "Ǥ"
      ],
      [
        "ǦƬ",
        "ơ"
      ],
      [
        "Ǧ",
        "Ƭơ"
      ],
      [
        "Ǧ",
        "ƣ"
      ],
      [
        "ǧ",
        "ƫƋ"
      ],
      [
        "ǧƫ",
        "Ƌ"
      ],
      [
        "ǦƗ",
        "ƅ"
      ],
      [
        "Ǧ",
        "Ɨƅ"
      ],
      [
        "ǥƮƉ",
        "ǥƅƨ"
      ],
      [
        "ƪ",
        "Ǩ"
      ],
      [
        "Ɗ",
        "ƀ"
      ],
      [
        "Ə",
        "Ƒ"
      ],
      [
        "ƥ",
        "ǩ"
      ],
      [
        "s",
        "o"
      ],
      [
        "ƿ",
        "ǥ"
      ],
      [
        "Ơ",
        "Ǥ"
      ],
      [
        "Ƽ",
        "ƛ"
      ],
      [
        "ƻ",
        "ƺ"
      ],
      [
        "ǩ",
        "Ƥ"
      ],
      [
        "ǦƎ",
        "ƒ"
      ],
      [
        "Ǧ",
        "Ǝƒ"
      ],
      [
        "Ċ",
        "Ġ"
      ],
      [
        "a",
        "m"
      ],
      [
        "ƾ",
        "Ǝ"
      ],
      [
        "ƺ",
        "Ɣ"
      ],
      [
        "Ɲ",
        "Ǧ"
      ],
      [
        "ǤƽƠ",
        "ǧƚƄ"
      ],
      [
        "i",
        "e"
      ],
      [
        "ƥ",
        "ǧ"
      ],
      [
        "ǦƏ",
        "Ə"
      ],
      [
        "Ǧ",
        "ƏƏ"
      ],
      [
        "ƀ",
        "ƌ"
      ],
      [
        "Ǧ",
        "ƘƟ"
      ],
      [
        "ǦƘ",
        "Ɵ"
      ],
      [
        "Ʃ",
        "ǥ"
      ],
      [
        "ǥ",
        "ƏƂ"
      ],
      [
        "ǥƏ",
        "Ƃ"
      ],
      [
        "ǥ",
        "Ƥƪ"
      ],
      [
        "ǥƤ",
        "ƪ"
      ],
      [
        "Ǧƨ",
        "ơ"
      ],
      [
        "Ǧ",
        "ƨơ"
      ],
      [
        "ǥ",
        "ƎƟ"
      ],
      [
        "ǥƎ",
        "Ɵ"
      ],
      [
        "ƈ",
        "Ǧ"
      ],
      [
        "ǦƈƑǤƻƬ",
        "ǧƚƄ"
      ],
      [
        "m",
        "i"
      ],
      [
        "Ʒ",
        "ǥ"
      ],
      [
        "Ɣ",
        "ǧ"
      ],
      [
        "Ɖ",
        "Ǥ"
      ],
      [
        "Ġ",
        "g"
      ],
      [
        "Ǩƾ",
        "ƃ"
      ],
      [
        "Ǩ",
        "ƾƃ"
      ],
      [
        "ǥ",
        "ƖƜ"
      ],
      [
        "ǥƖ",
        "Ɯ"
      ],
      [
        "ƨ",
        "ǩ"
      ],
      [
        "ư",
        "Ɔ"
      ],
      [
        "s",
        "u"
      ],
      [
        "ƀ",
        "ƚ"
      ],
      [
        "ǦƜƍ",
        "ǥƊơ"
      ],
      [
        "Ƭ",
        "ǧ"
      ],
      [
        "ƴ",
        "Ǧ"
      ],
      [
        "Ǩ",
        "ƊƱ"
      ],
      [
        "ǨƊ",
        "Ʊ"
      ],
      [
        "ǨƧƣ",
        "ǥƆƳ"
      ],
      [
        "n",
        "u"
      ],
      [
        "Ǝ",
        "ǧ"
      ],
      [
        "$",
        "$"
      ],
      [
        "Ǧ",
        "Ɣƶ"
      ],
      [
        "ǦƔ",
        "ƶ"
      ],
      [
        "Ǧƴƻ",
        "ǥƊƨ"
      ],
      [
        "Ǧ",
        "ƈƘ"
      ],
      [
        "Ǧƈ",
        "Ƙ"
      ],
      [
        "ǩƀƚ",
        "ǥƸƸ"
      ],
      [
        "Ɛ",
        "ǩ"
      ],
      [
        "Ǩƃƽ",
        "ǥƊƛ"
      ],
      [
        "m",
        "p"
      ],
      [
        "e",
        "e"
      ],
      [
        "Ɗ",
        "ƛ"
      ],
      [
        "ǧƔƟ",
        "ǦƈƐ"
      ],
      [
        "ǨƯƭ",
        "Ǩƨƀ"
      ],
      [
        "ǩƀ",
        "Ɵ"
      ],
      [
        "ǩ",
        "ƀƟ"
      ],
      [
        "ǩ",
        "ƅƍ"
      ],
      [
        "ǩƅ",
        "ƍ"
      ],
      [
        "ǥƅ",
        "Ʊ"
      ],
      [
        "ǥ",
        "ƅƱ"
      ],
      [
        "Ǧ",
        "Ƽ"
      ],
      [
        "ǧ",
        "Ʈƀ"
      ],
      [
        "ǧƮ",
        "ƀ"
      ],
      [
        "ơ",
        "ǥ"
      ],
      [
        "ƫ",
        "Ơ"
      ],
      [
        "ƀ",
        "Ƨ"
      ],
      [
        "ƚ",
        "ǧ"
      ],
      [
        "ǧ",
        "ƯƇ"
      ],
      [
        "ǧƯ",
        "Ƈ"
      ],
      [
        "a",
        "i"
      ],
      [
        "Ǧ",
        "Ƹƅ"
      ],
      [
        "ǦƸ",
        "ƅ"
      ],
      [
        "ǩ",
        "ƘƟ"
      ],
      [
        "ǩƘ",
        "Ɵ"
      ],
      [
        "Ɗ",
        "Ơ"
      ],
      [
        "Ƭ",
        "Ǥ"
      ],
      [
        "ƅ",
        "Ƨ"
      ],
      [
        "w",
        "i"
      ],
      [
        "Ʀ",
        "ǧ"
      ],
      [
        "Ƹ",
        "ǥ"
      ],
      [
        "ǦƖƇ",
        "ǦƜƬ"
      ],
      [
        "Ƨ",
        "ƣ"
      ],
      [
        "ǥƇ",
        "Ơ"
      ],
      [
        "ǥ",
        "ƇƠ"
      ],
      [
        "ǩ",
        "ƇƇ"
      ],
      [
        "ǩƇ",
        "Ƈ"
      ],
      [
        "Ǧ",
        "Ɯƛ"
      ],
      [
        "ǦƜ",
        "ƛ"
      ],
      [
        "Ǝ",
        "Ǥ"
      ],
      [
        "ǥ",
        "ƑƊ"
      ],
      [
        "ǥƑ",
        "Ɗ"
      ],
      [
        "ǨƱ",
        "ơ"
      ],
      [
        "Ǩ",
        "Ʊơ"
      ],
      [
        "ǥ",
        "ƟƎ"
      ],
      [
        "ǥƟ",
        "Ǝ"
      ],
      [
        "ƞ",
        "ǧ"
      ],
      [
        "ǦƈƖ",
        "Ǩƀƅ"
      ],
      [
        "ǥƮƞ",
        "ǧƎư"
      ],
      [
        "Ƥ",
        "ƚ"
      ],
      [
        "n",
        "i"
      ],
      [
        "Ǩ",
        "ƌ"
      ],
      [
        "ǧ",
        "ƌ"
      ],
      [
        "Ġ",
        "ǩ"
      ],
      [
        "Ƴ",
        "Ǥ"
      ],
      [
        "Ǩ",
        "ƯƄ"
      ],
      [
        "ǨƯ",
        "Ƅ"
      ],
      [
        "Ǥ",
        "ƾƿ"
      ],
      [
        "Ǥƾ",
        "ƿ"
      ],
      [
        "Ǥƻƻ",
        "ǥƊơ"
      ],
      [
        "i",
        "g"
      ],
      [
        "ǦƂƨ",
        "ǧƚƄ"
      ],
      [
        "ƭ",
        "ǧ"
      ],
      [
        "Ɗ",
        "Ǧ"
      ],
      [
        "Ɠ",
        "Ǧ"
      ],
      [
        "ǧƮơ",
        "ǧƐƆ"
      ],
      [
        "ƚ",
        "Ǩ"
      ],
      [
        "ƃ",
        "ǥ"
      ],
      [
        "ǧƗ",
        "ƅ"
      ],
      [
        "ǧ",
        "Ɨƅ"
      ],
      [
        "ƽ",
        "ƿ"
      ],
      [
        "ƛ",
        "Ǧ"
      ],
      [
        "Ǩƶ",
        "Ƴ"
      ],
      [
        "Ǩ",
        "ƶƳ"
      ],
      [
        "ǧƈ",
        "Ʊ"
      ],
      [
        "ǧ",
        "ƈƱ"
      ],
      [
        "ǧ",
        "Ʃƶ"
      ],
      [
        "ǧƩ",
        "ƶ"
      ],
      [
        "ǤƸƍǥƐƌ",
        "ǧƚƄ"
      ],
      [
        "ư",
        "Ɣ"
      ],
      [
        "ǧ",
        "ƛƴ"
      ],
      [
        "ǧƛ",
        "ƴ"
      ],
      [
        "ƶ",
        "ǩ"
      ],
      [
        "ǥƐƌ",
        "ǦƗƶ"
      ],
      [
        "Ǩ",
        "Ƒ"
      ],
      [
        "Ƌ",
        "Ƭ"
      ],
      [
        "ǨƮƸ",
        "ǥƤƚ"
      ],
      [
        "ư",
        "ǧ"
      ],
      [
        "ǥƏƯǨƃƽ",
        "ǤƼƚ"
      ],
      [
        "Ǩ",
        "Ƨƒ"
      ],
      [
        "ǨƧ",
        "ƒ"
      ],
      [
        "ǥƷƲ",
        "ǧƻƏ"
      ],
      [
        "ƣ",
        "ǥ"
      ],
      [
        "ǧ",
        "ƧƯ"
      ],
      [
        "ǧƧ",
        "Ư"
      ],
      [
        "ƭ",
        "Ǧ"
      ],
      [
        "Ƙ",
        "Ǧ"
      ],
      [
        "ǦƎ",
        "ƨ"
      ],
      [
        "Ǧ",
        "Ǝƨ"
      ],
      [
        "ƌ",
        "ƅ"
      ],
      [
        "Ǩ",
        "ƏƜ"
      ],
      [
        "ǨƏ",
        "Ɯ"
      ],
      [
        "ƻ",
        "Ǧ"
      ],
      [
        "Ǧƃƅ",
        "ǥƆƵ"
      ],
      [
        "Ǧƀ",
        "ƻ"
      ],
      [
        "Ǧ",
        "ƀƻ"
      ],
      [
        "ǧ",
        "ƻƃ"
      ],
      [
        "ǧƻ",
        "ƃ"
      ],
      [
        "ǤƿƝ",
        "ǦƌƁ"
      ],
      [
        "ǦƖ",
        "ƽ"
      ],
      [
        "Ǧ",
        "Ɩƽ"
      ],
      [
        "ǨƧ",
        "Ƅ"
      ],
      [
        "Ǩ",
        "ƧƄ"
      ],
      [
        "Ǧƞ",
        "Ƅ"
      ],
      [
        "Ǧ",
        "ƞƄ"
      ],
      [
        "Ǧ",
        "Ɗƕ"
      ],
      [
        "ǦƊ",
        "ƕ"
      ],
      [
        "ǨƮƾ",
        "ǨƮơ"
      ],
      [
        "Ə",
        "Ǩ"
      ],
      [
        "ǨƧ",
        "Ɖ"
      ],
      [
        "Ǩ",
        "ƧƉ"
      ],
      [
        "ǦƖư",
        "ǧƚƄ"
      ],
      [
        "ǥƥ",
        "ƹ"
      ],
      [
        "ǥ",
        "ƥƹ"
      ],
      [
        "Ɨ",
        "ƴ"
      ],
      [
        "Ɲ",
        "ǥ"
      ],
      [
        "ǥƥƽ",
        "ǧƚƄ"
      ],
      [
        "Ǩ",
        "ƽƻ"
      ],
      [
        "Ǩƽ",
        "ƻ"
      ],
      [
        "Ɣ",
        "Ʈ"
      ],
      [
        "Ƶ",
        "Ʒ"
      ],
      [
        "i",
        "r"
      ],
      [
        "ƿ",
        "ƛ"
      ],
      [
        "Ư",
        "ƴ"
      ],
      [
        "Ɛ",
        "ƍ"
      ],
      [
        "Ư",
        "Ɲ"
      ],
      [
        "ǤƹƋ",
        "ǩƗƴ"
      ],
      [
        "ǧƻ",
        "Ɔ"
      ],
      [
        "ǧ",
        "ƻƆ"
      ],
      [
        "Ġ",
        "5"
      ],
      [
        "ǦƘƯ",
        "ǥƐƦ"
      ],
      [
        "Ǧƕ",
        "ƅ"
      ],
      [
        "Ǧ",
        "ƕƅ"
      ],
      [
        "ǦƘƯǤƸƀ",
        "ǧƧƍ"
      ],
      [
        "ǦƘƯ",
        "ǤƸƀǧƧƍ"
      ],
      [
        "Ɩ",
        "Ǧ"
      ],
      [
        "ƈ",
        "ǧ"
      ],
      [
        "k",
        "e"
      ],
      [
        "Ǥ",
        "ƺƒ"
      ],
      [
        "Ǥƺ",
        "ƒ"
      ],
      [
        "ǥƈư",
        "ǤƺƆ"
      ],
      [
        "ǤƹƋ",
        "ǤƸƀ"
      ],
      [
        "Ǧ",
        "ƎƢ"
      ],
      [
        "ǦƎ",
        "Ƣ"
      ],
      [
        "Ǧ",
        "Ƒ"
      ],
      [
        "Ǧ",
        "ƎƧ"
      ],
      [
        "ǦƎ",
        "Ƨ"
      ],
      [
        "ƛ",
        "Ǩ"
      ],
      [
        "ǧƤƾ",
        "ǤƼƚ"
      ],
      [
        "ǧ",
        "ƤƾǤƼƚ"
      ],
      [
        "f",
        "r"
      ],
      [
        "ƌ",
        "ƻ"
      ],
      [
        "y",
        "o"
      ],
      [
        "Ɵ",
        "Ǩ"
      ],
      [
        "ƃ",
        "ƅ"
      ],
      [
        "Ƌ",
        "ǧ"
      ],
      [
        "c",
        "i"
      ],
      [
        "ƻ",
        "Ǩ"
      ],
      [
        "ư",
        "Ǥ"
      ],
      [
        "Ƶ",
        "ǥ"
      ],
      [
        "Ƌ",
        "Ǥ"
      ],
      [
        "Ƴ",
        "ǧ"
      ],
      [
        "ǥƅ",
        "ƃ"
      ],
      [
        "ǥ",
        "ƅƃ"
      ],
      [
        "a",
        "d"
      ],
      [
        "q",
        "u"
      ],
      [
        "t",
        "u"
      ],
      [
        "Ɣǧ",
        "Ʃƶ"
      ],
      [
        "Ɣ",
        "ǧƩƶ"
      ],
      [
        "ǥ",
        "ƅƍ"
      ],
      [
        "ǥƅ",
        "ƍ"
      ],
      [
        "Ƥ",
        "ƍ"
      ],
      [
        "ǨƮƤ",
        "ǤƸƺ"
      ],
      [
        "Ɗ",
        "Ʃ"
      ],
      [
        "Ǩƀƃ",
        "ǨƙƑ"
      ],
      [
        "ƚ",
        "Ǧ"
      ],
      [
        "Ǩƿ",
        "Ƒ"
      ],
      [
        "Ǩ",
        "ƿƑ"
      ],
      [
        "ǦƈƐ",
        "ǤƸƺ"
      ],
      [
        "Ʈ",
        "Ƶ"
      ],
      [
        "ǧ",
        "ƻƭ"
      ],
      [
        "ǧƻ",
        "ƭ"
      ],
      [
        "Ɖ",
        "Ʋ"
      ],
      [
        "Ɔ",
        "ƙ"
      ],
      [
        "ƨ",
        "Ƌ"
      ],
      [
        "Ƥ",
        "Ǥ"
      ],
      [
        "ǧƐƆ",
        "ǨƧƣ"
      ],
      [
        "Ɩ",
        "Ǥ"
      ],
      [
        "m",
        "o"
      ],
      [
        "ǥƌ",
        "ƻ"
      ],
      [
        "ǥ",
        "ƌƻ"
      ],
      [
        "Ǩ",
        "ƶƣ"
      ],
      [
        "Ǩƶ",
        "ƣ"
      ],
      [
        "Ʊ",
        "ƻ"
      ],
      [
        "ǤƸƻ",
        "ǨƦƁ"
      ],
      [
        "Ƹ",
        "Ʈ"
      ],
      [
        "Ƙ",
        "ǧ"
      ],
      [
        "ǦƏƏ",
        "Ǩƿư"
      ],
      [
        "ƅ",
        "ƃ"
      ],
      [
        "ǥ",
        "ƛƢ"
      ],
      [
        "ǥƛ",
        "Ƣ"
      ],
      [
        "Ǝ",
        "Ư"
      ],
      [
        "ǧƔƵ",
        "ǥƽƱ"
      ],
      [
        "ǥƇƏ",
        "ǥưƑ"
      ],
      [
        "Ɯ",
        "Ư"
      ],
      [
        "Ǩ",
        "ƽƬ"
      ],
      [
        "Ǩƽ",
        "Ƭ"
      ],
      [
        "Ǩ",
        "ƂƲ"
      ],
      [
        "ǨƂ",
        "Ʋ"
      ],
      [
        "v",
        "i"
      ],
      [
        "ǦƝ",
        "Ɛ"
      ],
      [
        "Ǧ",
        "ƝƐ"
      ],
      [
        "ǨƎ",
        "Ʒ"
      ],
      [
        "Ǩ",
        "ƎƷ"
      ],
      [
        "ǤƸƖ",
        "ǧƕ"
      ],
      [
        "ǤƸ",
        "Ɩǧƕ"
      ],
      [
        "o",
        "s"
      ],
      [
        "ǧƻ",
        "ƴ"
      ],
      [
        "ǧ",
        "ƻƴ"
      ],
      [
        "ǥƏ",
        "Ʋ"
      ],
      [
        "ǥ",
        "ƏƲ"
      ],
      [
        "ǩƟƳ",
        "ǤƹƐ"
      ],
      [
        "ǩƛ",
        "Ɔ"
      ],
      [
        "ǩ",
        "ƛƆ"
      ],
      [
        "ǥ",
        "Ɛƫ"
      ],
      [
        "ǥƐ",
        "ƫ"
      ],
      [
        "Ǧ",
        "Ɣƿ"
      ],
      [
        "ǦƔ",
        "ƿ"
      ],
      [
        "Ƅ",
        "Ɵ"
      ],
      [
        "p",
        "a"
      ],
      [
        "ǤƸ",
        "Ɠ"
      ],
      [
        "Ǥ",
        "ƸƓ"
      ],
      [
        "Ġ",
        "I"
      ],
      [
        "ǥƅƷ",
        "ǦƜƉ"
      ],
      [
        "b",
        "o"
      ],
      [
        "ƿ",
        "ơ"
      ],
      [
        "Ǩ",
        "ƛ"
      ],
      [
        "Ɯ",
        "Ɵ"
      ],
      [
        "Ʀ",
        "Ɩ"
      ],
      [
        "ǧ",
        "ƥƞ"
      ],
      [
        "ǧƥ",
        "ƞ"
      ],
      [
        "i",
        "f"
      ],
      [
        "Ǩ",
        "ƧƁ"
      ],
      [
        "ǨƧ",
        "Ɓ"
      ],
      [
        "ǧƔƨ",
        "ǤƺƎ"
      ],
      [
        "ǤƸƭ",
        "ǥƛƽ"
      ],
      [
        "Ǩ",
        "ƾƓ"
      ],
      [
        "Ǩƾ",
        "Ɠ"
      ],
      [
        "d",
        "o"
      ],
      [
        "Ǧƃƅ",
        "ǦƄƟ"
      ],
      [
        "ǥƕ",
        "Ɔ"
      ],
      [
        "ǥ",
        "ƕƆ"
      ],
      [
        "ǩ",
        "ƇƑ"
      ],
      [
        "ǩƇ",
        "Ƒ"
      ],
      [
        "Ǧƺ",
        "Ɛ"
      ],
      [
        "Ǧ",
        "ƺƐ"
      ],
      [
        "Ġ",
        "C"
      ],
      [
        "ǩƚ",
        "ƾ"
      ],
      [
        "ǩ",
        "ƚƾ"
      ],
      [
        "Ƹ",
        "Ǧ"
      ],
      [
        "ǧƎƯ",
        "ǤƿƝ"
      ],
      [
        "ǤƸƀ",
        "ǧƧƍ"
      ],
      [
        "ƅ",
        "ƈ"
      ],
      [
        "u",
        "e"
      ],
      [
        "ǥƮƚ",
        "ǧƚƄ"
      ],
      [
        "ƚ",
        "Ǥ"
      ],
      [
        "ǥƅ",
        "ƈ"
      ],
      [
        "ǥ",
        "ƅƈ"
      ],
      [
        "ǤƸƖ",
        "ǧƕƌ"
      ],
      [
        "ǤƸƖǧƕ",
        "ƌ"
      ],
      [
        "ƾ",
        "ƈ"
      ],
      [
        "Ƥ",
        "ƾ"
      ],
      [
        "Ġ",
        "4"
      ],
      [
        "Ɖ",
        "ƀ"
      ],
      [
        "Ʊ",
        "Ǧ"
      ],
      [
        "Ɨ",
        "ƥ"
      ],
      [
        "Ơ",
        "ƹ"
      ],
      [
        "ǧ",
        "Ƣ"
      ],
      [
        "ǩƜƀ",
        "ǦƱƂ"
      ],
      [
        "ǥƸƂ",
        "ǥƜƺ"
      ],
      [
        "ǥƸƂǥƜ",
        "ƺ"
      ],
      [
        "ǥƸƦ",
        "ǦƝƥ"
      ],
      [
        "#",
        "#"
      ],
      [
        "Ƴ",
        "Ǧ"
      ],
      [
        "Ɯ",
        "Ƌ"
      ],
      [
        "Ǥƺ",
        "ƫ"
      ],
      [
        "Ǥ",
        "ƺƫ"
      ],
      [
        "ǥƮƢ",
        "ǦƈƷ"
      ],
      [
        "1",
        "2"
      ],
      [
        "ǥƏƯǤƻƥ",
        "ǩƀƚǨƿƇ"
      ],
      [
        "Ɯ",
        "Ǥ"
      ],
      [
        "Ɖ",
        "ƍ"
      ],
      [
        "ǩ",
        "ƤƐ"
      ],
      [
        "ǩƤ",
        "Ɛ"
      ],
      [
        "Ɗ",
        "ǥ"
      ],
      [
        "\\",
        "("
      ],
      [
        "ǨƿƇ",
        "ǧƨƋ"
      ],
      [
        "\\",
        ")"
      ],
      [
        "ǤƾƋ",
        "ǥƦƂ"
      ],
      [
        "ư",
        "ƴ"
      ],
      [
        "ƍ",
        "Ǥ"
      ],
      [
        "ǥƏ",
        "Ƌ"
      ],
      [
        "ǥ",
        "ƏƋ"
      ],
      [
        "ǥƟƎ",
        "ǥƸƂ"
      ],
      [
        "ǥƤƧ",
        "ǧƚƄ"
      ],
      [
        "5",
        "0"
      ],
      [
        "ư",
        "Ƣ"
      ],
      [
        "Ƌ",
        "ǩ"
      ],
      [
        "ǧƼ",
        "Ɩ"
      ],
      [
        "ǧ",
        "ƼƖ"
      ],
      [
        "Ǧ",
        "ƘƓ"
      ],
      [
        "ǦƘ",
        "Ɠ"
      ],
      [
        "Ư",
        "ƍ"
      ],
      [
        "Ɛ",
        "Ǧ"
      ],
      [
        "ǧ",
        "ƴƢ"
      ],
      [
        "ǧƴ",
        "Ƣ"
      ],
      [
        "ƹ",
        "ƶ"
      ],
      [
        "Ǥƻ",
        "ƽ"
      ],
      [
        "Ǥ",
        "ƻƽ"
      ],
      [
        "Ʃ",
        "ǧ"
      ],
      [
        "Ɯ",
        "ǥ"
      ],
      [
        "ǧƚƄ",
        "Ǥƺƺ"
      ],
      [
        "Ɛ",
        "ǧ"
      ],
      [
        "ƅ",
        "ƥ"
      ],
      [
        "ǧ",
        "ƽƮ"
      ],
      [
        "ǧƽ",
        "Ʈ"
      ],
      [
        "e",
        "p"
      ],
      [
        "ǨƯ",
        "Ɓ"
      ],
      [
        "Ǩ",
        "ƯƁ"
      ],
      [
        "ǩƀƂ",
        "ǥƐƈ"
      ],
      [
        "ǩ",
        "ƘƳ"
      ],
      [
        "ǩƘ",
        "Ƴ"
      ],
      [
        "ǥƯƼ",
        "ǨƇƴ"
      ],
      [
        "Ǩ",
        "ƁƔ"
      ],
      [
        "ǨƁ",
        "Ɣ"
      ],
      [
        "ƙ",
        "Ǩ"
      ],
      [
        "ǧƮƗ",
        "ǦƳƕ"
      ],
      [
        "ǩƇƍǨƦƁ",
        "ǧƚƄ"
      ],
      [
        "Ǥƹ",
        "Ʀ"
      ],
      [
        "Ǥ",
        "ƹƦ"
      ],
      [
        "Ǩƺƫ",
        "ǤƽƓ"
      ],
      [
        "r",
        "m"
      ],
      [
        "ǥƐƄ",
        "ǧƧƍ"
      ],
      [
        "Ǩƴ",
        "ƹ"
      ],
      [
        "Ǩ",
        "ƴƹ"
      ],
      [
        "ǨƮ",
        "ư"
      ],
      [
        "Ǩ",
        "Ʈư"
      ],
      [
        "Ʒ",
        "ǧ"
      ],
      [
        "ƭ",
        "Ɨ"
      ],
      [
        "ƛ",
        "ƞ"
      ],
      [
        "Ƽ",
        "Ơ"
      ],
      [
        "ƍ",
        "Ɛ"
      ],
      [
        "Ƨ",
        "ƍ"
      ],
      [
        "ǥ",
        "Ƨ"
      ],
      [
        "ǧ",
        "ƠƁ"
      ],
      [
        "ǧƠ",
        "Ɓ"
      ],
      [
        "ǥƯƹ",
        "ǤƺƎ"
      ],
      [
        "ǦƸ",
        "Ʃ"
      ],
      [
        "Ǧ",
        "ƸƩ"
      ],
      [
        "Ɣ",
        "Ǧ"
      ],
      [
        "Ǩ",
        "ƷƯ"
      ],
      [
        "ǨƷ",
        "Ư"
      ],
      [
        "Ǩƿƙ",
        "ǧƧƍ"
      ],
      [
        "ǨƮơ",
        "ǥƈƒ"
      ],
      [
        "Ʈ",
        "ǧ"
      ],
      [
        "ǦƉ",
        "ƍ"
      ],
      [
        "Ǧ",
        "Ɖƍ"
      ],
      [
        "Ɠ",
        "Ɓ"
      ],
      [
        "Ʈ",
        "ƶ"
      ],
      [
        "Ɨ",
        "ǧ"
      ],
      [
        "ǧƛƮ",
        "ǦƠƇ"
      ],
      [
        "ǥ",
        "ƐƬ"
      ],
      [
        "ǥƐ",
        "Ƭ"
      ],
      [
        "ǦƉƀ",
        "ǦƜƉ"
      ],
      [
        "ǥ",
        "Ɗƿ"
      ],
      [
        "ǥƊ",
        "ƿ"
      ],
      [
        "ǥƏƘ",
        "ǥƌƖ"
      ],
      [
        "ǥƌ",
        "ƻǧƖƗ"
      ],
      [
        "ǥƼ",
        "ƀǥ"
      ],
      [
        "ǥƼƀ",
        "ǥ"
      ],
      [
        "Ƃ",
        "Ǥ"
      ],
      [
        "Ə",
        "ƥ"
      ],
      [
        "Ǧ",
        "Ɲơ"
      ],
      [
        "ǦƝ",
        "ơ"
      ],
      [
        "Ʒ",
        "Ʊ"
      ],
      [
        "ƴ",
        "ǧ"
      ],
      [
        "Ǧ",
        "ƭƌ"
      ],
      [
        "Ǧƭ",
        "ƌ"
      ],
      [
        "Ƣ",
        "ǧ"
      ],
      [
        "d",
        "a"
      ],
      [
        "o",
        "o"
      ],
      [
        "ƪ",
        "Ǥ"
      ],
      [
        "ơ",
        "ƨ"
      ],
      [
        "Ƣ",
        "ǥ"
      ],
      [
        "ǥƀ",
        "ƙ"
      ],
      [
        "ǥ",
        "ƀƙ"
      ],
      [
        "ǤƸƀ",
        "ǤƸƋ"
      ],
      [
        "ǩ",
        "ƥƮ"
      ],
      [
        "ǩƥ",
        "Ʈ"
      ],
      [
        "ǥƅƷ",
        "ǤƽƓ"
      ],
      [
        "ǥƑ",
        "ƽ"
      ],
      [
        "ǥ",
        "Ƒƽ"
      ],
      [
        "ǥ",
        "ƑƢ"
      ],
      [
        "ǥƑ",
        "Ƣ"
      ],
      [
        "ǧƧƑ",
        "ǦƊƀ"
      ],
      [
        "Ǧ",
        "Ɛ"
      ],
      [
        "ǥ",
        "ưƽ"
      ],
      [
        "ǥư",
        "ƽ"
      ],
      [
        "Ǩ",
        "Ɛƥ"
      ],
      [
        "ǨƐ",
        "ƥ"
      ],
      [
        "ǧƬ",
        "Ʀ"
      ],
      [
        "ǧ",
        "ƬƦ"
      ],
      [
        "ǤƻƥǤƸƋ",
        "ǦƘƯ"
      ],
      [
        "ǣ",
        "Ɓ"
      ],
      [
        "ǦƔƯ",
        "ǦƌƁ"
      ],
      [
        "ǩƦ",
        "Ɩ"
      ],
      [
        "ǩ",
        "ƦƖ"
      ],
      [
        "Ǧ",
        "Ƭƾ"
      ],
      [
        "ǦƬ",
        "ƾ"
      ],
      [
        "ǥ",
        "ƐƸ"
      ],
      [
        "ǥƐ",
        "Ƹ"
      ],
      [
        "Ǧ",
        "ƉƓ"
      ],
      [
        "ǦƉ",
        "Ɠ"
      ],
      [
        "ƌ",
        "Ɓ"
      ],
      [
        "i",
        "a"
      ],
      [
        "Ǝ",
        "ư"
      ],
      [
        "Ǩ",
        "ƥ"
      ],
      [
        "ǧƜ",
        "Ɵ"
      ],
      [
        "ǧ",
        "ƜƟ"
      ],
      [
        "Ǧƀ",
        "Ɓ"
      ],
      [
        "Ǧ",
        "ƀƁ"
      ],
      [
        "ƕ",
        "ǥ"
      ],
      [
        "ǤƽƆ",
        "ǦƘƯ"
      ],
      [
        "ư",
        "Ƒ"
      ],
      [
        "Ġ",
        "u"
      ],
      [
        "ƪ",
        "ǩ"
      ],
      [
        "ǧƛƸ",
        "ǥƅƳ"
      ],
      [
        "Ƭ",
        "Ǧ"
      ],
      [
        "ƭ",
        "Ǩ"
      ],
      [
        "ǥ",
        "Ɔƍ"
      ],
      [
        "ǥƆ",
        "ƍ"
      ],
      [
        "Ư",
        "Ǩ"
      ],
      [
        "Ǝ",
        "Ǩ"
      ],
      [
        "ǨƉ",
        "ƺ"
      ],
      [
        "Ǩ",
        "Ɖƺ"
      ],
      [
        "ǧ",
        "Ʋƾ"
      ],
      [
        "ǧƲ",
        "ƾ"
      ],
      [
        "ƈ",
        "ƶ"
      ],
      [
        "ǤƺƧ",
        "ǧƔƟ"
      ],
      [
        "Ư",
        "Ƈ"
      ],
      [
        "ƽ",
        "Ɔ"
      ],
      [
        "Ɔ",
        "ƅ"
      ],
      [
        "ǥ",
        "ƾƋ"
      ],
      [
        "ǥƾ",
        "Ƌ"
      ],
      [
        "ǤƸƍ",
        "ǦƖƭ"
      ],
      [
        "ƿ",
        "ƃ"
      ],
      [
        "ǥƼƀǥ",
        "ƧƋ"
      ],
      [
        "ǥƼƀ",
        "ǥƧƋ"
      ],
      [
        "Ǩ",
        "ƣƅ"
      ],
      [
        "Ǩƣ",
        "ƅ"
      ],
      [
        "ǧƉ",
        "Ƈ"
      ],
      [
        "ǧ",
        "ƉƇ"
      ],
      [
        "Ǩ",
        "Ưƻ"
      ],
      [
        "ǨƯ",
        "ƻ"
      ],
      [
        "Ǩ",
        "ƴƭ"
      ],
      [
        "Ǩƴ",
        "ƭ"
      ],
      [
        "ǩ",
        "Ɓƿ"
      ],
      [
        "ǩƁ",
        "ƿ"
      ],
      [
        "Ǥƺƺ",
        "ǧƚƄ"
      ],
      [
        "ǩƂƣ",
        "Ǥƹƈ"
      ],
      [
        "Ǥ",
        "ƻƅ"
      ],
      [
        "Ǥƻ",
        "ƅ"
      ],
      [
        "v",
        "a"
      ],
      [
        "ǥ",
        "ƿƅ"
      ],
      [
        "ǥƿ",
        "ƅ"
      ],
      [
        "l",
        "d"
      ],
      [
        "ƻ",
        "Ǝ"
      ],
      [
        "ǥ",
        "ưƝ"
      ],
      [
        "ǥư",
        "Ɲ"
      ],
      [
        "Ǩƴƨ",
        "ǩƇƏ"
      ],
      [
        "Ɨ",
        "ƅ"
      ],
      [
        "Ƌ",
        "Ǩ"
      ],
      [
        "Ƣ",
        "Ǩ"
      ],
      [
        "ǧƃ",
        "ƭ"
      ],
      [
        "ǧ",
        "ƃƭ"
      ],
      [
        "Ʈ",
        "Ǥ"
      ],
      [
        "Ɲ",
        "ƀ"
      ],
      [
        "Ɣ",
        "Ƶ"
      ],
      [
        "ƾ",
        "Ɨ"
      ],
      [
        "Ƹ",
        "ƻ"
      ],
      [
        "Ƹ",
        "ƚ"
      ],
      [
        "ǥƎƆ",
        "ǥƏƲ"
      ],
      [
        "Ǥ",
        "ƽƎ"
      ],
      [
        "Ǥƽ",
        "Ǝ"
      ],
      [
        "ǥƾƈ",
        "ǥƤƚ"
      ],
      [
        "ǩƚ",
        "Ə"
      ],
      [
        "ǩ",
        "ƚƏ"
      ],
      [
        "Ǩơƌ",
        "ǤƸƺ"
      ],
      [
        "a",
        "g"
      ],
      [
        "Ǧ",
        "ƈƏ"
      ],
      [
        "Ǧƈ",
        "Ə"
      ],
      [
        "a",
        "y"
      ],
      [
        "Ə",
        "Ǥ"
      ],
      [
        "ǤƸƤ",
        "ǤƸƪ"
      ],
      [
        "ǧ",
        "ƋƬ"
      ],
      [
        "ǧƋ",
        "Ƭ"
      ],
      [
        "s",
        "h"
      ],
      [
        "Ƃ",
        "ǧ"
      ],
      [
        "ƅ",
        "Ƭ"
      ],
      [
        "ǨƿƐ",
        "ǥƊƨ"
      ],
      [
        "ǥ",
        "ƖƜǦƬƢ"
      ],
      [
        "ǥƖƜ",
        "ǦƬƢ"
      ],
      [
        "ǂ",
        "Ʒ"
      ],
      [
        "Ɯ",
        "ƈ"
      ],
      [
        "ǥƈƩ",
        "ǧƔƨ"
      ],
      [
        "Ɠ",
        "ƍ"
      ],
      [
        "ǩƔ",
        "Ʈ"
      ],
      [
        "ǩ",
        "ƔƮ"
      ],
      [
        "ǨƇƪ",
        "ǥƊƨ"
      ],
      [
        "ǧƭ",
        "Ɣ"
      ],
      [
        "ǧ",
        "ƭƔ"
      ],
      [
        "ǩ",
        "Ʋ"
      ],
      [
        "Ǩ",
        "Ʈƭ"
      ],
      [
        "ǨƮ",
        "ƭ"
      ],
      [
        "ǧƨƋ",
        "ǥƺƏ"
      ],
      [
        "ǧƭ",
        "Ɩ"
      ],
      [
        "ǧ",
        "ƭƖ"
      ],
      [
        "ǥ",
        "Ƥƴ"
      ],
      [
        "ǥƤ",
        "ƴ"
      ],
      [
        "Ǧƕư",
        "ǥƭƗ"
      ],
      [
        "ƣ",
        "ǧ"
      ],
      [
        "o",
        "d"
      ],
      [
        "ǥƏƥ",
        "ǥƭƐ"
      ],
      [
        "Ƃ",
        "ƹ"
      ],
      [
        "ƞ",
        "ƍ"
      ],
      [
        "ǥƅ",
        "ƴ"
      ],
      [
        "ǥ",
        "ƅƴ"
      ],
      [
        "g",
        "h"
      ],
      [
        "ƃ",
        "ǧ"
      ],
      [
        "Ǧƕƅ",
        "ǤƺƋ"
      ],
      [
        "Ƭ",
        "Ǩ"
      ],
      [
        "ǧƠƔ",
        "ǧƩƶ"
      ],
      [
        "ǧƠ",
        "ƔǧƩƶ"
      ],
      [
        "ƀ",
        "ǩ"
      ],
      [
        "ƛ",
        "Ǥ"
      ],
      [
        "ǥƸ",
        "ƌ"
      ],
      [
        "ǥ",
        "Ƹƌ"
      ],
      [
        "Ǧƕƙ",
        "ǨƂƲ"
      ],
      [
        "Ɛ",
        "ƃ"
      ],
      [
        "Ơ",
        "Ǩ"
      ],
      [
        "ǦƟ",
        "Ɛ"
      ],
      [
        "Ǧ",
        "ƟƐ"
      ],
      [
        "ƾ",
        "ƛ"
      ],
      [
        "ƃ",
        "Ǧ"
      ],
      [
        "Ʈ",
        "ƞ"
      ],
      [
        "m",
        "b"
      ],
      [
        "ǥƤ",
        "Ʊ"
      ],
      [
        "ǥ",
        "ƤƱ"
      ],
      [
        "ƅ",
        "Ǩ"
      ],
      [
        "ǦƈƑǤƻƬ",
        "ǥƏƯǤƻƥ"
      ],
      [
        "Ɗ",
        "ơ"
      ],
      [
        "ǧƚƄ",
        "ǥƽƱǥƓƍ"
      ],
      [
        "ǥƈƆ",
        "ǧƱƻ"
      ],
      [
        "ǥƏƑ",
        "ǧƎư"
      ],
      [
        "Ǧƌ",
        "Ƒ"
      ],
      [
        "Ǧ",
        "ƌƑ"
      ],
      [
        "ǤƻƎ",
        "Ǩƀƌ"
      ],
      [
        "Ǥ",
        "ƼƁ"
      ],
      [
        "ǤƼ",
        "Ɓ"
      ],
      [
        "ǦƯƏ",
        "ǤƸƪ"
      ],
      [
        "Ǧ",
        "Ɗƥ"
      ],
      [
        "ǦƊ",
        "ƥ"
      ],
      [
        "Ʃ",
        "Ǥ"
      ],
      [
        "ǩƙ",
        "ƅ"
      ],
      [
        "ǩ",
        "ƙƅ"
      ],
      [
        "ǧƬ",
        "Ƭ"
      ],
      [
        "ǧ",
        "ƬƬ"
      ],
      [
        "Ƈ",
        "ƍ"
      ],
      [
        "ǥƭƦ",
        "ǧƔƟ"
      ],
      [
        "ǥ",
        "ƙ"
      ],
      [
        "ǥƢƞ",
        "ǥƊƠ"
      ],
      [
        "l",
        "u"
      ],
      [
        "Ʈ",
        "ƹ"
      ],
      [
        "ǥ",
        "Ưƻ"
      ],
      [
        "ǥƯ",
        "ƻ"
      ],
      [
        "Ǩ",
        "Ɓƌ"
      ],
      [
        "ǨƁ",
        "ƌ"
      ],
      [
        "Ǩơƨ",
        "Ǩƾƾ"
      ],
      [
        "1",
        "5"
      ],
      [
        "ǥƭƘǥ",
        "Ɯƨ"
      ],
      [
        "ǥƭƘ",
        "ǥƜƨ"
      ],
      [
        "w",
        "o"
      ],
      [
        "ǥƛƢ",
        "ǩƘƟ"
      ],
      [
        "ƕ",
        "Ǩ"
      ],
      [
        "ǥƸ",
        "ƈ"
      ],
      [
        "ǥ",
        "Ƹƈ"
      ],
      [
        "Ʈ",
        "Ɨ"
      ],
      [
        "ƫ",
        "ǥ"
      ],
      [
        "Ʋ",
        "ǧ"
      ],
      [
        "ǨƵƄ",
        "Ǧ"
      ],
      [
        "ǨƵ",
        "ƄǦ"
      ],
      [
        "ǥƛ",
        "ƾ"
      ],
      [
        "ǥ",
        "ƛƾ"
      ],
      [
        "o",
        "v"
      ],
      [
        "Ƈ",
        "ƌ"
      ],
      [
        "Ɣ",
        "Ǩ"
      ],
      [
        "ǦƈƑ",
        "ǧƚƄ"
      ],
      [
        "a",
        "p"
      ],
      [
        "Ǧ",
        "ƚ"
      ],
      [
        "Ư",
        "Ɣ"
      ],
      [
        "ǦƎƧ",
        "ǥƈƶ"
      ],
      [
        "Ɔ",
        "ǩ"
      ],
      [
        "ƹ",
        "ǧ"
      ],
      [
        "ƃ",
        "Ǥ"
      ],
      [
        "ǥ",
        "ƛƴ"
      ],
      [
        "ǥƛ",
        "ƴ"
      ],
      [
        "Ɲ",
        "ƞ"
      ],
      [
        "ǥƊƨ",
        "ǧƉƩ"
      ],
      [
        "a",
        "b"
      ],
      [
        "ƛ",
        "Ʈ"
      ],
      [
        "Ʈ",
        "Ʈ"
      ],
      [
        "ǥƅƳ",
        "ǧƳƻ"
      ],
      [
        "ǥ",
        "ƥƳ"
      ],
      [
        "ǥƥ",
        "Ƴ"
      ],
      [
        "Ǧƶ",
        "ƈ"
      ],
      [
        "Ǧ",
        "ƶƈ"
      ],
      [
        "ơ",
        "Ʈ"
      ],
      [
        "ǦƸƸ",
        "ǦƈƏ"
      ],
      [
        "Ġ",
        "v"
      ],
      [
        "u",
        "a"
      ],
      [
        "ƞ",
        "Ƌ"
      ],
      [
        "ƻ",
        "Ə"
      ],
      [
        "ǥ",
        "ƎƋ"
      ],
      [
        "ǥƎ",
        "Ƌ"
      ],
      [
        "Ǩ",
        "ƂƉ"
      ],
      [
        "ǨƂ",
        "Ɖ"
      ],
      [
        "Ɩ",
        "ư"
      ],
      [
        "ƴ",
        "Ǩ"
      ],
      [
        "Ǥ",
        "ƹư"
      ],
      [
        "Ǥƹ",
        "ư"
      ],
      [
        "ǥƸƌ",
        "ǦƜƛ"
      ],
      [
        "Ǥ",
        "ƻƋ"
      ],
      [
        "Ǥƻ",
        "Ƌ"
      ],
      [
        "ǥƹƶ",
        "ǤƸƔ"
      ],
      [
        "ƭ",
        "ƣ"
      ],
      [
        "ǤƼƁ",
        "ǤƸƚ"
      ],
      [
        "ƻ",
        "Ɠ"
      ],
      [
        "ǦƳƨ",
        "ǦƄƏ"
      ],
      [
        "3",
        "0"
      ],
      [
        "ǧƚƄ",
        "ǥƏƑǥƱƕ"
      ],
      [
        "ǥ",
        "ƯƆ"
      ],
      [
        "ǥƯ",
        "Ɔ"
      ],
      [
        "ƻ",
        "ƣ"
      ],
      [
        "Ǧ",
        "Ƣ"
      ],
      [
        "ǨƋ",
        "Ʊ"
      ],
      [
        "Ǩ",
        "ƋƱ"
      ],
      [
        "r",
        "y"
      ],
      [
        "ǥ",
        "ƍƳ"
      ],
      [
        "ǥƍ",
        "Ƴ"
      ],
      [
        "ǨƵƄ",
        "ǦƺƐ"
      ],
      [
        "ǨƵƄǦ",
        "ƺƐ"
      ],
      [
        "Ƽ",
        "Ə"
      ],
      [
        "ǧ",
        "ƺƢ"
      ],
      [
        "ǧƺ",
        "Ƣ"
      ],
      [
        "ǥƅƨ",
        "ǧƐƃ"
      ],
      [
        "ƽ",
        "Ʊ"
      ],
      [
        "Ƃ",
        "Ǩ"
      ],
      [
        "Ġ",
        "P"
      ],
      [
        "ǩ",
        "Ɣƙ"
      ],
      [
        "ǩƔ",
        "ƙ"
      ],
      [
        "g",
        "i"
      ],
      [
        "ǩƁƿ",
        "ǥƅƍ"
      ],
      [
        "Ǧƛƴ",
        "ǥƤƚǧƚƄ"
      ],
      [
        "ǦƛƴǥƤƚ",
        "ǧƚƄ"
      ],
      [
        "ǦƊƕ",
        "ǨƵƄ"
      ],
      [
        "ƹ",
        "Ƴ"
      ],
      [
        "u",
        "c"
      ],
      [
        "ǥ",
        "Ƒƨ"
      ],
      [
        "ǥƑ",
        "ƨ"
      ],
      [
        "b",
        "l"
      ],
      [
        "ǥƭ",
        "Ʃ"
      ],
      [
        "ǥ",
        "ƭƩ"
      ],
      [
        "T",
        "o"
      ],
      [
        "Ʈ",
        "ƃ"
      ],
      [
        "ǥƯ",
        "ƌ"
      ],
      [
        "ǥ",
        "Ưƌ"
      ],
      [
        "Ɵ",
        "Ɠ"
      ],
      [
        "ǨƇ",
        "Ƴ"
      ],
      [
        "Ǩ",
        "ƇƳ"
      ],
      [
        "Ɖ",
        "Ǩ"
      ],
      [
        "ǦƀƧ",
        "ǥƒƌ"
      ],
      [
        "a",
        "v"
      ],
      [
        "ǥƆƅ",
        "ǥƮƹ"
      ],
      [
        "ǤƸƻ",
        "ǩƢƘ"
      ],
      [
        "ǥƷƥ",
        "ǥƅƷ"
      ],
      [
        "ƿ",
        "Ǧ"
      ],
      [
        "ƣ",
        "Ɵ"
      ],
      [
        "e",
        "f"
      ],
      [
        "Ʊ",
        "Ƃ"
      ],
      [
        "ǩƗ",
        "ƨ"
      ],
      [
        "ǩ",
        "Ɨƨ"
      ],
      [
        "ǥƷ",
        "Ƨ"
      ],
      [
        "ǥ",
        "ƷƧ"
      ],
      [
        "ǦƎ",
        "ƪ"
      ],
      [
        "Ǧ",
        "Ǝƪ"
      ],
      [
        "ǥ",
        "ƅƻ"
      ],
      [
        "ǥƅ",
        "ƻ"
      ],
      [
        "ƙ",
        "ǧ"
      ],
      [
        "ǥ",
        "Ʋ"
      ],
      [
        "t",
        "y"
      ],
      [
        "ǥ",
        "Ƹƃ"
      ],
      [
        "ǥƸ",
        "ƃ"
      ],
      [
        "r",
        "r"
      ],
      [
        "o",
        "p"
      ],
      [
        "ǧƙ",
        "ƽ"
      ],
      [
        "ǧ",
        "ƙƽ"
      ],
      [
        "Ʀ",
        "Ǧ"
      ],
      [
        "ǥƊƟ",
        "Ǩƃƽ"
      ],
      [
        "ƨ",
        "ƀ"
      ],
      [
        "Ƴ",
        "ƨ"
      ],
      [
        "w",
        "a"
      ],
      [
        "ǥƓƪ",
        "Ǥƺƛ"
      ],
      [
        "ƻ",
        "ơ"
      ],
      [
        "ǦƌƑ",
        "ǦƈƘ"
      ],
      [
        "ǥƏ",
        "ư"
      ],
      [
        "ǥ",
        "Əư"
      ],
      [
        "ǩ",
        "ƙƐ"
      ],
      [
        "ǩƙ",
        "Ɛ"
      ],
      [
        "Ɨ",
        "Ǥ"
      ],
      [
        "Ƽ",
        "ǥ"
      ],
      [
        "ǥƺ",
        "ƭ"
      ],
      [
        "ǥ",
        "ƺƭ"
      ],
      [
        "ǥƮƌ",
        "ǦƈƐ"
      ],
      [
        "ǤƸƊ",
        "ǧƚƄ"
      ],
      [
        "Ʊ",
        "ƕ"
      ],
      [
        "ǦƜƉ",
        "Ǧƕƈ"
      ],
      [
        "ơ",
        "ƈ"
      ],
      [
        "w",
        "h"
      ],
      [
        "Ư",
        "Ɔ"
      ],
      [
        "Ɛ",
        "ƈ"
      ],
      [
        "ǧƺ",
        "Ʀ"
      ],
      [
        "ǧ",
        "ƺƦ"
      ],
      [
        "ǦƂƨ",
        "ǥƏƯǤƻƥ"
      ],
      [
        "ǥƈƶ",
        "ǤƽƜ"
      ],
      [
        "x",
        "t"
      ],
      [
        "ƺ",
        "Ƥ"
      ],
      [
        "ƺ",
        "Ƨ"
      ],
      [
        "ǧƎư",
        "ǥƜƨ"
      ],
      [
        "Ǧ",
        "Ɵƥ"
      ],
      [
        "ǦƟ",
        "ƥ"
      ],
      [
        "Ƴ",
        "ǩ"
      ],
      [
        "ǥưƝ",
        "ǨƯƕ"
      ],
      [
        "ǩ",
        "ƇƊ"
      ],
      [
        "ǩƇ",
        "Ɗ"
      ],
      [
        "ǩ",
        "ƙƤ"
      ],
      [
        "ǩƙ",
        "Ƥ"
      ],
      [
        "ǥƅƳ",
        "ǩƔƮ"
      ],
      [
        "ǦƎ",
        "ƨǨ"
      ],
      [
        "ǦƎƨ",
        "Ǩ"
      ],
      [
        "Ƭ",
        "ơ"
      ],
      [
        "ƃ",
        "Ƴ"
      ],
      [
        "Ƃ",
        "ƣ"
      ],
      [
        "e",
        "v"
      ],
      [
        "ƣ",
        "Ǧ"
      ],
      [
        "ǩƘ",
        "Ʋ"
      ],
      [
        "ǩ",
        "ƘƲ"
      ],
      [
        "ǤƸƀ",
        "ǨƵƷ"
      ],
      [
        "ƈ",
        "Ɩ"
      ],
      [
        "ǦƎƪ",
        "ǦƖƽ"
      ],
      [
        "ǦƝ",
        "ƾ"
      ],
      [
        "Ǧ",
        "Ɲƾ"
      ],
      [
        "Ǧ",
        "Ƴƛ"
      ],
      [
        "ǦƳ",
        "ƛ"
      ],
      [
        "ƍ",
        "ǩ"
      ],
      [
        "s",
        "p"
      ],
      [
        "ǥ",
        "Ƌ"
      ],
      [
        "ǥƙ",
        "ƨ"
      ],
      [
        "ǥ",
        "ƙƨ"
      ],
      [
        "ƿ",
        "ƀ"
      ],
      [
        "ƅ",
        "ƨ"
      ],
      [
        "Ƥ",
        "Ǧ"
      ],
      [
        "ǦƈƑ",
        "ǦƃƳ"
      ],
      [
        "Ɵ",
        "Ƴ"
      ],
      [
        "Ǧ",
        "ưƑ"
      ],
      [
        "Ǧư",
        "Ƒ"
      ],
      [
        "ǩƣƎ",
        "ǩƙƩ"
      ],
      [
        "Ǩ",
        "ƿƜ"
      ],
      [
        "Ǩƿ",
        "Ɯ"
      ],
      [
        "Ɓ",
        "Ǥ"
      ],
      [
        "ƣ",
        "Ǥ"
      ],
      [
        "ǥ",
        "ƅƋ"
      ],
      [
        "ǥƅ",
        "Ƌ"
      ],
      [
        "ƻ",
        "ƀ"
      ],
      [
        "ǦƎƨǨ",
        "ƍƐ"
      ],
      [
        "ǧơƮ",
        "ǥƮƚ"
      ],
      [
        "ǧƧƑ",
        "ǥƭƦ"
      ],
      [
        "Ǧ",
        "ƊƊ"
      ],
      [
        "ǦƊ",
        "Ɗ"
      ],
      [
        "ǥƜư",
        "ǧƐƃ"
      ],
      [
        "c",
        "u"
      ],
      [
        "ǥƏ",
        "Ƥ"
      ],
      [
        "ǥ",
        "ƏƤ"
      ],
      [
        "Ƙ",
        "Ɵ"
      ],
      [
        "ǥ",
        "ƱƱ"
      ],
      [
        "ǥƱ",
        "Ʊ"
      ],
      [
        "Ɓ",
        "Ǩ"
      ],
      [
        "ǨƐ",
        "ƽ"
      ],
      [
        "Ǩ",
        "Ɛƽ"
      ],
      [
        "ǥ",
        "ƪ"
      ],
      [
        "ǧ",
        "Ə"
      ],
      [
        "ǥƍ",
        "Ƈ"
      ],
      [
        "ǥ",
        "ƍƇ"
      ],
      [
        "1",
        "9"
      ],
      [
        "Ġ",
        "Ċ"
      ],
      [
        "ǤƹƋǩƗƴ",
        "ǧƚƄ"
      ],
      [
        "Ɵ",
        "Ǥ"
      ],
      [
        "Ɯ",
        "ǧ"
      ],
      [
        "ǦƉƾ",
        "ǥƈư"
      ],
      [
        "Ƭ",
        "Ƭ"
      ],
      [
        "ǦƖƹ",
        "Ǧơƈ"
      ],
      [
        "r",
        "n"
      ],
      [
        "ǦƜƺǥƙƨ",
        "ǥƭƦǤƹƠ"
      ],
      [
        "ǧƻƓ",
        "ǦƞƜ"
      ],
      [
        "ǥƇƆ",
        "ǧơƮ"
      ],
      [
        "Ǧƈ",
        "ƿ"
      ],
      [
        "Ǧ",
        "ƈƿ"
      ],
      [
        "ƅ",
        "ǧ"
      ],
      [
        "Ǩƿƙ",
        "ǦƠƷ"
      ],
      [
        "ǧƋ",
        "Ɨ"
      ],
      [
        "ǧ",
        "ƋƗ"
      ],
      [
        "Ɩ",
        "Ɯ"
      ],
      [
        "ƴ",
        "ƻ"
      ],
      [
        "ǤƼƠ",
        "ǧƻƟ"
      ],
      [
        "Ƴ",
        "Ǩ"
      ],
      [
        "ǤƽƜ",
        "ǧƔƨ"
      ],
      [
        "y",
        "t"
      ],
      [
        "ǥ",
        "ƿƵ"
      ],
      [
        "ǥƿ",
        "Ƶ"
      ],
      [
        "ƕ",
        "ƈ"
      ],
      [
        "ƾ",
        "ǧ"
      ],
      [
        "ǧƉ",
        "ƌ"
      ],
      [
        "ǧ",
        "Ɖƌ"
      ],
      [
        "ƭ",
        "ƥ"
      ],
      [
        "Ư",
        "Ə"
      ],
      [
        "ǥƮƶ",
        "ǥƺƭ"
      ],
      [
        "p",
        "p"
      ],
      [
        "ƃ",
        "Ǩ"
      ],
      [
        "r",
        "d"
      ],
      [
        "Ǧ",
        "ƺ"
      ],
      [
        "ǨƯƆ",
        "ǥƈƫ"
      ],
      [
        "Ɓ",
        "ƥ"
      ],
      [
        "Ƒ",
        "Ƙ"
      ],
      [
        "ǥƏ",
        "Ʒ"
      ],
      [
        "ǥ",
        "ƏƷ"
      ],
      [
        "f",
        "e"
      ],
      [
        "ǦƜ",
        "ƈ"
      ],
      [
        "Ǧ",
        "Ɯƈ"
      ],
      [
        "ƹ",
        "ǩ"
      ],
      [
        "ǩƃƨ",
        "ǥƈƆ"
      ],
      [
        "ǧƛ",
        "Ɗ"
      ],
      [
        "ǧ",
        "ƛƊ"
      ],
      [
        "ǥƹƿ",
        "ǦƳƛ"
      ],
      [
        "ǥƻƺ",
        "ǧƫƋ"
      ],
      [
        "ƀ",
        "ƅ"
      ],
      [
        "ƾ",
        "Ǥ"
      ],
      [
        "ǥƛƠ",
        "ǦƭƤ"
      ],
      [
        "ǧ",
        "Ʀƻ"
      ],
      [
        "ǧƦ",
        "ƻ"
      ],
      [
        "l",
        "s"
      ],
      [
        "ƻ",
        "ƻ"
      ],
      [
        "ǦƏƐ",
        "ǥƏƖ"
      ],
      [
        "ǦƲ",
        "ƻǧƖƗ"
      ],
      [
        "Ǥƿ",
        "Ʈ"
      ],
      [
        "Ǥ",
        "ƿƮ"
      ],
      [
        "Ɲ",
        "ǣ"
      ],
      [
        "Ġ",
        "B"
      ],
      [
        "P",
        "y"
      ],
      [
        "Ǩ",
        "ƯƉ"
      ],
      [
        "ǨƯ",
        "Ɖ"
      ],
      [
        "ƽ",
        "Ǥ"
      ],
      [
        "Ǧƕƈ",
        "ǧƎƇ"
      ],
      [
        "Ƽ",
        "ƀ"
      ],
      [
        "ƺ",
        "Ƣ"
      ],
      [
        "Ƨ",
        "ǧ"
      ],
      [
        "ƽ",
        "Ǩ"
      ],
      [
        "ǨƉƺ",
        "ǦƜƯ"
      ],
      [
        "ǧƻƙ",
        "ǦƈƑ"
      ],
      [
        "ǤƻƋ",
        "ǧƻ"
      ],
      [
        "ƿ",
        "ư"
      ],
      [
        "ǥƾ",
        "Ɓ"
      ],
      [
        "ǥ",
        "ƾƁ"
      ],
      [
        "b",
        "y"
      ],
      [
        "Ǧ",
        "ƍƢ"
      ],
      [
        "Ǧƍ",
        "Ƣ"
      ],
      [
        "ƅ",
        "Ʒ"
      ],
      [
        "ǧ",
        "Ɵƭ"
      ],
      [
        "ǧƟ",
        "ƭ"
      ],
      [
        "ƶ",
        "ǧ"
      ],
      [
        "ƹ",
        "ƿ"
      ],
      [
        "ƚ",
        "Ə"
      ],
      [
        "ǤƻƋǧƻ",
        "ƍ"
      ],
      [
        "ƛ",
        "ƽ"
      ],
      [
        "ǧ",
        "ƻƜ"
      ],
      [
        "ǧƻ",
        "Ɯ"
      ],
      [
        "ǤƽƠ",
        "ǥƏƯǤƻƥ"
      ],
      [
        "ǧ",
        "Ƨư"
      ],
      [
        "ǧƧ",
        "ư"
      ],
      [
        "Ɖ",
        "ǩ"
      ],
      [
        "ǤƼ",
        "Ɨ"
      ],
      [
        "Ǥ",
        "ƼƗ"
      ],
      [
        "Ƃ",
        "Ǣ"
      ],
      [
        "ǥƭ",
        "ƣ"
      ],
      [
        "ǥ",
        "ƭƣ"
      ],
      [
        "ǥƼƀǥ",
        "ƏƑ"
      ],
      [
        "ǥƼƀ",
        "ǥƏƑ"
      ],
      [
        "ǥƛƠ",
        "ǧƴƠ"
      ],
      [
        "ǤƽƓ",
        "ǩƪƌ"
      ],
      [
        "c",
        "k"
      ],
      [
        "Ǩ",
        "ƯƗ"
      ],
      [
        "ǨƯ",
        "Ɨ"
      ],
      [
        "ǨƮơǧƮƗ",
        "ǦƜƺ"
      ],
      [
        "Ǧ",
        "ƜƋ"
      ],
      [
        "ǦƜ",
        "Ƌ"
      ],
      [
        "Ɩ",
        "Ǩ"
      ],
      [
        "ƹ",
        "Ǥ"
      ],
      [
        "Ǩơƨ",
        "ǧƎư"
      ],
      [
        "ǦƈƐ",
        "ǥƊƟ"
      ],
      [
        "Ƣ",
        "Ɔ"
      ],
      [
        "ǨƎƷ",
        "ǥƾƗ"
      ],
      [
        "ǨƮƾ",
        "ǥƤƇ"
      ],
      [
        "ǦƗƠ",
        "ǦƳƕ"
      ],
      [
        "Ɓ",
        "Ɠ"
      ],
      [
        "ǧƟƥ",
        "ǩƁƓ"
      ],
      [
        "ƺ",
        "Ƌ"
      ],
      [
        "Ƅ",
        "ƿ"
      ],
      [
        "Ǧ",
        "ƨ"
      ],
      [
        "ǧƫ",
        "ƙ"
      ],
      [
        "ư",
        "Ǩ"
      ],
      [
        "ǥƏƗ",
        "ǥƈư"
      ],
      [
        "ơ",
        "Ǩ"
      ],
      [
        "Ʊ",
        "Ƽ"
      ],
      [
        "ǥƅƳ",
        "ǦƳƨ"
      ],
      [
        "Ǥƺ",
        "ƌ"
      ],
      [
        "Ǥ",
        "ƺƌ"
      ],
      [
        "ǧƚƄ",
        "ǥƺƔǧƔƨ"
      ],
      [
        "ƾ",
        "Ɠ"
      ],
      [
        "ǧƚƄ",
        "ǩƗƮǩƢƘ"
      ],
      [
        "Ƥ",
        "ǧ"
      ],
      [
        "Ǩƾ",
        "ƹ"
      ],
      [
        "Ǩ",
        "ƾƹ"
      ],
      [
        "ǧ",
        "Ɣƻ"
      ],
      [
        "ǧƔ",
        "ƻ"
      ],
      [
        "Ǩ",
        "ƯƯ"
      ],
      [
        "ǨƯ",
        "Ư"
      ],
      [
        "ǩƇƏ",
        "ǧƚƄ"
      ],
      [
        "ǧƱƻ",
        "ǥƞƋ"
      ],
      [
        "ǧƄƶ",
        "ǥƐƎ"
      ],
      [
        "Ʈ",
        "Ǩ"
      ],
      [
        "Ǥƻƻ",
        "Ǥƽƕ"
      ],
      [
        "Ǩƴ",
        "Ɵ"
      ],
      [
        "Ǩ",
        "ƴƟ"
      ],
      [
        "ǤƸ",
        "ƽ"
      ],
      [
        "Ǥ",
        "Ƹƽ"
      ],
      [
        "h",
        "t"
      ],
      [
        "ǤƺƆ",
        "ǤƸƀ"
      ],
      [
        "ǤƼ",
        "Ƽ"
      ],
      [
        "Ɲ",
        "ǯ"
      ],
      [
        "Ɣ",
        "Ư"
      ],
      [
        "ǧ",
        "ƛƑ"
      ],
      [
        "ǧƛ",
        "Ƒ"
      ],
      [
        "ǧƧƯ",
        "ǦƞƁ"
      ],
      [
        "Ǧ",
        "ƻơ"
      ],
      [
        "Ǧƻ",
        "ơ"
      ],
      [
        "ƛ",
        "Ƹ"
      ],
      [
        "Ǧƭƣ",
        "ǥƜƨ"
      ],
      [
        "Ʊ",
        "ǧ"
      ],
      [
        "Ġ",
        "6"
      ],
      [
        "Ƙ",
        "Ǩ"
      ],
      [
        "ǥƾƗ",
        "ǥƈư"
      ],
      [
        "ǩ",
        "ƙƍ"
      ],
      [
        "ǩƙ",
        "ƍ"
      ],
      [
        "ǨƮ",
        "ƨ"
      ],
      [
        "ƒ",
        "ǥ"
      ],
      [
        "ƈ",
        "ƫ"
      ],
      [
        "ǧƚƄ",
        "ǩƇƍǨƦƁ"
      ],
      [
        "ǦƖ",
        "Ư"
      ],
      [
        "Ǧ",
        "ƖƯ"
      ],
      [
        "ǦƈƑǤƻƬ",
        "ǩƜƀǨƦƁ"
      ],
      [
        "ƈ",
        "Ʊ"
      ],
      [
        "Ǥƻƣ",
        "ǧƠƁ"
      ],
      [
        "Ʊ",
        "Ƴ"
      ],
      [
        "ǤƻƷ",
        "ǥƀƼ"
      ],
      [
        "ƌ",
        "ǩ"
      ],
      [
        "ǥ",
        "ơ"
      ],
      [
        "Ƨ",
        "Ǧ"
      ],
      [
        "ǧ",
        "ƳƖ"
      ],
      [
        "ǧƳ",
        "Ɩ"
      ],
      [
        "ǤƻƖǤƻƬ",
        "ǧƚƄ"
      ],
      [
        "ǦƜƋ",
        "ǥƏƋ"
      ],
      [
        "ǤƸƍ",
        "Ǥƻƅ"
      ],
      [
        "Ǥƺ",
        "Ɖ"
      ],
      [
        "Ǥ",
        "ƺƉ"
      ],
      [
        "s",
        "a"
      ],
      [
        "Ǧ",
        "Ɲƃ"
      ],
      [
        "ǦƝ",
        "ƃ"
      ],
      [
        "Ƴ",
        "ƻ"
      ],
      [
        "Ƨ",
        "Ƒ"
      ],
      [
        "ƽ",
        "ƍ"
      ],
      [
        "ƣ",
        "Ǝ"
      ],
      [
        "o",
        "g"
      ],
      [
        "ƴ",
        "ƨ"
      ],
      [
        "b",
        "a"
      ],
      [
        "ǦƌƁ",
        "ǧƻƭ"
      ],
      [
        "Ġ",
        "M"
      ],
      [
        "Ɵ",
        "Ɵ"
      ],
      [
        "Ə",
        "Ɩ"
      ],
      [
        "ǦƄƟ",
        "ǥƈư"
      ],
      [
        "Ǧ",
        "ƨơǥƞƋ"
      ],
      [
        "Ǧƨơ",
        "ǥƞƋ"
      ],
      [
        "ǥưƏ",
        "ǦƘƎ"
      ],
      [
        "c",
        "r"
      ],
      [
        "Ɯ",
        "Ǩ"
      ],
      [
        "ǨƮƭ",
        "ǧƻƃ"
      ],
      [
        "ǦƊƀ",
        "Ǩƃƽ"
      ],
      [
        "ǥ",
        "ƮƳ"
      ],
      [
        "ǥƮ",
        "Ƴ"
      ],
      [
        "ǧ",
        "ƎƩ"
      ],
      [
        "ǧƎ",
        "Ʃ"
      ],
      [
        "Ƥ",
        "Ƅ"
      ],
      [
        "ƅ",
        "Ǥ"
      ],
      [
        "ǩƃƽ",
        "ǦƘƯ"
      ],
      [
        "ǦƝ",
        "Ƃ"
      ],
      [
        "Ǩ",
        "ƀƁ"
      ],
      [
        "Ǩƀ",
        "Ɓ"
      ],
      [
        "ǥƖ",
        "Ƅ"
      ],
      [
        "ǥ",
        "ƖƄ"
      ],
      [
        "ǥƅƶ",
        "ǤƸƭ"
      ],
      [
        "ǧ",
        "ƺƧ"
      ],
      [
        "ǧƺ",
        "Ƨ"
      ],
      [
        "Ǧƛ",
        "Ʋ"
      ],
      [
        "Ǧ",
        "ƛƲ"
      ],
      [
        "ǩƢƄ",
        "ǦƵƋ"
      ],
      [
        "ǩơƹ",
        "ǧƛƮ"
      ],
      [
        "ƻ",
        "Ƅ"
      ],
      [
        "Ǩ",
        "ƮƲ"
      ],
      [
        "ǨƮ",
        "Ʋ"
      ],
      [
        "ǥƇƺ",
        "ǧƎư"
      ],
      [
        "ǤƸƀ",
        "ǧƯƇ"
      ],
      [
        "Ʒ",
        "Ǥ"
      ],
      [
        "ư",
        "ǩ"
      ],
      [
        "Ǝ",
        "Ƈ"
      ],
      [
        "ǩƇƇ",
        "ǥƏƖ"
      ],
      [
        "Ɲ",
        "Ǩ"
      ],
      [
        "ǤƸƍ",
        "ǦƘƯ"
      ],
      [
        "ǨƿƘ",
        "ǦƜƉ"
      ],
      [
        "Ǩ",
        "ƅ"
      ],
      [
        "ǤƹƟ",
        "ǥƏƯǤƻƥ"
      ],
      [
        "Ǥƻ",
        "Ɗ"
      ],
      [
        "Ǥ",
        "ƻƊ"
      ],
      [
        "l",
        "t"
      ],
      [
        "ǥƈƛ",
        "ǩƀƠ"
      ],
      [
        "Ǩƽ",
        "Ư"
      ],
      [
        "Ǩ",
        "ƽƯ"
      ],
      [
        "ǥƈƶ",
        "ǥƮƚ"
      ],
      [
        "p",
        "t"
      ],
      [
        "Ǥ",
        "Ƽư"
      ],
      [
        "ǤƼ",
        "ư"
      ],
      [
        "ƣ",
        "Ǩ"
      ],
      [
        "Ƽ",
        "Ɠ"
      ],
      [
        "ǦƵ",
        "Ǝ"
      ],
      [
        "Ǧ",
        "ƵƎ"
      ],
      [
        "ǤƻƖ",
        "ǧƚƄ"
      ],
      [
        "ǧ",
        "ƻƈ"
      ],
      [
        "ǧƻ",
        "ƈ"
      ],
      [
        "Ɖ",
        "ǯ"
      ],
      [
        "ƈ",
        "Ʒ"
      ],
      [
        "Ġ",
        "F"
      ],
      [
        "ǧƮƀ",
        "ǥƍƕ"
      ],
      [
        "ǤƺƺǥƷƥǦƙƺǨƃƽ",
        "ǦƊƀǦƜƯ"
      ],
      [
        "ǤƽƜ",
        "ǤƸƺ"
      ],
      [
        "ǥƤƪ",
        "ǩƘƳ"
      ],
      [
        "ǦƯƔ",
        "Ǩƾƃ"
      ],
      [
        "ƅ",
        "Ƌ"
      ],
      [
        "ƕ",
        "ƙ"
      ],
      [
        "ǧƽƑ",
        "ǧƻƜ"
      ],
      [
        "Ɵ",
        "ǩ"
      ],
      [
        "ǧƤƾ",
        "ǤƺƤ"
      ],
      [
        "Ǩ",
        "ƺ"
      ],
      [
        "ǦƋ",
        "ƥ"
      ],
      [
        "Ǧ",
        "Ƌƥ"
      ],
      [
        "ǥƾ",
        "ƀ"
      ],
      [
        "ǥƊƛ",
        "ǥƒƌ"
      ],
      [
        "ǥ",
        "ƨ"
      ],
      [
        "Ǝ",
        "ƨ"
      ],
      [
        "ǤƹƟ",
        "ǦƘƯ"
      ],
      [
        "ǩƁ",
        "Ƈ"
      ],
      [
        "ǩ",
        "ƁƇ"
      ],
      [
        "Ƨ",
        "Ɔ"
      ],
      [
        "Ǩơƌ",
        "ǤƸƚ"
      ],
      [
        "ǨƦƁ",
        "ǦƱƂ"
      ],
      [
        "Ǩ",
        "ƑƗ"
      ],
      [
        "ǨƑ",
        "Ɨ"
      ],
      [
        "ǦƜƀ",
        "ǨƿƑ"
      ],
      [
        "Ʈ",
        "Ƣ"
      ],
      [
        "Ɛ",
        "Ɨ"
      ],
      [
        "ǧƻƏ",
        "ǦƵƎ"
      ],
      [
        "ǨƵ",
        "ƛ"
      ],
      [
        "Ǩ",
        "Ƶƛ"
      ],
      [
        "Ƣ",
        "ƃ"
      ],
      [
        "ǦƉƍ",
        "Ǩƃƽ"
      ],
      [
        "ǨƉ",
        "Ư"
      ],
      [
        "Ǩ",
        "ƉƯ"
      ],
      [
        "ǦƼ",
        "Ɣ"
      ],
      [
        "Ǧ",
        "ƼƔ"
      ],
      [
        "Ǡ",
        "Ƥ"
      ],
      [
        "Ɔ",
        "Ƴ"
      ],
      [
        "Ʒ",
        "ǩ"
      ],
      [
        "ǥƇ",
        "ƽ"
      ],
      [
        "ǥ",
        "Ƈƽ"
      ],
      [
        "ƪ",
        "Ɓ"
      ],
      [
        "Ơ",
        "Ƈ"
      ],
      [
        "Ġ",
        "x"
      ],
      [
        "o",
        "b"
      ],
      [
        "Ɩ",
        "ƭ"
      ],
      [
        "ǧƟƥ",
        "ǨƯƆ"
      ],
      [
        "Ƨ",
        "ƒ"
      ],
      [
        "ǥƱ",
        "Ƃ"
      ],
      [
        "ǥ",
        "ƱƂ"
      ],
      [
        "ǩƢ",
        "Ɯ"
      ],
      [
        "ǩ",
        "ƢƜ"
      ],
      [
        "ǥƾ",
        "Ʒ"
      ],
      [
        "ǥ",
        "ƾƷ"
      ],
      [
        "ǥƐ",
        "ƃ"
      ],
      [
        "ǥ",
        "Ɛƃ"
      ],
      [
        "ǥƅƃ",
        "ǧƴƠ"
      ],
      [
        "ƕ",
        "Ɔ"
      ],
      [
        "ǥƼ",
        "Ơ"
      ],
      [
        "ǥ",
        "ƼƠ"
      ],
      [
        "ǦƜƺ",
        "ǤƼƚ"
      ],
      [
        "ǧƚƄ",
        "ǥƜư"
      ],
      [
        "ǩƣƟ",
        "ǧƉƩ"
      ],
      [
        "Ɗ",
        "Ʊ"
      ],
      [
        "ǥ",
        "ƛƭ"
      ],
      [
        "ǥƛ",
        "ƭ"
      ],
      [
        "ƻ",
        "ǩ"
      ],
      [
        "Ɗ",
        "Ǩ"
      ],
      [
        "ǥƓƁ",
        "ǧƉƌ"
      ],
      [
        "h",
        "n"
      ],
      [
        "Ǩƛ",
        "Ƌ"
      ],
      [
        "Ǩ",
        "ƛƋ"
      ],
      [
        "ǥƊƠ",
        "ǥƅƥ"
      ],
      [
        "Ǧ",
        "Ƙƾ"
      ],
      [
        "ǦƘ",
        "ƾ"
      ],
      [
        "ƈ",
        "Ʃ"
      ],
      [
        "Ǝ",
        "ǩ"
      ],
      [
        "ǥ",
        "Ʊƅ"
      ],
      [
        "ǥƱ",
        "ƅ"
      ],
      [
        "ǧ",
        "ƅ"
      ],
      [
        "Ɣ",
        "ƾ"
      ],
      [
        "c",
        "l"
      ],
      [
        "ǥƇƽ",
        "Ǧƕư"
      ],
      [
        "Ġ",
        "0"
      ],
      [
        "ǤƺƤ",
        "ǩƀƚ"
      ],
      [
        "Ɲ",
        "ǧ"
      ],
      [
        "ǦƝƐ",
        "ǦƖƙ"
      ],
      [
        "ƕ",
        "ƿ"
      ],
      [
        "Ƴ",
        "Ɩ"
      ],
      [
        "ǥƈ",
        "Ƈ"
      ],
      [
        "ǥ",
        "ƈƇ"
      ],
      [
        "ǤƸƓ",
        "ǤƸƚ"
      ],
      [
        "ǦƎƢ",
        "ǧƴƢ"
      ],
      [
        "ǦƀƧ",
        "ǧƚƄ"
      ],
      [
        "Ƽ",
        "Ɩ"
      ],
      [
        "Ƽ",
        "Ɣ"
      ],
      [
        "ǥ",
        "ƝƇ"
      ],
      [
        "ǥƝ",
        "Ƈ"
      ],
      [
        "ǨƵ",
        "ư"
      ],
      [
        "Ǩ",
        "Ƶư"
      ],
      [
        "Ƒ",
        "ǩ"
      ],
      [
        "ǧƻ",
        "Ƈ"
      ],
      [
        "ǧ",
        "ƻƇ"
      ],
      [
        "ǧƔƟ",
        "ǧƉƩ"
      ],
      [
        "ƒ",
        "Ǩ"
      ],
      [
        "2",
        "5"
      ],
      [
        "ǧƊ",
        "ƶ"
      ],
      [
        "ǧ",
        "Ɗƶ"
      ],
      [
        "ǥ",
        "ƮƤ"
      ],
      [
        "ǥƮ",
        "Ƥ"
      ],
      [
        "ǦƗƅ",
        "ǦƸƸ"
      ],
      [
        "ƅ",
        "Ʊ"
      ],
      [
        "Ƃ",
        "ǩ"
      ],
      [
        "ǨƧƣ",
        "ǩƇƊ"
      ],
      [
        "Ǩƍ",
        "Ư"
      ],
      [
        "Ǩ",
        "ƍƯ"
      ],
      [
        "Ƭ",
        "ǩ"
      ],
      [
        "Ǩơ",
        "ơ"
      ],
      [
        "Ǩ",
        "ơơ"
      ],
      [
        "Ġ",
        "8"
      ],
      [
        "Ǩơƨ",
        "ǧƤƺ"
      ],
      [
        "g",
        "r"
      ],
      [
        "ƿ",
        "ƻ"
      ],
      [
        "ǥƼ",
        "Ƃ"
      ],
      [
        "ǥ",
        "ƼƂ"
      ],
      [
        "J",
        "o"
      ],
      [
        "ǧƎư",
        "Ǥƻƣ"
      ],
      [
        "ƈ",
        "ƛ"
      ],
      [
        "ǩƣ",
        "ƞ"
      ],
      [
        "ǩ",
        "ƣƞ"
      ],
      [
        "ǦƊƀ",
        "ǥƷƧ"
      ],
      [
        "ǥƤ",
        "Ə"
      ],
      [
        "ǥ",
        "ƤƏ"
      ],
      [
        "ǧ",
        "Ɔ"
      ],
      [
        "Ǩƃƽ",
        "ǦƺƐ"
      ],
      [
        "ǧ",
        "Ɓƫ"
      ],
      [
        "ǧƁ",
        "ƫ"
      ],
      [
        "ǧƚƄ",
        "ǤƸƀ"
      ],
      [
        "ǥ",
        "ƅƅ"
      ],
      [
        "ǥƅ",
        "ƅ"
      ],
      [
        "ǩƻ",
        "Ƒ"
      ],
      [
        "ǩ",
        "ƻƑ"
      ],
      [
        "ǥƌƻ",
        "ǧƔƟ"
      ],
      [
        "p",
        "u"
      ],
      [
        "ǥ",
        "ƊƱ"
      ],
      [
        "ǥƊ",
        "Ʊ"
      ],
      [
        "Ƣ",
        "Ǥ"
      ],
      [
        "Ƽ",
        "ƺ"
      ],
      [
        "Ǩ",
        "ƴƣ"
      ],
      [
        "Ǩƴ",
        "ƣ"
      ],
      [
        "ƛ",
        "ǧ"
      ],
      [
        "Ɛ",
        "Ǩ"
      ],
      [
        "ǥƐƈ",
        "ǤƽƜ"
      ],
      [
        "ǧƚƄ",
        "ǦƘƯ"
      ],
      [
        "ǧƚƄǦ",
        "ƘƯ"
      ],
      [
        "Ƭ",
        "Ƣ"
      ],
      [
        "ǥ",
        "ƍƏ"
      ],
      [
        "ǥƍ",
        "Ə"
      ],
      [
        "ǧƻƓ",
        "ǦƞƄ"
      ],
      [
        "ƚ",
        "Ǣ"
      ],
      [
        "Ǧƭƣ",
        "ǧơƮ"
      ],
      [
        "Ǥƻƥ",
        "Ǥƾƿ"
      ],
      [
        "ƹ",
        "Ɵ"
      ],
      [
        "}",
        "{"
      ],
      [
        "ǥƑƊ",
        "ǨƯƉ"
      ],
      [
        "ƿ",
        "Ƙ"
      ],
      [
        "ǩ",
        "ƾ"
      ],
      [
        "ǦƗƅ",
        "Ǩơƌ"
      ],
      [
        "ǧƔƟ",
        "ǤƺƧ"
      ],
      [
        "Ƈ",
        "Ǥ"
      ],
      [
        "ƕ",
        "ơ"
      ],
      [
        "o",
        "c"
      ],
      [
        "ǧƭƉ",
        "ǧƭƉ"
      ],
      [
        "ǥƭƩ",
        "ǥƭƐ"
      ],
      [
        "Ǩ",
        "ƥƿ"
      ],
      [
        "Ǩƥ",
        "ƿ"
      ],
      [
        "ǧƻƏ",
        "ǩƪƌ"
      ],
      [
        "ƀ",
        "Ɖ"
      ],
      [
        "Ɨ",
        "Ǩ"
      ],
      [
        "ƺ",
        "Ʒ"
      ],
      [
        "ǧ",
        "Ƒ"
      ],
      [
        "ǩƥƮ",
        "ǩƣƟ"
      ],
      [
        "Ƥƍ",
        "ǧƉƩ"
      ],
      [
        "Ƹ",
        "ǧ"
      ],
      [
        "ǨƉƲ",
        "ǧƚƄ"
      ],
      [
        "d",
        "u"
      ],
      [
        "Ɗ",
        "Ƃ"
      ],
      [
        "Ɖ",
        "Ƌ"
      ],
      [
        "Ơ",
        "Ƽ"
      ],
      [
        "ǦƋƥ",
        "ǦƜƉ"
      ],
      [
        "Ʈ",
        "Ɖ"
      ],
      [
        "ǤƽƜ",
        "ǥƓƁ"
      ],
      [
        "ǩ",
        "Ɔ"
      ],
      [
        "S",
        "t"
      ],
      [
        "Ɖ",
        "ƹ"
      ],
      [
        "Ƨ",
        "Ǩ"
      ],
      [
        "Ġ",
        "E"
      ],
      [
        "ƽ",
        "Ƒ"
      ],
      [
        "p",
        "i"
      ],
      [
        "Ɣ",
        "Ǥ"
      ],
      [
        "ǥ",
        "ƾƅ"
      ],
      [
        "ǥƾ",
        "ƅ"
      ],
      [
        "ƴ",
        "Ǥ"
      ],
      [
        "ǥ",
        "ƃƏ"
      ],
      [
        "ǥƃ",
        "Ə"
      ],
      [
        "ǥƅƬǥƏƸ",
        "ǧƚƄ"
      ],
      [
        "Ġ",
        "H"
      ],
      [
        "Ǝ",
        "Ƌ"
      ],
      [
        "ǥƪ",
        "ƒ"
      ],
      [
        "ǥ",
        "ƪƒ"
      ],
      [
        "d",
        "s"
      ],
      [
        "ƅ",
        "ƍ"
      ],
      [
        "Ƈ",
        "Ƒ"
      ],
      [
        "Ǧ",
        "ƞƗ"
      ],
      [
        "Ǧƞ",
        "Ɨ"
      ],
      [
        "ǥ",
        "Ʊƞ"
      ],
      [
        "ǥƱ",
        "ƞ"
      ],
      [
        "ƃ",
        "ƭ"
      ],
      [
        "ǩƅ",
        "ƒ"
      ],
      [
        "ǩ",
        "ƅƒ"
      ],
      [
        "ǥƈƗ",
        "Ǩơƨ"
      ],
      [
        "ǦƱ",
        "ơǦ"
      ],
      [
        "Ƹ",
        "Ɖ"
      ],
      [
        "ƫ",
        "Ǥ"
      ],
      [
        "ǥƷ",
        "Ʈ"
      ],
      [
        "ǥ",
        "ƷƮ"
      ],
      [
        "Ə",
        "Ƙ"
      ],
      [
        "ƍ",
        "ƕ"
      ],
      [
        "Ǧ",
        "ƅ"
      ],
      [
        "ǦƜƺǥƙƨ",
        "Ǥƺƺ"
      ],
      [
        "ƈ",
        "Ǥ"
      ],
      [
        "Ɯ",
        "ƪ"
      ],
      [
        "Ǧ",
        "ƋƉ"
      ],
      [
        "ǦƋ",
        "Ɖ"
      ],
      [
        "Ġ",
        "W"
      ],
      [
        "ƀ",
        "Ƽ"
      ],
      [
        "Ƹ",
        "Ǝ"
      ],
      [
        "ǥƇƠ",
        "ǤƸƪ"
      ],
      [
        "Ġ",
        "D"
      ],
      [
        "0",
        "2"
      ],
      [
        "ǥƏƑ",
        "ǧƔƟ"
      ],
      [
        "ǥƤƍ",
        "ǦƝƂ"
      ],
      [
        "ǥ",
        "ƹƲ"
      ],
      [
        "ǥƹ",
        "Ʋ"
      ],
      [
        "ǩƔ",
        "ƀ"
      ],
      [
        "ǩ",
        "Ɣƀ"
      ],
      [
        "Ǥƺ",
        "Ɣ"
      ],
      [
        "Ǥ",
        "ƺƔ"
      ],
      [
        "ǩ",
        "Ʀƙ"
      ],
      [
        "ǩƦ",
        "ƙ"
      ],
      [
        "Ƹ",
        "Ƃ"
      ],
      [
        "Ɗ",
        "Ƥ"
      ],
      [
        "ǦƔƹ",
        "ǥƏƘ"
      ],
      [
        "Ɲ",
        "Ǝ"
      ],
      [
        "ǦƱơǦ",
        "ƟƓ"
      ],
      [
        "Ǩƃ",
        "ƌ"
      ],
      [
        "ǥƛ",
        "ư"
      ],
      [
        "ǥ",
        "ƛư"
      ],
      [
        "ǨƯƄ",
        "ǤƼư"
      ],
      [
        "Ǧƕƈ",
        "ǦƞƜ"
      ],
      [
        "Ǧ",
        "Ưƍ"
      ],
      [
        "ǦƯ",
        "ƍ"
      ],
      [
        "ǩƣƎ",
        "ǦƠƼ"
      ],
      [
        "ǨƯ",
        "Ƣ"
      ],
      [
        "Ǩ",
        "ƯƢ"
      ],
      [
        "Ʊ",
        "Ǥ"
      ],
      [
        "Ǧ",
        "Ʃ"
      ],
      [
        "ǥƅƴ",
        "Ǩƶƣ"
      ],
      [
        "Ɣ",
        "Ʊ"
      ],
      [
        "ǦƯƔ",
        "ǥƦƂ"
      ],
      [
        "ǥƽ",
        "ƕ"
      ],
      [
        "ǥ",
        "ƽƕ"
      ],
      [
        "Ǩƴƭ",
        "Ǥƹư"
      ],
      [
        "s",
        "w"
      ],
      [
        "ƾ",
        "Ǧ"
      ],
      [
        "ǥƾ",
        "Ʈ"
      ],
      [
        "ǥ",
        "ƾƮ"
      ],
      [
        "ǥƈƛ",
        "ǦƖư"
      ],
      [
        "ǥƯƻ",
        "ǦƉƾ"
      ],
      [
        "Ɯ",
        "ƍ"
      ],
      [
        "Ǩ",
        "Ɣ"
      ],
      [
        "Ǥƿ",
        "ƃ"
      ],
      [
        "Ǥ",
        "ƿƃ"
      ],
      [
        "Ƹ",
        "Ƥ"
      ],
      [
        "S",
        "S"
      ],
      [
        "ǧƔƟ",
        "ǥƑƽ"
      ],
      [
        "ǨƿƘ",
        "ǥƏƯǤƻƥ"
      ],
      [
        "ǤƸƺ",
        "ǤƺƆ"
      ],
      [
        "ǥƌƖ",
        "ǧƚƄ"
      ],
      [
        "ƾ",
        "ǧƗƅ"
      ],
      [
        "ƾǧ",
        "Ɨƅ"
      ],
      [
        "ǥƺ",
        "Ɯ"
      ],
      [
        "ǥ",
        "ƺƜ"
      ],
      [
        "ǥƌƅ",
        "ǥƐƫ"
      ],
      [
        "ǥƤƚ",
        "ǥưƑ"
      ],
      [
        "a",
        "k"
      ],
      [
        "ǦƜƉ",
        "ǥƅƳ"
      ],
      [
        "Ɠ",
        "Ǥ"
      ],
      [
        "ǥ",
        "ƈƻ"
      ],
      [
        "ǥƈ",
        "ƻ"
      ],
      [
        "Ƶ",
        "Ƅ"
      ],
      [
        "ǨƾƓ",
        "ǥƅƥ"
      ],
      [
        "1",
        "8"
      ],
      [
        "r",
        "u"
      ],
      [
        "ǥƿƃ",
        "ǧƐƆ"
      ],
      [
        "Ǩ",
        "ƶƅ"
      ],
      [
        "Ǩƶ",
        "ƅ"
      ],
      [
        "ǦƂ",
        "ƣ"
      ],
      [
        "Ǧ",
        "Ƃƣ"
      ],
      [
        "Ɲ",
        "ơ"
      ],
      [
        "Ġ",
        "7"
      ],
      [
        "ǧƼ",
        "ƺ"
      ],
      [
        "ǧ",
        "Ƽƺ"
      ],
      [
        "ǨƵƷ",
        "ǦƝƥ"
      ],
      [
        "ǥƁ",
        "Ƈ"
      ],
      [
        "ǥ",
        "ƁƇ"
      ],
      [
        "ƽ",
        "ƕ"
      ],
      [
        "ǥƮƃ",
        "ǧƚƄ"
      ],
      [
        "ǥƪƒ",
        "ǤƽƓ"
      ],
      [
        "Ǧ",
        "ƠƑ"
      ],
      [
        "ǦƠ",
        "Ƒ"
      ],
      [
        "ǧƚƄ",
        "ǦƖƹǦƳƕ"
      ],
      [
        "Ʃ",
        "ƺ"
      ],
      [
        "ƹ",
        "Ɛ"
      ],
      [
        "ǧƉƹ",
        "ǥƾƁ"
      ],
      [
        "ǥƍ",
        "Ɓ"
      ],
      [
        "ǥ",
        "ƍƁ"
      ],
      [
        "Ư",
        "ƥ"
      ],
      [
        "ǥƺ",
        "Ɨ"
      ],
      [
        "Ƌ",
        "Ʊ"
      ],
      [
        "ǥƍƕ",
        "ǨƯƍ"
      ],
      [
        "ƈ",
        "Ɨ"
      ],
      [
        "ǦƋ",
        "Ɵ"
      ],
      [
        "Ǧ",
        "ƋƟ"
      ],
      [
        "e",
        "g"
      ],
      [
        "Ǩƿ",
        "ƞ"
      ],
      [
        "ǥ",
        "ƅƸ"
      ],
      [
        "ǥƅ",
        "Ƹ"
      ],
      [
        "ƫ",
        "Ǧ"
      ],
      [
        "ǥƑƘ",
        "ǥƷƥ"
      ],
      [
        "f",
        "u"
      ],
      [
        "ǥƈ",
        "Ƥ"
      ],
      [
        "ǩƔ",
        "ƀǥ"
      ],
      [
        "ǩƔƀ",
        "ǥ"
      ],
      [
        "t",
        "t"
      ],
      [
        "Ǩƴ",
        "Ƣ"
      ],
      [
        "Ǩ",
        "ƴƢ"
      ],
      [
        "Ǥ",
        "Ƹư"
      ],
      [
        "ǤƸ",
        "ư"
      ],
      [
        "Ǧƕư",
        "ǩƇƏ"
      ],
      [
        "ǥƦƂǦƞƜ",
        "ǦƂƨ"
      ],
      [
        "ǦưƔ",
        "ǥƀƙ"
      ],
      [
        "ǥƥ",
        "Ƈ"
      ],
      [
        "ǥ",
        "ƥƇ"
      ],
      [
        "ǤƸƍ",
        "Ǩƃƽ"
      ],
      [
        "'",
        "s"
      ],
      [
        "Ư",
        "ƻ"
      ],
      [
        "Ġ",
        "k"
      ],
      [
        "Ǩƍ",
        "Ɖ"
      ],
      [
        "Ǩ",
        "ƍƉ"
      ],
      [
        "ƙ",
        "ƽ"
      ],
      [
        "ǧƻƄ",
        "ǧƻƇ"
      ],
      [
        "ǩƩ",
        "Ƭ"
      ],
      [
        "ǩ",
        "ƩƬ"
      ],
      [
        "ƈ",
        "ƒ"
      ],
      [
        "ƺ",
        "ǩ"
      ],
      [
        "b",
        "i"
      ],
      [
        "ǧƭ",
        "Ƒ"
      ],
      [
        "ǤƸ",
        "ƥ"
      ],
      [
        "ǦƝƥ",
        "ǨƶƊ"
      ],
      [
        "Ǧƙ",
        "Ʈ"
      ],
      [
        "Ǧ",
        "ƙƮ"
      ],
      [
        "i",
        "p"
      ],
      [
        "ǦƘƯ",
        "ǤƻƀǤƹƈ"
      ],
      [
        "o",
        "h"
      ],
      [
        "ǧ",
        "ƧƁ"
      ],
      [
        "ǧƧ",
        "Ɓ"
      ],
      [
        "Ǩưƃ",
        "Ǧƕƴ"
      ],
      [
        "e",
        "q"
      ],
      [
        "ǨƶƊ",
        "ǦƝƥǨƶƊ"
      ],
      [
        "ǧƔƟ",
        "ǦƀƁ"
      ],
      [
        "ǥƍ",
        "Ɨ"
      ],
      [
        "ǥ",
        "ƍƗ"
      ],
      [
        "Ɩ",
        "ƙ"
      ],
      [
        "ƫ",
        "ǧ"
      ],
      [
        "b",
        "u"
      ],
      [
        "ǥƛ",
        "ƛ"
      ],
      [
        "ǥ",
        "ƛƛ"
      ],
      [
        "ǥƦƂǦƞƜ",
        "ǤƽƠ"
      ],
      [
        "ǥƊƩ",
        "ǤƺƎ"
      ],
      [
        "ǥ",
        "Ɗƪ"
      ],
      [
        "ǥƊ",
        "ƪ"
      ],
      [
        "Ʋ",
        "ǥ"
      ],
      [
        "ǧƔ",
        "Ʒ"
      ],
      [
        "ǧ",
        "ƔƷ"
      ],
      [
        "ǥƏƘ",
        "ǥƾƗ"
      ],
      [
        "ǥƟƺ",
        "ǤƺƎ"
      ],
      [
        "ǥƺƦ",
        "ǥƒƌ"
      ],
      [
        "ǥƤƩ",
        "ǦưƔ"
      ],
      [
        "ǤƻƷ",
        "ǦƠƼ"
      ],
      [
        "Ɠ",
        "Ɲ"
      ],
      [
        "Ʊ",
        "Ǩ"
      ],
      [
        "0",
        "1"
      ],
      [
        "ǩƔƀ",
        "ǥƔƮ"
      ],
      [
        "ǩƔƀǥ",
        "ƔƮ"
      ],
      [
        "ǧƔƱ",
        "ǤƺƎ"
      ],
      [
        "ǥƆƳ",
        "ǧƭƖ"
      ],
      [
        "Ǧ",
        "ƲƟ"
      ],
      [
        "ǦƲ",
        "Ɵ"
      ],
      [
        "Ǩ",
        "ƒ"
      ],
      [
        "m",
        "u"
      ],
      [
        "ǦƔƿ",
        "ǥƺƜ"
      ],
      [
        "ǥƍ",
        "Ǝ"
      ],
      [
        "ǥ",
        "ƍƎ"
      ],
      [
        "s",
        "c"
      ],
      [
        "ǥưƆ",
        "ǤƼƚ"
      ],
      [
        "ƴ",
        "Ơ"
      ],
      [
        "ǦƉƀ",
        "Ǥƻƥ"
      ],
      [
        "ǥƽƓ",
        "ǥƜư"
      ],
      [
        "ǧ",
        "ƻƿ"
      ],
      [
        "ǧƻ",
        "ƿ"
      ],
      [
        "Ƥ",
        "ǩ"
      ],
      [
        "ǩ",
        "ƀƐ"
      ],
      [
        "ǩƀ",
        "Ɛ"
      ],
      [
        "Ǩƿƙ",
        "ǦƘƯ"
      ],
      [
        "ǧƔƵ",
        "ǥƭƐ"
      ],
      [
        "ǧƭƖ",
        "ǧƕ"
      ],
      [
        "ǧƭ",
        "Ɩǧƕ"
      ],
      [
        "ǤƸƺ",
        "ǦƂƨ"
      ],
      [
        "ǤƼƘ",
        "ǥƌƖ"
      ],
      [
        "Ǥƻ",
        "Ƥ"
      ],
      [
        "Ǥ",
        "ƻƤ"
      ],
      [
        "ƀ",
        "Ɣ"
      ],
      [
        "Ǩ",
        "ƯƊ"
      ],
      [
        "ǨƯ",
        "Ɗ"
      ],
      [
        "ǥƹƳ",
        "ǥƏư"
      ],
      [
        "ǩƢƜ",
        "ǨƉƲ"
      ],
      [
        "Ǩƶ",
        "Ƌ"
      ],
      [
        "ǤƺƤ",
        "ǦƵƁ"
      ],
      [
        "ǧƭƖǧƕ",
        "ƥ"
      ],
      [
        "ǧƭƖ",
        "ǧƕƥ"
      ],
      [
        "Ʈ",
        "ƾ"
      ],
      [
        "Ɓ",
        "ƚ"
      ],
      [
        "ƞ",
        "Ɛ"
      ],
      [
        "ǧƌ",
        "ƫ"
      ],
      [
        "ǧ",
        "ƌƫ"
      ],
      [
        "Ǧ",
        "Ʊƽ"
      ],
      [
        "ǦƱ",
        "ƽ"
      ],
      [
        "ƻ",
        "ƶ"
      ],
      [
        "ǥƒ",
        "Ɩǥ"
      ],
      [
        "ǥƻƺ",
        "ǧƭƑ"
      ],
      [
        "ƾ",
        "Ǩ"
      ],
      [
        "ǥ",
        "ưƔ"
      ],
      [
        "ǥư",
        "Ɣ"
      ],
      [
        "ƴ",
        "ǩ"
      ],
      [
        "Ƈ",
        "Ǩ"
      ],
      [
        "ǥƎ",
        "ƅ"
      ],
      [
        "ǥ",
        "Ǝƅ"
      ],
      [
        "ǦƜƉ",
        "ǥƊƩǤƺƎ"
      ],
      [
        "ǩƝ",
        "ƙ"
      ],
      [
        "ǩ",
        "Ɲƙ"
      ],
      [
        "Ǧ",
        "ƙƚ"
      ],
      [
        "Ǧƙ",
        "ƚ"
      ],
      [
        "Ǧ",
        "Ƥ"
      ],
      [
        "e",
        "i"
      ],
      [
        "Ġ",
        "`"
      ],
      [
        "u",
        "i"
      ],
      [
        "Ɖ",
        "ǣ"
      ],
      [
        "ǤƺƆ",
        "ǤƸƀǤƸƪ"
      ],
      [
        "ǤƺƆǤƸƀ",
        "ǤƸƪ"
      ],
      [
        "ǥƟƺ",
        "ǦƜƬ"
      ],
      [
        "Ʋ",
        "Ǥ"
      ],
      [
        "ǨƯ",
        "Ƒ"
      ],
      [
        "Ǩ",
        "ƯƑ"
      ],
      [
        "AI",
        "ǦƊƀǦƜƯ"
      ],
      [
        "Ɨ",
        "Ơ"
      ],
      [
        "Ǧ",
        "Ʋƹ"
      ],
      [
        "ǦƲ",
        "ƹ"
      ],
      [
        "ǥƒƖǥ",
        "ƕơ"
      ],
      [
        "ǥƇƆ",
        "ǥƤƇ"
      ],
      [
        "f",
        "a"
      ],
      [
        "*",
        "ǯ"
      ],
      [
        "Ġ",
        "R"
      ],
      [
        "Ư",
        "ǩ"
      ],
      [
        "Ƹ",
        "Ʃ"
      ],
      [
        "ƀ",
        "ƙ"
      ],
      [
        "Ǝ",
        "ƻ"
      ],
      [
        "Ɠ",
        "Ǩ"
      ],
      [
        "ǨƶƋ",
        "ǥƊƿ"
      ],
      [
        "Ʈ",
        "Ƥ"
      ],
      [
        "ƭ",
        "ǩ"
      ],
      [
        "ǧƿ",
        "ƻ"
      ],
      [
        "ǧ",
        "ƿƻ"
      ],
      [
        "u",
        "p"
      ],
      [
        "g",
        "a"
      ],
      [
        "Ʈ",
        "Ʃ"
      ],
      [
        "ƕ",
        "Ǧ"
      ],
      [
        "ǨƯƷ",
        "ǩƗƮ"
      ],
      [
        "Ǥ",
        "ƸƜ"
      ],
      [
        "ǤƸ",
        "Ɯ"
      ],
      [
        "ǨƁƌ",
        "ǤƸƚ"
      ],
      [
        "4",
        "0"
      ],
      [
        "ǩƇƇ",
        "ǧƔƨ"
      ],
      [
        "Ǩƈ",
        "ƞ"
      ],
      [
        "Ǩ",
        "ƈƞ"
      ],
      [
        "M",
        "O"
      ],
      [
        "ǥƇ",
        "ƻ"
      ],
      [
        "ǥ",
        "Ƈƻ"
      ],
      [
        "ǦƲƟ",
        "ǩƀƚ"
      ],
      [
        "ǧƖ",
        "ƾǧƗƅ"
      ],
      [
        "ǥ",
        "ƌƗ"
      ],
      [
        "ǥƌ",
        "Ɨ"
      ],
      [
        "_",
        "_"
      ],
      [
        "Ǥ",
        "Ƹƴ"
      ],
      [
        "ǤƸ",
        "ƴ"
      ],
      [
        "ǩƔƙ",
        "ǨƯƯ"
      ],
      [
        "Ɵ",
        "ƺ"
      ],
      [
        "Ǧƀ",
        "Ǝ"
      ],
      [
        "Ǧ",
        "ƀƎ"
      ],
      [
        "ǤƸư",
        "ǥƯƌ"
      ],
      [
        "Ʀ",
        "Ǩ"
      ],
      [
        "ƈ",
        "ǩ"
      ],
      [
        "Ƥ",
        "ƺ"
      ],
      [
        "Ƽ",
        "Ǥ"
      ],
      [
        "ǧƁ",
        "Ƶ"
      ],
      [
        "ǧ",
        "ƁƵ"
      ],
      [
        "ǧƨ",
        "Ƴ"
      ],
      [
        "ǧƚƄ",
        "ǧƾƎ"
      ],
      [
        "ǧƚƄǧ",
        "ƾƎ"
      ],
      [
        "1",
        "1"
      ],
      [
        "Ƹ",
        "ƈ"
      ],
      [
        "ǧƾ",
        "Ƥ"
      ],
      [
        "ǨƄ",
        "Ƒ"
      ],
      [
        "Ǩ",
        "ƄƑ"
      ],
      [
        "ǨƿƘ",
        "ǦƘƯ"
      ],
      [
        "C",
        "o"
      ],
      [
        "Ɖ",
        "ǧƅƧ"
      ],
      [
        "Ɖǧ",
        "ƅƧ"
      ],
      [
        "ǩƘ",
        "ƅ"
      ],
      [
        "ǩ",
        "Ƙƅ"
      ],
      [
        "ǥƏƯǤƻƥ",
        "ǥƜƨ"
      ],
      [
        "ǧƚƄ",
        "ǤƿơǦƁƯ"
      ],
      [
        "e",
        "y"
      ],
      [
        "ǧƫ",
        "ƞ"
      ],
      [
        "ǧ",
        "ƫƞ"
      ],
      [
        "ƛ",
        "ǩ"
      ],
      [
        "b",
        "r"
      ],
      [
        "m",
        "m"
      ],
      [
        "ǧƱ",
        "Ƴ"
      ],
      [
        "ǧ",
        "ƱƳ"
      ],
      [
        "ǧƉƹ",
        "ǧƂƹ"
      ],
      [
        "Ɗ",
        "ƶ"
      ],
      [
        "Ǧ",
        "ƗƏ"
      ],
      [
        "ǦƗ",
        "Ə"
      ],
      [
        "f",
        "f"
      ],
      [
        "Ƥ",
        "ƪ"
      ],
      [
        "6",
        "0"
      ],
      [
        "p",
        "y"
      ],
      [
        "Ư",
        "Ƒ"
      ],
      [
        "Ƶ",
        "Ǥ"
      ],
      [
        "Ơ",
        "Ʒ"
      ],
      [
        "Ƶ",
        "Ǩ"
      ],
      [
        "ǩƃƽ",
        "ǦƜƉ"
      ],
      [
        "ǤƸƀ",
        "Ǥƻƽ"
      ],
      [
        "ǧƻƙ",
        "ǥƇƺ"
      ],
      [
        "Ǩ",
        "ƙƽ"
      ],
      [
        "Ǩƙ",
        "ƽ"
      ],
      [
        "Ƈ",
        "Ɔ"
      ],
      [
        "Ɛ",
        "Ƭ"
      ],
      [
        "ǨƽƯ",
        "Ǥƻƶ"
      ],
      [
        "ǦƀƝ",
        "Ǩƀƃ"
      ],
      [
        "ǦƳƕ",
        "ǥƾƋ"
      ],
      [
        "ǥưƏ",
        "ǨƯƴ"
      ],
      [
        "ǩ",
        "ƪƤ"
      ],
      [
        "ǩƪ",
        "Ƥ"
      ],
      [
        "ǥƽ",
        "Ʃ"
      ],
      [
        "ǥ",
        "ƽƩ"
      ],
      [
        "ǧƉ",
        "ƛ"
      ],
      [
        "ǧ",
        "Ɖƛ"
      ],
      [
        "ǦƸ",
        "Ɛ"
      ],
      [
        "Ġ",
        "L"
      ],
      [
        "Ǧ",
        "ƭƢ"
      ],
      [
        "Ǧƭ",
        "Ƣ"
      ],
      [
        "Ƣ",
        "Ƅ"
      ],
      [
        "ǤƻƥǤƸƋǦƘƯ",
        "ǤƸƀǤƺƛ"
      ],
      [
        "ǥ",
        "ƣư"
      ],
      [
        "ǥƣ",
        "ư"
      ],
      [
        "ǩ",
        "ƚƐ"
      ],
      [
        "ǩƚ",
        "Ɛ"
      ],
      [
        "ƙ",
        "Ƥ"
      ],
      [
        "ǧƉƩ",
        "Ǩƴƨ"
      ],
      [
        "ǦƷ",
        "ƻ"
      ],
      [
        "ǩƗ",
        "ƻ"
      ],
      [
        "ǩ",
        "Ɨƻ"
      ],
      [
        "ǤƸƍ",
        "ǤƼƚ"
      ],
      [
        "ƕ",
        "ǧ"
      ],
      [
        "ǥƿƫ",
        "ǩƀƟ"
      ],
      [
        "ǥƟƺ",
        "ǧơ"
      ],
      [
        ")",
        "."
      ],
      [
        "ǥƮ",
        "Ɲ"
      ],
      [
        "ǥƐƸ",
        "ǥƼƕ"
      ],
      [
        "Ǧƕ",
        "ƣ"
      ],
      [
        "Ǧ",
        "ƕƣ"
      ],
      [
        "ǧƴ",
        "Ƨ"
      ],
      [
        "ǧ",
        "ƴƧ"
      ],
      [
        "Ɠƍ",
        "ǤƽƜ"
      ],
      [
        "I",
        "n"
      ],
      [
        "Ǧƭƥ",
        "ǩƪƤ"
      ],
      [
        "Ǥƻƣ",
        "Ǩơƨ"
      ],
      [
        "Ǥƽƿ",
        "ǥƾƗ"
      ],
      [
        "ǩƀƠ",
        "ǦƈƐ"
      ],
      [
        "Ǧ",
        "ƒ"
      ],
      [
        "Ƹ",
        "Ɩ"
      ],
      [
        "ǥƅƅ",
        "Ǧ"
      ],
      [
        "ǥƅ",
        "ƅǦ"
      ],
      [
        "ǥ",
        "ƍư"
      ],
      [
        "ǥƍ",
        "ư"
      ],
      [
        "ǥƮƞ",
        "ǩƙƅ"
      ],
      [
        "ǤƸƉ",
        "ǤƸƪ"
      ],
      [
        "ǥƤƚ",
        "ǧƧƍ"
      ],
      [
        "ƈ",
        "Ǩ"
      ],
      [
        "r",
        "c"
      ],
      [
        "Ɩ",
        "Ư"
      ],
      [
        "ǥƅƱ",
        "ǥƐƌ"
      ],
      [
        "Ǩơƌ",
        "ǥƊƨ"
      ],
      [
        "Ʋ",
        "Ǧ"
      ],
      [
        "Ǩ",
        "ơƣ"
      ],
      [
        "Ǩơ",
        "ƣ"
      ],
      [
        "Ư",
        "ƕ"
      ],
      [
        "ǧƋƬ",
        "ǧƉƹ"
      ],
      [
        "ǥƜƺ",
        "ǦƙƯ"
      ],
      [
        "ǦƗ",
        "Ʃ"
      ],
      [
        "Ǧ",
        "ƗƩ"
      ],
      [
        "ǦƃƳ",
        "ǨƦƁ"
      ],
      [
        "A",
        "n"
      ],
      [
        "Ə",
        "Ɯ"
      ],
      [
        "Ǥ",
        "ƺƚ"
      ],
      [
        "Ǥƺ",
        "ƚ"
      ],
      [
        "ǨƧƒ",
        "ǨƉƲ"
      ],
      [
        "Ǡ",
        "Ƹ"
      ],
      [
        "ǦƷƱ",
        "ǥƺƦ"
      ],
      [
        "ǦƈƑ",
        "ǤƼƚ"
      ],
      [
        "ǥƟ",
        "ƹ"
      ],
      [
        "ǥ",
        "Ɵƹ"
      ],
      [
        "ǥƁƚ",
        "ǥƇƺ"
      ],
      [
        "ǥ",
        "Ɣ"
      ],
      [
        "ƺ",
        "Ə"
      ],
      [
        "Ǩƙƽ",
        "ǧƄƶ"
      ],
      [
        "ǤƸƀ",
        "Ǧƭƥ"
      ],
      [
        "ǩƲ",
        "Ɯ"
      ],
      [
        "ǩ",
        "ƲƜ"
      ],
      [
        "Ə",
        "ǩ"
      ],
      [
        "Ʃ",
        "Ǩ"
      ],
      [
        "ǥƸƸ",
        "ǨƧƁ"
      ],
      [
        "Ǩ",
        "ƈƒ"
      ],
      [
        "Ǩƈ",
        "ƒ"
      ],
      [
        "Ǧ",
        "ƴƁ"
      ],
      [
        "Ǧƴ",
        "Ɓ"
      ],
      [
        "Ġ",
        "Ǣ"
      ],
      [
        "ǦƜƉ",
        "Ǩƶƣ"
      ],
      [
        "m",
        "s"
      ],
      [
        "ǥƟƺǧơ",
        "ƀ"
      ],
      [
        "ǩƣƟ",
        "ǥƓƁ"
      ],
      [
        "Ǥƽ",
        "Ə"
      ],
      [
        "Ǥ",
        "ƽƏ"
      ],
      [
        "ǥƏƂ",
        "ǤƸƎ"
      ],
      [
        "ƿ",
        "Ɛ"
      ],
      [
        "ǦƄƏ",
        "ǤƹƉ"
      ],
      [
        "ǥƏƯǤƻƥ",
        "ǨƮƩ"
      ],
      [
        "Ǩƿƙ",
        "ǧƯƇ"
      ],
      [
        "ǥưƱ",
        "ǦƘƯ"
      ],
      [
        "ƙ",
        "ǩ"
      ],
      [
        "ǧ",
        "ƃƤ"
      ],
      [
        "ǧƃ",
        "Ƥ"
      ],
      [
        "Ǩƀƅ",
        "ǧƚƄ"
      ],
      [
        "1",
        "6"
      ],
      [
        "ǥƊƪ",
        "ǥƊƛ"
      ],
      [
        "Ƨ",
        "Ɓ"
      ],
      [
        "r",
        "k"
      ],
      [
        "ǥƛƞ",
        "ǧƭƔ"
      ],
      [
        "Ƶ",
        "Ɓ"
      ],
      [
        "Ʒ",
        "Ǩ"
      ],
      [
        "ǥƊƠ",
        "ǥƼƺ"
      ],
      [
        "ǩ",
        "ƢƝ"
      ],
      [
        "ǩƢ",
        "Ɲ"
      ],
      [
        "Ƃ",
        "Ʋ"
      ],
      [
        "A",
        "l"
      ],
      [
        "Ǧƛƴ",
        "ǥƥƽǧƚƄ"
      ],
      [
        "Ǧƛƴǥƥƽ",
        "ǧƚƄ"
      ],
      [
        "ǦƘƯ",
        "ǦƌƇ"
      ],
      [
        "ǦƈƑ",
        "ǥƏƯǤƻƥ"
      ],
      [
        "ƻ",
        "Ʒ"
      ],
      [
        "Ǧưƴ",
        "ǥƹƳ"
      ],
      [
        "ǧƩ",
        "ƿ"
      ],
      [
        "ǧ",
        "Ʃƿ"
      ],
      [
        "ƕ",
        "ƴ"
      ],
      [
        "Ǧ",
        "ƳƢ"
      ],
      [
        "ǦƳ",
        "Ƣ"
      ],
      [
        "y",
        "s"
      ],
      [
        "ǧƚƄ",
        "ǦƖƇǧƫƠ"
      ],
      [
        "g",
        "o"
      ],
      [
        "ǧ",
        "ƻƪ"
      ],
      [
        "ǧƻ",
        "ƪ"
      ],
      [
        "ǥƽƢ",
        "ǥƼƏ"
      ],
      [
        "ǧƦ",
        "Ə"
      ],
      [
        "ǧ",
        "ƦƏ"
      ],
      [
        "Ə",
        "Ʀ"
      ],
      [
        "Ʈ",
        "ƌ"
      ],
      [
        "Ƃ",
        "-"
      ],
      [
        "ƣ",
        "ƫ"
      ],
      [
        "ǥ",
        "ƥƶ"
      ],
      [
        "ǥƥ",
        "ƶ"
      ],
      [
        "ǤƺƋ",
        "Ǥƻƶ"
      ],
      [
        "Ǥƿƃ",
        "Ǩƿƛ"
      ],
      [
        "Ơ",
        "ǩ"
      ],
      [
        "Ƶ",
        "Ǧ"
      ],
      [
        "Ǥƻƥ",
        "ǤƸƊ"
      ],
      [
        "ǥƹƳ",
        "Ǩơơ"
      ],
      [
        "ƒ",
        "Ǧ"
      ],
      [
        "ǥ",
        "ƉƧ"
      ],
      [
        "ǥƉ",
        "Ƨ"
      ],
      [
        "ǧƻƃ",
        "ǤƹƠ"
      ],
      [
        "ǩ",
        "ƢƑ"
      ],
      [
        "ǩƢ",
        "Ƒ"
      ],
      [
        "k",
        "i"
      ],
      [
        "Ǧ",
        "Ɠ"
      ],
      [
        "ǦƱƽ",
        "ǨƽƦ"
      ],
      [
        "ǤƺƺǧƱƻǧ",
        "ƚƄ"
      ],
      [
        "ǤƺƺǧƱƻ",
        "ǧƚƄ"
      ],
      [
        "Ġ",
        "9"
      ],
      [
        "i",
        "b"
      ],
      [
        "Ǧ",
        "ƉƧ"
      ],
      [
        "ǦƉ",
        "Ƨ"
      ],
      [
        "ǨƿƇǧƨƋ",
        "ǤƸƭ"
      ],
      [
        "ǥƜư",
        "ǥƌƺ"
      ],
      [
        "Ƙ",
        "Ǥ"
      ],
      [
        "ǩơ",
        "ƻ"
      ],
      [
        "p",
        "h"
      ],
      [
        "Ġ",
        "'"
      ],
      [
        "ǨƯ",
        "Ʀ"
      ],
      [
        "Ǩ",
        "ƯƦ"
      ],
      [
        "Ɣ",
        "ƙ"
      ],
      [
        "ǥƮƃǤƻƬ",
        "ǧƚƄ"
      ],
      [
        "ǥƅƅ",
        "Ǧƻơ"
      ],
      [
        "ǥƅƅǦ",
        "ƻơ"
      ],
      [
        "ǥƏ",
        "ƈ"
      ],
      [
        "ǦƈƐ",
        "ǥƑƘ"
      ],
      [
        "ǥƏ",
        "ƶ"
      ],
      [
        "ǥ",
        "Əƶ"
      ],
      [
        "ƃ",
        "ǥƜ"
      ],
      [
        "ƃǥ",
        "Ɯ"
      ],
      [
        "ǥ",
        "ƍơ"
      ],
      [
        "ǥƍ",
        "ơ"
      ],
      [
        "Ǩ",
        "ƿƽ"
      ],
      [
        "Ǩƿ",
        "ƽ"
      ],
      [
        "ǧƕ",
        "ƙ"
      ],
      [
        "ǧ",
        "ƕƙ"
      ],
      [
        "ƒ",
        "Ɵ"
      ],
      [
        "Ǩƿ",
        "Ǝ"
      ],
      [
        "Ǩ",
        "ƿƎ"
      ],
      [
        "Ǧ",
        "ƴƋ"
      ],
      [
        "Ǧƴ",
        "Ƌ"
      ],
      [
        "ƀ",
        "ǦƟƥ"
      ],
      [
        "ƀǦ",
        "Ɵƥ"
      ],
      [
        "ǥ",
        "ƏƦ"
      ],
      [
        "ǥƏ",
        "Ʀ"
      ],
      [
        "i",
        "k"
      ],
      [
        "ǥƏƯ",
        "ǦƌƁǧƻƭ"
      ],
      [
        "Ə",
        "Ɨ"
      ],
      [
        "ǥƤƚ",
        "ǤƸƪ"
      ],
      [
        "Ư",
        "Ɨ"
      ],
      [
        "ǥƽƢ",
        "ǦƈƐ"
      ],
      [
        "ǩ",
        "Ƹơ"
      ],
      [
        "ǩƸ",
        "ơ"
      ],
      [
        "Ǧƿ",
        "ƀ"
      ],
      [
        "Ǧ",
        "ƿƀ"
      ],
      [
        "ƽ",
        "ƻ"
      ],
      [
        "ǦƠ",
        "Ƹ"
      ],
      [
        "ǤƸƀ",
        "Ǥƽƍ"
      ],
      [
        "Ǧ",
        "ưƧ"
      ],
      [
        "Ǧư",
        "Ƨ"
      ],
      [
        "ǨƧƉ",
        "ǥƾƗ"
      ],
      [
        "ǨƯ",
        "ƾ"
      ],
      [
        "Ǥƻƥ",
        "ǧơƮǤƿƝ"
      ],
      [
        "Ʊ",
        "ơ"
      ],
      [
        "ǥ",
        "ƤƜ"
      ],
      [
        "ǥƤ",
        "Ɯ"
      ],
      [
        "u",
        "b"
      ],
      [
        "u",
        "d"
      ],
      [
        "ǩ",
        "ƺ"
      ],
      [
        "ƭ",
        "ƌ"
      ],
      [
        "ƫ",
        "Ƌ"
      ],
      [
        "Ə",
        "ƍ"
      ],
      [
        "Ƹ",
        "ƽ"
      ],
      [
        "ǨƯƊ",
        "ǦƖƭ"
      ],
      [
        "ǧƚ",
        "Ʈ"
      ],
      [
        "ǧ",
        "ƚƮ"
      ],
      [
        "Ƌ",
        "Ɨ"
      ],
      [
        "ǥƑƊǨƯƉ",
        "ǦƈƑ"
      ],
      [
        "ǧƭƉ",
        "ǦƖƹǩƝƢ"
      ],
      [
        "ƶǦ",
        "ƀƁ"
      ],
      [
        "ƶ",
        "ǦƀƁ"
      ],
      [
        "2",
        "1"
      ],
      [
        "Ġ",
        "ǃ"
      ],
      [
        "ƚ",
        "`"
      ],
      [
        "Ơ",
        "Ɓ"
      ],
      [
        "Ʈ",
        "ƺ"
      ],
      [
        "Ƈ",
        "Ơ"
      ],
      [
        "Ʋ",
        "ƹ"
      ],
      [
        "ƻ",
        "Ɔ"
      ],
      [
        "Ǥƽƍ",
        "ǧƽƮ"
      ],
      [
        "o",
        "x"
      ],
      [
        "Ƃ",
        "Ƽ"
      ],
      [
        "ƃǥƜ",
        "ƾ"
      ],
      [
        "ƃǥ",
        "Ɯƾ"
      ],
      [
        "Ɔ",
        "Ƶ"
      ],
      [
        "ǤƽƠ",
        "Ǩƃƽ"
      ],
      [
        "8",
        "0"
      ],
      [
        "ǥƎƋ",
        "ǥƊƛ"
      ],
      [
        "Ƒ",
        "Ɗ"
      ],
      [
        "ǤƸƀ",
        "ǧƛƴ"
      ],
      [
        "ǦƜƪǦƝƥ",
        "ǧƚƄ"
      ],
      [
        "ǦƜƪ",
        "ǦƝƥǧƚƄ"
      ],
      [
        "ǤƸ",
        "ƾ"
      ],
      [
        "Ǥ",
        "Ƹƾ"
      ],
      [
        "ǥư",
        "Ƅ"
      ],
      [
        "ǥƏƂ",
        "ǥƊƠ"
      ],
      [
        "Ǧƕư",
        "ǥƭƦ"
      ],
      [
        "ǥ",
        "Ɲƚ"
      ],
      [
        "ǥƝ",
        "ƚ"
      ],
      [
        "ƻ",
        "Ɵ"
      ],
      [
        "ǩƀƂ",
        "ǥƺƔ"
      ],
      [
        "Ƽ",
        "Ƙ"
      ],
      [
        "n",
        "y"
      ],
      [
        "ǥƐƌǦƗƶ",
        "ǤƹƟ"
      ],
      [
        "M",
        "a"
      ],
      [
        "ǦƘƯ",
        "ǥƜƨ"
      ],
      [
        "ǥƭƗ",
        "ǧƬƦ"
      ],
      [
        "ǦƌƉ",
        "ǧƅƧ"
      ],
      [
        "Ǧƌ",
        "ƉǧƅƧ"
      ],
      [
        "Ǧƕƴ",
        "ǤƸƪ"
      ],
      [
        "ƥ",
        "ƞ"
      ],
      [
        "ǦƎ",
        "ƌ"
      ],
      [
        "ǥƈƛ",
        "ǤƽƜ"
      ],
      [
        "f",
        "t"
      ],
      [
        "ǧ",
        "Ƨƻ"
      ],
      [
        "ǧƧ",
        "ƻ"
      ],
      [
        "ǥƮƹ",
        "ǦƘƓ"
      ],
      [
        "Ƒ",
        "Ƅ"
      ],
      [
        "Ǧ",
        "Ɲƿ"
      ],
      [
        "ǦƝ",
        "ƿ"
      ],
      [
        "Ƃ",
        "Ɖ"
      ],
      [
        "ǧ",
        "Ɠ"
      ],
      [
        "Ə",
        "Ƌ"
      ],
      [
        "ǥƈƆ",
        "Ǥƺƫ"
      ],
      [
        "ǥ",
        "ƐƧ"
      ],
      [
        "ǥƐ",
        "Ƨ"
      ],
      [
        "ƅ",
        "Ɖ"
      ],
      [
        "Ƣ",
        "ƞ"
      ],
      [
        "ǦƯƏǤƸƪ",
        "Ǥƺƺ"
      ],
      [
        "ǦƯƏ",
        "ǤƸƪǤƺƺ"
      ],
      [
        "Ǥƻ",
        "ƍ"
      ],
      [
        "Ǥ",
        "ƻƍ"
      ],
      [
        "Ƌ",
        "Ʃ"
      ],
      [
        "Ǥ",
        "ƺƲ"
      ],
      [
        "Ǥƺ",
        "Ʋ"
      ],
      [
        "ǦƋ",
        "ƅ"
      ],
      [
        "x",
        "p"
      ],
      [
        "ǥư",
        "Ɗ"
      ],
      [
        "ǥ",
        "ưƊ"
      ],
      [
        "ǦƖƹ",
        "ǥƐƑ"
      ],
      [
        "ǥƿƅ",
        "ǩơƻ"
      ],
      [
        "Ǩ",
        "ƌƃ"
      ],
      [
        "Ǩƌ",
        "ƃ"
      ],
      [
        "Ǧƃƅ",
        "ǧƻƪ"
      ],
      [
        "Ʈ",
        "ƀ"
      ],
      [
        "ƃ",
        "ƨ"
      ],
      [
        "ǤƼ",
        "Ƥ"
      ],
      [
        "Ġ",
        "["
      ],
      [
        "o",
        "i"
      ],
      [
        "ƀ",
        "ƃ"
      ],
      [
        "Ġ",
        "G"
      ],
      [
        "ǧƾƎ",
        "ǥƛƽ"
      ],
      [
        "ǥƑ",
        "Ƽ"
      ],
      [
        "ǥ",
        "ƑƼ"
      ],
      [
        "ǦƄƟ",
        "ǨƧƉ"
      ],
      [
        "ǦƤƍ",
        "ǧƉƩ"
      ],
      [
        "Ǧ",
        "ƤƍǧƉƩ"
      ],
      [
        "Ƹ",
        "ƅ"
      ],
      [
        "ǤƸƍ",
        "ǨƦƁ"
      ],
      [
        "Ǝ",
        "ƥ"
      ],
      [
        "Ǧ",
        "ƃƯ"
      ],
      [
        "Ǧƃ",
        "Ư"
      ],
      [
        "ǩƘƅ",
        "ǨƯƻ"
      ],
      [
        "ǩƤƐ",
        "ǥƎƅ"
      ],
      [
        "ǦƄƏ",
        "ǨƯƆ"
      ],
      [
        "ƚ",
        "-"
      ],
      [
        "Ǧ",
        "Ƅƿ"
      ],
      [
        "ǦƄ",
        "ƿ"
      ],
      [
        "ǦƏƐǤƾƛ",
        "ǤƺƆ"
      ],
      [
        "ǧƜƋ",
        "ǥƈư"
      ],
      [
        "ǨƁƔ",
        "ǧƳƻ"
      ],
      [
        "Ƹ",
        "Ǩ"
      ],
      [
        "ǥƎƟǥ",
        "ƛƠ"
      ],
      [
        "ǥƎƟ",
        "ǥƛƠ"
      ],
      [
        "ǥƽ",
        "ƒ"
      ],
      [
        "ǥ",
        "ƽƒ"
      ],
      [
        "ǧƧ",
        "Ƙ"
      ],
      [
        "Ɲ",
        "Ɨ"
      ],
      [
        "y",
        "e"
      ],
      [
        "ǧƿƻ",
        "ǨƯƑ"
      ],
      [
        "ǦƯƔ",
        "ǨƵƛ"
      ],
      [
        "Ǥ",
        "ƻƘ"
      ],
      [
        "Ǥƻ",
        "Ƙ"
      ],
      [
        "Ɵ",
        "ƭ"
      ],
      [
        "Ə",
        "ƪ"
      ],
      [
        "ǨƯƦ",
        "ǧƻƆ"
      ],
      [
        "ǥƝ",
        "Ɨ"
      ],
      [
        "ǥ",
        "ƝƗ"
      ],
      [
        "r",
        "l"
      ],
      [
        "Ġ",
        "q"
      ],
      [
        "a",
        "u"
      ],
      [
        "Ɨ",
        "ǩ"
      ],
      [
        "Ƶ",
        "Ƌ"
      ],
      [
        "Ʋ",
        "Ɓ"
      ],
      [
        "ǥ",
        "Ʒƴ"
      ],
      [
        "ǥƷ",
        "ƴ"
      ],
      [
        "ǧ",
        "ƥƨ"
      ],
      [
        "ǧƥ",
        "ƨ"
      ],
      [
        "Ǥƾ",
        "Ɲ"
      ],
      [
        "Ʋ",
        "ƾ"
      ],
      [
        "ƣ",
        "ǩ"
      ],
      [
        "Ġ",
        "O"
      ],
      [
        "Ɣ",
        "ƹ"
      ],
      [
        "ƍ",
        "Ƴ"
      ],
      [
        "ƽ",
        "Ʈ"
      ],
      [
        "ǥƺ",
        "Ɠ"
      ],
      [
        "Ƈ",
        "Ƴ"
      ],
      [
        "ǩ",
        "ƼƓ"
      ],
      [
        "ǩƼ",
        "Ɠ"
      ],
      [
        "ǩƚ",
        "Ɯ"
      ],
      [
        "ǦƝơ",
        "Ǥƻƶ"
      ],
      [
        "ƣ",
        "ư"
      ],
      [
        "ǥƈƛ",
        "ǥƻƺ"
      ],
      [
        "ǩƀƟ",
        "ǥƺƦ"
      ],
      [
        "ƕ",
        "ƅ"
      ],
      [
        "ǨƑƗ",
        "ǥƐƍ"
      ],
      [
        "ǩƒ",
        "ƈ"
      ],
      [
        "ǥƏƯǤƻƥ",
        "ǤƽƿǧƔƨ"
      ],
      [
        "ǩƚƏ",
        "ǧƝƀ"
      ],
      [
        "ǩƩ",
        "ƶ"
      ],
      [
        "ǩ",
        "Ʃƶ"
      ],
      [
        "Ǥƺ",
        "Ʈ"
      ],
      [
        "ǦƉƋ",
        "ǦƜƺ"
      ],
      [
        "ǧƼ",
        "Ɠ"
      ],
      [
        "ǧ",
        "ƼƓ"
      ],
      [
        "Ġ",
        "N"
      ],
      [
        "ǥƏƍ",
        "ǥƺƔ"
      ],
      [
        "ƌ",
        "ƫ"
      ],
      [
        "Ǥƺƺ",
        "ǥƑƘ"
      ],
      [
        "ǥƞ",
        "ƃǥƜƾ"
      ],
      [
        "ǨƯƭ",
        "ǩƟƳ"
      ],
      [
        "ƞ",
        "Ǧ"
      ],
      [
        "ǦƲ",
        "ƻ"
      ],
      [
        "Ǧ",
        "Ʋƻ"
      ],
      [
        "ǧ",
        "Ơƴ"
      ],
      [
        "ǧƠ",
        "ƴ"
      ],
      [
        "ǥƁ",
        "Ə"
      ],
      [
        "ǦƗƶ",
        "ǥƀƙ"
      ],
      [
        "Ǧ",
        "ƦƂ"
      ],
      [
        "ǦƦ",
        "Ƃ"
      ],
      [
        "ǧƉƹ",
        "ǥƈƫ"
      ],
      [
        "Ǥƽ",
        "Ƴ"
      ],
      [
        "ǩ",
        "ƛƨ"
      ],
      [
        "ǩƛ",
        "ƨ"
      ],
      [
        "ǩƀƂ",
        "ǧƚƄ"
      ],
      [
        "ǩƀ",
        "ƂǧƚƄ"
      ],
      [
        "ơ",
        "Ǥ"
      ],
      [
        "Ɖ",
        "ƾ"
      ],
      [
        "Ƙ",
        "Ƴ"
      ],
      [
        "ǥƺƔ",
        "ǥƯƹ"
      ],
      [
        "Ǥƺ",
        "Ƒ"
      ],
      [
        "Ǥ",
        "ƺƑ"
      ],
      [
        "Ǩƿƙ",
        "ǩƇƌ"
      ],
      [
        "Ƌ",
        "ƹ"
      ],
      [
        "Ǥƺƫ",
        "ǥƏƗ"
      ],
      [
        "Ɲ",
        "Ɛ"
      ],
      [
        "ǥ",
        "Ɔư"
      ],
      [
        "ǥƆ",
        "ư"
      ],
      [
        "e",
        "w"
      ],
      [
        "ƹ",
        "Ɓ"
      ],
      [
        "Ʋ",
        "ơ"
      ],
      [
        "ǦƜƀ",
        "ǧƻƈ"
      ],
      [
        "Ʃ",
        "ƶ"
      ],
      [
        "Ƨ",
        "Ư"
      ],
      [
        "ǨƇƪǧƄƶ",
        "ǨƯƭǨƨƀ"
      ],
      [
        "ǦƉ",
        "ƿ"
      ],
      [
        "ǩƫƘ",
        "ǧƚƄ"
      ],
      [
        "ǤƸƀ",
        "ǦƮƵ"
      ],
      [
        "ƫ",
        "Ǩ"
      ],
      [
        "ǧƤƾǤƺƤ",
        "ǥƪƒǤƽƓ"
      ],
      [
        "ǨƮƨ",
        "ǨƮƺ"
      ],
      [
        "ǦƷƻ",
        "ǥƊƠ"
      ],
      [
        "ǤƸƀ",
        "ǦƬơ"
      ],
      [
        "ư",
        "ƃ"
      ],
      [
        "ǩƚƐ",
        "ǧƧƁ"
      ],
      [
        "ǥƿ",
        "Ɨ"
      ],
      [
        "Ɖ",
        "ǥƏƊ"
      ],
      [
        "Ɖǥ",
        "ƏƊ"
      ],
      [
        "ǦƔƾ",
        "ǦƝƾ"
      ],
      [
        "ǤƺƋ",
        "Ǧƃƅ"
      ],
      [
        "Ɨ",
        "Ə"
      ],
      [
        "ǤƹƠ",
        "ǦƃƯ"
      ],
      [
        "Ǧƭ",
        "Ƨ"
      ],
      [
        ".",
        "\""
      ],
      [
        "ǩƓ",
        "ƾ"
      ],
      [
        "ǩ",
        "Ɠƾ"
      ],
      [
        "ƻ",
        "Ɗ"
      ],
      [
        "ǦƏ",
        "ơ"
      ],
      [
        "ƥ",
        "ƿ"
      ],
      [
        "ǧƼƖ",
        "ǧƨƋ"
      ],
      [
        "W",
        "h"
      ],
      [
        "ǥƺƔǧƔƨ",
        "ǧƨƋǥƺƏ"
      ],
      [
        "ǦƵƋ",
        "ǨƯƕ"
      ],
      [
        "ǦƠ",
        "ơ"
      ],
      [
        "Ǧ",
        "Ơơ"
      ],
      [
        "Ǩ",
        "ƙƚ"
      ],
      [
        "Ǩƙ",
        "ƚ"
      ],
      [
        "ǥƤƩ",
        "ǧƚƄ"
      ],
      [
        "Ǩƃƌ",
        "ǦƙƯ"
      ],
      [
        "Ǧƴ",
        "Ʋ"
      ],
      [
        "1",
        "4"
      ],
      [
        "Ǩư",
        "Ƣ"
      ],
      [
        "Ǩ",
        "ưƢ"
      ],
      [
        "ǨƇƪ",
        "ǦƈƑ"
      ],
      [
        "ǩƝƢ",
        "ǧƚƄ"
      ],
      [
        "ǩƻ",
        "Ƅ"
      ],
      [
        "ǩ",
        "ƻƄ"
      ],
      [
        "Ƥ",
        "Ə"
      ],
      [
        "Ʀ",
        "ǩ"
      ],
      [
        "ƪ",
        "ƌ"
      ],
      [
        "Ƈ",
        "ǩ"
      ],
      [
        "ǩ",
        "ƦƆ"
      ],
      [
        "ǩƦ",
        "Ɔ"
      ],
      [
        "ǨƂ",
        "ơ"
      ],
      [
        "ǦƃƳ",
        "ǦƳƕ"
      ],
      [
        "ǧƚƄ",
        "ǦƕưǦƍƮ"
      ],
      [
        "ǦƔƹ",
        "ǥƖƄ"
      ],
      [
        "d",
        "d"
      ],
      [
        "ƭ",
        "Ǥ"
      ],
      [
        "ǦƜƉ",
        "Ǥƺƛ"
      ],
      [
        "ǧƻƄ",
        "ǦƈƐ"
      ],
      [
        "ǦƖƇǧƫƠ",
        "ǤƸƭ"
      ],
      [
        "ǧƻ",
        "Ƨ"
      ],
      [
        "Ǝ",
        "ƒ"
      ],
      [
        "ǦƜƉ",
        "ǤƻƀǤƹƈ"
      ],
      [
        "ǦƷƱ",
        "ǥƅƥ"
      ],
      [
        "Ǩ",
        "ƾƑ"
      ],
      [
        "Ǩƾ",
        "Ƒ"
      ],
      [
        "ǥƮ",
        "Ƈ"
      ],
      [
        "Ǝ",
        "Ɵ"
      ],
      [
        "ǥƷ",
        "ƨ"
      ],
      [
        "ơ",
        "ƹ"
      ],
      [
        "ƽ",
        "ǩ"
      ],
      [
        "J",
        "a"
      ],
      [
        "ǨƾƓ",
        "ǥƇƺ"
      ],
      [
        "ƛ",
        "ƾ"
      ],
      [
        "ǦƟƐ",
        "Ǥƺƛ"
      ],
      [
        "ǩƙ",
        "Ƣ"
      ],
      [
        "ǦƔƹ",
        "Ǩƿƛ"
      ],
      [
        "ǧƚƄ",
        "ǥƻƺǨƮƮ"
      ],
      [
        "ǨƇƪ",
        "ǧƔƱ"
      ],
      [
        "2",
        "2"
      ],
      [
        "ǧƚƄ",
        "ǧƠ"
      ],
      [
        "ǧƚƄǧ",
        "Ơ"
      ],
      [
        "Ɗ",
        "ǧ"
      ],
      [
        "Ɓ",
        "ǩ"
      ],
      [
        "ǥ",
        "ƃ"
      ],
      [
        "ǩƀƂ",
        "ǥƽƓ"
      ],
      [
        "*",
        ":"
      ],
      [
        "Ƌ",
        "ǣ"
      ],
      [
        "Ʋ",
        "ƻ"
      ],
      [
        "ǧƚƄ",
        "ǦƗƶǩƗƴ"
      ],
      [
        "ƿ",
        "Ǩ"
      ],
      [
        "ƌ",
        "Ʈ"
      ],
      [
        "th",
        "on"
      ],
      [
        ")",
        ":"
      ],
      [
        "ƚ",
        "Ɩ"
      ],
      [
        "Ġ",
        "j"
      ],
      [
        "ǦƔƿ",
        "ǧƭƖ"
      ],
      [
        "H",
        "e"
      ],
      [
        "ǥƛƾ",
        "ǥ"
      ],
      [
        "ǥƛ",
        "ƾǥ"
      ],
      [
        "ǥ",
        "ƺƧ"
      ],
      [
        "ǥƺ",
        "Ƨ"
      ],
      [
        "ǤƸƪ",
        "ǦƀƧ"
      ],
      [
        "ǥ",
        "ƆƜ"
      ],
      [
        "ǥƆ",
        "Ɯ"
      ],
      [
        "ǧƫ",
        "Ư"
      ],
      [
        "ǦƈƐ",
        "ǦƜƬ"
      ],
      [
        "ǥƆƙ",
        "ǤƸƀǧƯƇ"
      ],
      [
        "ƽ",
        "Ʀ"
      ],
      [
        "ǦƄƟ",
        "ǥƏƗ"
      ],
      [
        "ƿ",
        "ƫ"
      ],
      [
        "ǧƻƏ",
        "ǥƎƆ"
      ],
      [
        "ǥưƆ",
        "ǥƅƶ"
      ],
      [
        "ǨƮư",
        "ǥƽƕ"
      ],
      [
        "ǥƛƾ",
        "ǥƃƏ"
      ],
      [
        "ǥƛƾǥ",
        "ƃƏ"
      ],
      [
        "r",
        "g"
      ],
      [
        "ƛ",
        "Ƌ"
      ],
      [
        "ǧƫƞ",
        "ǤƺƉ"
      ],
      [
        "Ǥ",
        "ƸƲ"
      ],
      [
        "ǤƸ",
        "Ʋ"
      ],
      [
        "Ư",
        "ƌ"
      ],
      [
        "ǦƘ",
        "ƥ"
      ],
      [
        "Ǧ",
        "Ƙƥ"
      ],
      [
        "ǩƫƘ",
        "Ǧƕƈ"
      ],
      [
        "ƚ",
        "ǩ"
      ],
      [
        "ǥƆƳ",
        "ǥƮƚ"
      ],
      [
        "Ɠ",
        "ǩ"
      ],
      [
        "ǧƽƑ",
        "ǧƫƙ"
      ],
      [
        "ǧƾƎ",
        "ǤƸƽ"
      ],
      [
        "Ƴ",
        "ư"
      ],
      [
        "Ġ",
        "Ǡ"
      ],
      [
        "Ǧƴ",
        "ƞ"
      ],
      [
        "Ƃ",
        "\""
      ],
      [
        "Ǧƛ",
        "ƿ"
      ],
      [
        "p",
        "s"
      ],
      [
        "ǤƸƀ",
        "ǥƮƚ"
      ],
      [
        "ǦƠƇ",
        "ǥƇƆ"
      ],
      [
        "ƕ",
        "ƌ"
      ],
      [
        "ǥƈ",
        "Ɲ"
      ],
      [
        "ǥ",
        "ƈƝ"
      ],
      [
        "ǦƉƧ",
        "Ǩơƌ"
      ],
      [
        "ǤƸƭ",
        "ǥƿƃ"
      ],
      [
        "ǩƙƍ",
        "ǤƽƎ"
      ],
      [
        "ǦưƔǥƀƙ",
        "ǥƏƘǥƌƖ"
      ],
      [
        "ǥƢƞ",
        "ǥƼƺ"
      ],
      [
        "ǨƁ",
        "Ɗ"
      ],
      [
        "Ǩ",
        "ƁƊ"
      ],
      [
        "ǦƷ",
        "Ʒ"
      ],
      [
        "Ǩƀƌ",
        "ǤƸƔ"
      ],
      [
        "ǤƸƺ",
        "ǤƻƀǤƹƈ"
      ],
      [
        "Ɲ",
        "Ƈ"
      ],
      [
        "ǥƌƻ",
        "ǥƭƦ"
      ],
      [
        "ư",
        "Ʊ"
      ],
      [
        "i",
        "z"
      ],
      [
        "ǣ",
        "Ƃ"
      ],
      [
        "ǧ",
        "ƟƳ"
      ],
      [
        "ǧƟ",
        "Ƴ"
      ],
      [
        "w",
        "n"
      ],
      [
        "ǩƀ",
        "Ə"
      ],
      [
        "Ʃ",
        "ǩ"
      ],
      [
        "Ə",
        "ƣ"
      ],
      [
        "B",
        "o"
      ],
      [
        "ǦƜƉ",
        "ǥƾƈǥƤƚ"
      ],
      [
        "n",
        "n"
      ],
      [
        "ǨƶƳ",
        "ǥƤƟ"
      ],
      [
        "ƕ",
        "Ǥ"
      ],
      [
        "o",
        "k"
      ],
      [
        "ǦƗƥ",
        "ǥƸƸ"
      ],
      [
        "ǥƤƧ",
        "ǩƇƏǧƚƄ"
      ],
      [
        "ǥƤƧǩƇƏ",
        "ǧƚƄ"
      ],
      [
        "ǧƚƄ",
        "ǥƷƥǤƽƜ"
      ],
      [
        "Ə",
        "Ɗ"
      ],
      [
        "ǥƛƽ",
        "ǥƮƶ"
      ],
      [
        "ǧƚƄ",
        "ǧƤƾ"
      ],
      [
        "ǧƚƄǧ",
        "Ƥƾ"
      ],
      [
        "s",
        "k"
      ],
      [
        "Py",
        "thon"
      ],
      [
        "Ư",
        "Ƽ"
      ],
      [
        "ǧƔƟǦƈƐ",
        "ǤƸƀǤƸƪ"
      ],
      [
        "ǧƚƄ",
        "ǦƖƹǥƼƏ"
      ],
      [
        "Ǥƺ",
        "Ƭ"
      ],
      [
        "Ǥ",
        "ƺƬ"
      ],
      [
        "m",
        "y"
      ],
      [
        "ǩƝ",
        "Ơ"
      ],
      [
        "ƽ",
        "Ǝ"
      ],
      [
        "ƻ",
        "ƴ"
      ],
      [
        "ǩƇ",
        "Ǝ"
      ],
      [
        "ǧ",
        "Ɩƫ"
      ],
      [
        "ǧƖ",
        "ƫ"
      ],
      [
        "ƙ",
        "Ư"
      ],
      [
        "Ǩ",
        "ƪ"
      ],
      [
        "ƹ",
        "Ɖ"
      ],
      [
        "ǥ",
        "Ʃ"
      ],
      [
        "ǥƊ",
        "ƞ"
      ],
      [
        "ǥ",
        "Ɗƞ"
      ],
      [
        "ƻ",
        "ƃ"
      ],
      [
        "ƻ",
        "Ƒ"
      ],
      [
        "ǦƜƺ",
        "ǦƞƄ"
      ],
      [
        "ǨƷ",
        "Ɲ"
      ],
      [
        "Ǩ",
        "ƷƝ"
      ],
      [
        "Ǧƍ",
        "Ɵ"
      ],
      [
        "g",
        "l"
      ],
      [
        "Ɣ",
        "ǩ"
      ],
      [
        ")",
        ","
      ],
      [
        "t",
        "l"
      ],
      [
        "ƒ",
        "ǧ"
      ],
      [
        "ǩƇƑ",
        "Ǩ"
      ],
      [
        "ǩƇ",
        "ƑǨ"
      ],
      [
        "ƥ",
        "Ʈ"
      ],
      [
        "ǥƍ",
        "Ʊ"
      ],
      [
        "1",
        "3"
      ],
      [
        "Ǩ",
        "ƞ"
      ],
      [
        "Ɩ",
        "ǩ"
      ],
      [
        "ǨƇƪǥƊƨ",
        "ǥƌƖ"
      ],
      [
        "Ƥ",
        "ƒ"
      ],
      [
        "Ǧƶ",
        "ƉǥƏƊ"
      ],
      [
        "ǥƏƯǤƻƥǥƸƮǥƊƩ",
        "ǦƂƨ"
      ],
      [
        "ǥƏƯǤƻƥ",
        "ǥƸƮǥƊƩǦƂƨ"
      ],
      [
        "Ƽ",
        "Ǧ"
      ],
      [
        "2",
        "4"
      ],
      [
        "ǧƬƦ",
        "ǥƐƈ"
      ],
      [
        "n",
        "f"
      ],
      [
        "ǧ",
        "ƕƌ"
      ],
      [
        "ǧƕ",
        "ƌ"
      ],
      [
        "Ǝ",
        "Ɔ"
      ],
      [
        "Ɛ",
        "ƥ"
      ],
      [
        "Ƣ",
        "ƫ"
      ],
      [
        "ǥƯ",
        "Ɵ"
      ],
      [
        "ǥƾ",
        "ƪ"
      ],
      [
        "ǥ",
        "ƾƪ"
      ],
      [
        "ǧƧ",
        "Ƌ"
      ],
      [
        "ǧ",
        "ƧƋ"
      ],
      [
        "C",
        "h"
      ],
      [
        "Ƥ",
        "Ƈ"
      ],
      [
        "Ǧưƴ",
        "ǦƞƜ"
      ],
      [
        "ǥƺ",
        "ƕ"
      ],
      [
        "ǦƝ",
        "Ư"
      ],
      [
        "Ǧ",
        "ƝƯ"
      ],
      [
        "ƃ",
        "Ƥ"
      ],
      [
        "ǩƝƢ",
        "ǤƸƴ"
      ],
      [
        "ǧƜ",
        "Ƽ"
      ],
      [
        "ǧ",
        "ƜƼ"
      ],
      [
        "Ǩ",
        "Ɯ"
      ],
      [
        "ǦƖƇ",
        "ǥƭƦ"
      ],
      [
        "Ǧƻơ",
        "ǨƶƳ"
      ],
      [
        "ǩƇƑǨ",
        "ƞƍ"
      ],
      [
        "ǩƇƑ",
        "Ǩƞƍ"
      ],
      [
        "ǦƀƧ",
        "Ǩƃƽ"
      ],
      [
        "ǥ",
        "Ơ"
      ],
      [
        "ǩƼƓ",
        "ǥƊƱ"
      ],
      [
        "ǩƩ",
        "ƾ"
      ],
      [
        "ǩ",
        "Ʃƾ"
      ],
      [
        "ǥƭƦǤƹƠ",
        "ǥƒƌ"
      ],
      [
        "ƺ",
        "ƿ"
      ],
      [
        "d",
        "r"
      ],
      [
        "ǧƤ",
        "Ƽ"
      ],
      [
        "ǧ",
        "ƤƼ"
      ],
      [
        "ǤƸƍ",
        "ǥƏƯ"
      ],
      [
        "ƹ",
        "Ʀ"
      ],
      [
        "ǧƄ",
        "Ʀ"
      ],
      [
        "ǧ",
        "ƄƦ"
      ],
      [
        "ǦƖư",
        "ǩƗƻ"
      ],
      [
        "ƽ",
        "Ƣ"
      ],
      [
        "ǥƈƤ",
        "ǦƖƭ"
      ],
      [
        "Ə",
        "Ƹ"
      ],
      [
        "ǦƭƧ",
        "ǨƧƆ"
      ],
      [
        "ǩơ",
        "ƺ"
      ],
      [
        "Ǧƶƈ",
        "Ǩƴƹ"
      ],
      [
        "ǥƊƛ",
        "ǩƇƏ"
      ],
      [
        "ǥ",
        "Əƌ"
      ],
      [
        "ǥƏ",
        "ƌ"
      ],
      [
        "ǩƅ",
        "Ƹ"
      ],
      [
        "ǩ",
        "ƅƸ"
      ],
      [
        "ǥƹƴ",
        "Ǩƽƻ"
      ],
      [
        "g",
        "u"
      ],
      [
        "ǤƼ",
        "ƴ"
      ],
      [
        "ǥƱƕ",
        "ǧƤƺ"
      ],
      [
        "ƻ",
        "ƭ"
      ],
      [
        "Ɗ",
        "ǩ"
      ],
      [
        "ǧƛƴ",
        "ǦƎƥ"
      ],
      [
        "Ʀ",
        "ƙ"
      ],
      [
        "ǥƕƆ",
        "ǤƸƚ"
      ],
      [
        "Ƃ",
        "\\"
      ],
      [
        "t",
        "w"
      ],
      [
        "ǥƼƺ",
        "Ǩưƃ"
      ],
      [
        "ǨƯƴ",
        "ǦƘƎ"
      ],
      [
        "|",
        "|"
      ],
      [
        "ǧƛƸǥƅƳ",
        "ǧƚƄ"
      ],
      [
        "ǩ",
        "ƱƼ"
      ],
      [
        "ǩƱ",
        "Ƽ"
      ],
      [
        "Ƹ",
        "Ǥ"
      ],
      [
        "Ɯ",
        "ƛ"
      ],
      [
        "Ɗ",
        "Ǥ"
      ],
      [
        "ǧƔƨ",
        "ǧƚƄ"
      ],
      [
        "ǦƬƢ",
        "ǨƿƎ"
      ],
      [
        "ǨƧƂ",
        "ǧƂƹ"
      ],
      [
        "ǦƜƉ",
        "ǧƝƀ"
      ],
      [
        "Ƥ",
        "Ǩ"
      ],
      [
        "ǧƉƹ",
        "ǥƮƚ"
      ],
      [
        "ƙ",
        "Ʃ"
      ],
      [
        "(",
        ")"
      ],
      [
        "ǥƣ",
        "ƫ"
      ],
      [
        "ǥ",
        "ƣƫ"
      ],
      [
        "Ǩƌƃ",
        "ǥƛƴ"
      ],
      [
        "ǨƮƩ",
        "ǦƈƑ"
      ],
      [
        "ǦƜ",
        "ƨ"
      ],
      [
        "Ǧ",
        "Ɯƨ"
      ],
      [
        "ǧƛ",
        "Ɩ"
      ],
      [
        "ƿ",
        "Ƒ"
      ],
      [
        "ǦƏƐ",
        "ǥƇƺ"
      ],
      [
        "Ǧ",
        "ƽƜ"
      ],
      [
        "Ǧƽ",
        "Ɯ"
      ],
      [
        "ǧƨƳ",
        "ǥƮƚ"
      ],
      [
        "ǦƯƏ",
        "ǥƤƩ"
      ],
      [
        "ǨƮƩ",
        "ǦƈƑǤƻƬ"
      ],
      [
        "ǨƮƩǦƈƑ",
        "ǤƻƬ"
      ],
      [
        "Ƭ",
        "ǨƏƜ"
      ],
      [
        "ƬǨ",
        "ƏƜ"
      ],
      [
        "ǩ",
        "Ɲƒ"
      ],
      [
        "ǩƝ",
        "ƒ"
      ],
      [
        "ǧƻƙǥƮƚ",
        "ǧƚƄ"
      ],
      [
        "ǧƻƙ",
        "ǥƮƚǧƚƄ"
      ],
      [
        "Ġ",
        "J"
      ],
      [
        "Ǩƿƛ",
        "ǤƸƀǦƭƥ"
      ],
      [
        "Ƹ",
        "ơ"
      ],
      [
        "ǦƳƨ",
        "ǩƇƍ"
      ],
      [
        "ǩơ",
        "ƾ"
      ],
      [
        "ǩ",
        "ơƾ"
      ],
      [
        "Ƨ",
        "Ƃ"
      ],
      [
        "Ʋ",
        "Ɖ"
      ],
      [
        "ǥƱ",
        "ƀ"
      ],
      [
        "Ǩƴƣ",
        "Ǥƻƻ"
      ],
      [
        "Ƽ",
        "ǧ"
      ],
      [
        "ƅ",
        "Ƣ"
      ],
      [
        "ǦƈƑ",
        "ǨƮƤǤƸƺ"
      ],
      [
        "ǧƋƬǧƉƹ",
        "ǧƚƄ"
      ],
      [
        "ǩƀƐ",
        "ǦƸƐ"
      ],
      [
        "ǥƍ",
        "ƴ"
      ],
      [
        "ǥƒƌ",
        "ǥƅƶǤƻƖ"
      ],
      [
        "ǧ",
        "Ƈ"
      ],
      [
        "ǨƁƔ",
        "ǧƽƑ"
      ],
      [
        "ƌ",
        "Ƈ"
      ],
      [
        "ǩƦ",
        "ƈ"
      ],
      [
        "ǩ",
        "Ʀƈ"
      ],
      [
        "ǨƁ",
        "ƚ"
      ],
      [
        "Ǩ",
        "Ɓƚ"
      ],
      [
        "Ɖ",
        "Ƈ"
      ],
      [
        "ǧ",
        "ƬƔ"
      ],
      [
        "ǧƬ",
        "Ɣ"
      ],
      [
        "ƞ",
        "Ɓ"
      ],
      [
        "ǧƻƧ",
        "ǧƻƭ"
      ],
      [
        "ǧƚƄ",
        "ǧƔƟǦƴƻ"
      ],
      [
        "ǥƹ",
        "Ƹ"
      ],
      [
        "ǥƏƪ",
        "ǦƜƉ"
      ],
      [
        "ǩ",
        "ƀƁ"
      ],
      [
        "ǩƀ",
        "Ɓ"
      ],
      [
        "ǥƮƇ",
        "ǥƮ"
      ],
      [
        "ǥƛư",
        "ǩƚƾ"
      ],
      [
        "ƞ",
        "Ǥ"
      ],
      [
        "Ƣ",
        "ǩ"
      ],
      [
        "ǨƯƾ",
        "ǧƨƋ"
      ],
      [
        "ǦƎƌ",
        "ǦƏơ"
      ],
      [
        "ǥƜƨ",
        "ǧƺƿ"
      ],
      [
        "ǩƔ",
        "ƻǧ"
      ],
      [
        "ǧƭƔ",
        "Ǧơƈ"
      ],
      [
        "ǥƏƥ",
        "ǨƯƝ"
      ],
      [
        "Ɩ",
        "Ƅ"
      ],
      [
        "ǩ",
        "ƸƟ"
      ],
      [
        "ǩƸ",
        "Ɵ"
      ],
      [
        "ƥ",
        "Ƽ"
      ],
      [
        "ǤƼ",
        "Ʀ"
      ],
      [
        "Ǥ",
        "ƼƦ"
      ],
      [
        "ǥ",
        "ƆƷ"
      ],
      [
        "ǥƆ",
        "Ʒ"
      ],
      [
        "ǩƔƻǧ",
        "ƂƼ"
      ],
      [
        "ǦƵƁ",
        "ǧƨƋ"
      ],
      [
        "ƛ",
        "ƛ"
      ],
      [
        "ǧƼƖ",
        "ǥƆƙ"
      ],
      [
        "Ɵ",
        "Ǝ"
      ],
      [
        "ǥƿƅ",
        "ǨƦƁ"
      ],
      [
        "Ǥƹ",
        "Ƙ"
      ],
      [
        "Ǥ",
        "ƹƘ"
      ],
      [
        "ǦƎƨ",
        "ǥƊƨ"
      ],
      [
        "ǨƽƬ",
        "ǦƍƢ"
      ],
      [
        "ǩƁƓ",
        "ǥƾƷ"
      ],
      [
        "Ƨ",
        "ư"
      ],
      [
        "ǧƉƩ",
        "ǥƓƁ"
      ],
      [
        "Ƥ",
        "Ɛ"
      ],
      [
        "ǥƏƯǤƻƥǥƸƮǥƊƩ",
        "ǤƽƠ"
      ],
      [
        "ǥƏƯǤƻƥ",
        "ǥƸƮǥƊƩǤƽƠ"
      ],
      [
        "ǥư",
        "ƚ"
      ],
      [
        "ǨƧƣǥƆƳ",
        "ǦƖƹǦơƈ"
      ],
      [
        "ǧƾƎ",
        "ǩƣƟ"
      ],
      [
        "ƙ",
        "Ƒ"
      ],
      [
        "h",
        "r"
      ],
      [
        "Ơ",
        "Ɣ"
      ],
      [
        "ǥƤƚ",
        "ǦƠƷ"
      ],
      [
        "Y",
        "o"
      ],
      [
        "ǦƸƩ",
        "ǥƺƦ"
      ],
      [
        "ǤƹƟ",
        "ǤƼƚ"
      ],
      [
        "ǧƚƄ",
        "ǦƃƅǥƆƵ"
      ],
      [
        "ǩƥ",
        "ư"
      ],
      [
        ".",
        "."
      ],
      [
        "ǥƹƳ",
        "ǥƝƇ"
      ],
      [
        "ǤƺƺǥƷƥǦƙƺǨƃƽ",
        "ǥƜƨ"
      ],
      [
        "ǩ",
        "ƀƔ"
      ],
      [
        "ǩƀ",
        "Ɣ"
      ],
      [
        "ǥ",
        "ƍƫ"
      ],
      [
        "ǥƍ",
        "ƫ"
      ],
      [
        "ǦƗƥ",
        "ǦƜƟ"
      ],
      [
        "ǦƂƨ",
        "ǩƜƀǨƦƁ"
      ],
      [
        ")",
        "`"
      ],
      [
        "ǥƮƇǥƮ",
        "ƙ"
      ],
      [
        "ǦƀƎ",
        "Ǥƹƈ"
      ],
      [
        "ǩƙƐ",
        "ǥƈƶ"
      ],
      [
        "ǥƝ",
        "Ə"
      ],
      [
        "ǤƸ",
        "Ƈ"
      ],
      [
        "Ǥ",
        "ƸƇ"
      ],
      [
        "ǧƎ",
        "Ƌ"
      ],
      [
        "ǧ",
        "ƎƋ"
      ],
      [
        "ƾ",
        "ƾ"
      ],
      [
        "ǨƍƯ",
        "ǧƉƩ"
      ],
      [
        "Ǩ",
        "ơƀ"
      ],
      [
        "Ǩơ",
        "ƀ"
      ],
      [
        "ǥƏƍ",
        "ǩƦƈ"
      ],
      [
        "Ƒ",
        "Ƴ"
      ],
      [
        "ǩ",
        "ƂƮ"
      ],
      [
        "ǩƂ",
        "Ʈ"
      ],
      [
        "F",
        "i"
      ],
      [
        "ǦƘƎ",
        "ǧơƮ"
      ],
      [
        "ǧ",
        "ƪƁ"
      ],
      [
        "ǧƪ",
        "Ɓ"
      ],
      [
        "L",
        "i"
      ],
      [
        "x",
        "e"
      ],
      [
        "ƈ",
        "Ƙ"
      ],
      [
        "ƀ",
        "Ơ"
      ],
      [
        "ǨƎƷ",
        "ǥƏƖ"
      ],
      [
        "ǥƭƗǧƬƦ",
        "ǤƸƲ"
      ],
      [
        "ǤƹƋ",
        "ǥ"
      ],
      [
        "Ǥƹ",
        "Ƌǥ"
      ],
      [
        "Ư",
        "Ƅ"
      ],
      [
        "Ə",
        "Ƃ"
      ],
      [
        "ǥƐƈ",
        "ǧƐƆ"
      ],
      [
        "ǨƷ",
        "Ƒ"
      ],
      [
        "Ǩ",
        "ƷƑ"
      ],
      [
        "ƹ",
        "ǦƞƜ"
      ],
      [
        "ƹǦ",
        "ƞƜ"
      ],
      [
        "ǧƛƮ",
        "ǥƉƍ"
      ],
      [
        "Ƽ",
        "Ǩ"
      ],
      [
        "ǨƉƯǥƥƽ",
        "ǧƚƄ"
      ],
      [
        "ǨƉƯ",
        "ǥƥƽǧƚƄ"
      ],
      [
        "ƃ",
        "ǩ"
      ],
      [
        "ƌ",
        "Ǣ"
      ],
      [
        "ǤƽƓ",
        "ǧƚƄ"
      ],
      [
        "ǦƵƷ",
        "ǦƴƋ"
      ],
      [
        "ǨƋ",
        "ƹǦƞƜ"
      ],
      [
        "Ǧƴ",
        "Ɨ"
      ],
      [
        "Ǧ",
        "ƴƗ"
      ],
      [
        "ǧƎư",
        "ǥƮƞ"
      ],
      [
        "ǨƐƥ",
        "ǥƅƻ"
      ],
      [
        "ǥƌƖ",
        "ǥƭƦ"
      ],
      [
        "ǦƏƐ",
        "ǥƍƇ"
      ],
      [
        "ǩƗƮǩƢƘ",
        "ǧƚƄ"
      ],
      [
        "ǥƐƍ",
        "ǧƧư"
      ],
      [
        "ǧƥƞ",
        "ǧƻƏ"
      ],
      [
        "ƀ",
        "Ɵ"
      ],
      [
        "Ư",
        "Ʀ"
      ],
      [
        "Ġ",
        "ǥƜƨ"
      ],
      [
        "Ġǥ",
        "Ɯƨ"
      ],
      [
        "ǨƐƥ",
        "ǩƔƀ"
      ],
      [
        "ǧƔƨ",
        "ǦƝƥ"
      ],
      [
        "ǧƩƺ",
        "ǦưƔ"
      ],
      [
        "ǥƐƍ",
        "ǥƭƗ"
      ],
      [
        "ǧƩƺ",
        "ǩƗƴ"
      ],
      [
        "ǧ",
        "ƪ"
      ],
      [
        "Ǧƭƌ",
        "ǦƛƲ"
      ],
      [
        "C",
        "a"
      ],
      [
        "ǥưƊ",
        "ǩƇƍ"
      ],
      [
        "z",
        "e"
      ],
      [
        "ǤƽƠ",
        "ǩƜƀǨƦƁ"
      ],
      [
        "ǥƊƛ",
        "ǧƚƄ"
      ],
      [
        "Ǧƌ",
        "ƥ"
      ],
      [
        "ƅ",
        "ǩ"
      ],
      [
        "ǥƏƊ",
        "ǦƗƶ"
      ],
      [
        "ƶ",
        "Ɗ"
      ],
      [
        "Ə",
        "Ʋ"
      ],
      [
        "ƭǩ",
        "ƅƍ"
      ],
      [
        "ƭ",
        "ǩƅƍ"
      ],
      [
        "Ƹ",
        "ư"
      ],
      [
        "Ɓ",
        "Ɣ"
      ],
      [
        "1",
        "7"
      ],
      [
        "ǥƅƷ",
        "ǤƽƓǧƚƄ"
      ],
      [
        "ǥƅƷǤƽƓ",
        "ǧƚƄ"
      ],
      [
        "ƅ",
        "ƴ"
      ],
      [
        "ǤƸƥ",
        "ǩƇƍ"
      ],
      [
        "ƞ",
        "ǩ"
      ],
      [
        "ǨƋƱ",
        "ǨƯƭ"
      ],
      [
        "ǨƇƪǧƄƶǨƯƭǨƨƀ",
        "ǥƤƄǧƐƆ"
      ],
      [
        "ǩƒƈ",
        "ǥƯƹ"
      ],
      [
        "ƺ",
        "ƌ"
      ],
      [
        "Ɣ",
        "ƶ"
      ],
      [
        "ǦƈƑǤƻƬ",
        "ǥƺƔǨƯƥ"
      ],
      [
        "Ư",
        "Ɖ"
      ],
      [
        "ƥ",
        "Ǩƺƫ"
      ],
      [
        "ƥǨ",
        "ƺƫ"
      ],
      [
        "9",
        "9"
      ],
      [
        "ƶ",
        "ƣ"
      ],
      [
        "ƛ",
        "Ɔ"
      ],
      [
        "ǧƳƻ",
        "ǥƈƗ"
      ],
      [
        "ǧ",
        "ƲƉ"
      ],
      [
        "ǧƲ",
        "Ɖ"
      ],
      [
        "Ƈ",
        "ƽ"
      ],
      [
        "ƍ",
        "Ƈ"
      ],
      [
        "ǧƚƄǤƸƻ",
        "ǨƦƁ"
      ],
      [
        "ǧƚƄ",
        "ǤƸƻǨƦƁ"
      ],
      [
        "ƒ",
        "Ǥ"
      ],
      [
        "ǦƷƱǥƺƦ",
        "ǥƭƦǤƹƠ"
      ],
      [
        "ǥƮƚ",
        "ǤƹƉ"
      ],
      [
        "ǤƽƠ",
        "ǤƻƬ"
      ],
      [
        "ǥƼƕ",
        "ǨƵƷ"
      ],
      [
        "ǥ",
        "ƜƟ"
      ],
      [
        "ǥƜ",
        "Ɵ"
      ],
      [
        "ǥƤƧ",
        "ǩƇƏ"
      ],
      [
        "ǨƧƄ",
        "ǥƈƒ"
      ],
      [
        "u",
        "g"
      ],
      [
        "ǦƯ",
        "ƛ"
      ],
      [
        "ƨơ",
        "ǥƞƋ"
      ],
      [
        "Ʈ",
        "ư"
      ],
      [
        "ǥƮ",
        "ƣ"
      ],
      [
        "Ƈ",
        "Ƈ"
      ],
      [
        "Ǥ",
        "ƸƖ"
      ],
      [
        "ǤƸ",
        "Ɩ"
      ],
      [
        "ǦƂƣ",
        "Ǩƀƅ"
      ],
      [
        "ǧƉƩ",
        "ǧƐƆ"
      ],
      [
        "ǤƽƠ",
        "ǨƮƤǤƸƺ"
      ],
      [
        "ƻ",
        "ƽ"
      ],
      [
        "ǨƮ",
        "ƿ"
      ],
      [
        "Ɯǧ",
        "ƴƢ"
      ],
      [
        "Ɯ",
        "ǧƴƢ"
      ],
      [
        "ǦƯ",
        "ƒ"
      ],
      [
        "ǧƚƄ",
        "ǦƜƀ"
      ],
      [
        "ǧƚƄǦ",
        "Ɯƀ"
      ],
      [
        "ǧƜ",
        "Ơ"
      ],
      [
        "ǧ",
        "ƜƠ"
      ],
      [
        "ǤƸƋ",
        "ǩƝƢ"
      ],
      [
        "Ƣ",
        "Ʀ"
      ],
      [
        "ǥƁ",
        "ƥǨƺƫ"
      ],
      [
        "ǥƁƥ",
        "Ǩƺƫ"
      ],
      [
        "Ǧ",
        "ƉƩ"
      ],
      [
        "ǦƉ",
        "Ʃ"
      ],
      [
        "W",
        "e"
      ],
      [
        "ǩƩƾ",
        "ǩƩƶ"
      ],
      [
        "ǦƎƨ",
        "ǥƹƿ"
      ],
      [
        "Ǩƃ",
        "Ɯ"
      ],
      [
        "Ǧ",
        "ƓƍǤƽƜ"
      ],
      [
        "ǥƮ",
        "Ƙ"
      ],
      [
        "2",
        "3"
      ],
      [
        "ǥƮƶ",
        "ǥƱƅ"
      ],
      [
        "ǦƱ",
        "Ƈ"
      ],
      [
        "Ǩƴ",
        "ơǧ"
      ],
      [
        "ǥƈƛ",
        "ǦƄƏ"
      ],
      [
        "ǥƮ",
        "Ơ"
      ],
      [
        "Ǧƣ",
        "ƀǦƟƥ"
      ],
      [
        "Ǧ",
        "ƣƀǦƟƥ"
      ],
      [
        "Ǧƣƀ",
        "ǦƟƥ"
      ],
      [
        "Ǩƴơǧ",
        "ƌƮ"
      ],
      [
        "c",
        "c"
      ],
      [
        "ǦƝ",
        "Ǝ"
      ],
      [
        "Ǧ",
        "ƝƎ"
      ],
      [
        "ǦƊ",
        "Ƙ"
      ],
      [
        "Ɓ",
        "ƿ"
      ],
      [
        "ǦƵƁ",
        "Ǩơƌ"
      ],
      [
        "ǥƿ",
        "Ɔ"
      ],
      [
        "Ǧ",
        "Ƈ"
      ],
      [
        "ƭ",
        "Ƙ"
      ],
      [
        "ƪ",
        "Ƥ"
      ],
      [
        "ǥƍ",
        "Ɗ"
      ],
      [
        "v",
        "o"
      ],
      [
        "Ɣ",
        "ƀ"
      ],
      [
        "Ǩư",
        "ƈ"
      ],
      [
        "ǧƝ",
        "ơ"
      ],
      [
        "ǧ",
        "Ɲơ"
      ],
      [
        "ǩ",
        "ƁƵ"
      ],
      [
        "ǩƁ",
        "Ƶ"
      ],
      [
        "ǤƹƋǥ",
        "Ɖƍ"
      ],
      [
        "ǤƹƋ",
        "ǥƉƍ"
      ],
      [
        "k",
        "s"
      ],
      [
        "ǦƲ",
        "Ƴ"
      ],
      [
        "Ǧ",
        "ƲƳ"
      ],
      [
        "ǥƐƈ",
        "ǩƀƂǧƚƄ"
      ],
      [
        "Ɣ",
        "ƻ"
      ],
      [
        "S",
        "o"
      ],
      [
        "ǨƓ",
        "Ɲ"
      ],
      [
        "Ǩ",
        "ƓƝ"
      ],
      [
        "ǥ",
        "ƀƋ"
      ],
      [
        "ǥƀ",
        "Ƌ"
      ],
      [
        "Ǧ",
        "ƹ"
      ],
      [
        "Ǥƻƍ",
        "ǧƄƶ"
      ],
      [
        "ǥƸƮ",
        "ǦƈƑ"
      ],
      [
        "Ǩƿƙ",
        "ǤƸƀ"
      ],
      [
        "R",
        "e"
      ],
      [
        "ǧƊƶ",
        "ǥƆƵ"
      ],
      [
        "ǩƦƖ",
        "ǥƅƈ"
      ],
      [
        "Ɛ",
        "ƽ"
      ],
      [
        "Ƌ",
        "ǯ"
      ],
      [
        "ǦƎƒ",
        "ǥƺƏ"
      ],
      [
        "ǧƨƋ",
        "ǥƺƦ"
      ],
      [
        "ǦƄƏ",
        "ǥƑƳ"
      ],
      [
        "ǥƹƶ",
        "ǥƜƨ"
      ],
      [
        "ǧƉ",
        "ƈ"
      ],
      [
        "ǥƏƣ",
        "ǦƄƟ"
      ],
      [
        "ǧƃ",
        "ƈ"
      ],
      [
        "Ǧ",
        "ƨơǥƼƏ"
      ],
      [
        "Ǧƨơ",
        "ǥƼƏ"
      ],
      [
        "ǥƮƚ",
        "ǦƜƟ"
      ],
      [
        "ǧƮƀǥƍƕ",
        "ǧƚƄ"
      ],
      [
        "ǥƮ",
        "ƈ"
      ],
      [
        "Ǩƿƛ",
        "Ǧƭƥ"
      ],
      [
        "ǩƒ",
        "Ʊ"
      ],
      [
        "ǩ",
        "ƒƱ"
      ],
      [
        "Ƽ",
        "ƫ"
      ],
      [
        "ǧƻƏ",
        "ǥƸƸ"
      ],
      [
        "ƾ",
        "ǩ"
      ],
      [
        "ǩ",
        "ƅƱ"
      ],
      [
        "ǩƅ",
        "Ʊ"
      ],
      [
        "ǥƒƌ",
        "ǦƖƇǥƌƖ"
      ],
      [
        "ǨƔ",
        "ƬǨƏƜ"
      ],
      [
        "ǨƮƲ",
        "Ǩƿư"
      ],
      [
        "ǩƝ",
        "Ʃ"
      ],
      [
        "MO",
        "SS"
      ],
      [
        "Ɛ",
        "Ƹ"
      ],
      [
        "Ƹ",
        "Ƈ"
      ],
      [
        "ƕ",
        "ǩ"
      ],
      [
        "ǥƏ",
        "ƫ"
      ],
      [
        "ǥ",
        "Əƫ"
      ],
      [
        "ǦƎƒ",
        "ǦƔƾ"
      ],
      [
        "ǦƀƝ",
        "ǧƻƴ"
      ],
      [
        "ǧƻƴ",
        "ǦƊƤ"
      ],
      [
        "ǦƎƥ",
        "ǥƏƗ"
      ],
      [
        "ǧƚƄ",
        "ǥƜưǦƖƹ"
      ],
      [
        "ǧƚƄǥƜư",
        "ǦƖƹ"
      ],
      [
        "ǧƻƆ",
        "ǨƊƂ"
      ],
      [
        "ǨƷ",
        "Ƶ"
      ],
      [
        "ǧƛƸ",
        "Ǥƺƒ"
      ],
      [
        "ǥƮƞ",
        "ǩƪƌ"
      ],
      [
        "ǥƭ",
        "Ƹ"
      ],
      [
        "Ƹ",
        "ƌ"
      ],
      [
        "ǥƁ",
        "Ɯ"
      ],
      [
        "ǧƊ",
        "ƶǦƀƁ"
      ],
      [
        "ǧ",
        "ƊƶǦƀƁ"
      ],
      [
        "ǧƊƶ",
        "ǦƀƁ"
      ],
      [
        "ǤƿƝ",
        "ǨƯƁ"
      ],
      [
        "ǥƮƠ",
        "ǧƉƩ"
      ],
      [
        "ǩ",
        "Ɠƶ"
      ],
      [
        "ǩƓ",
        "ƶ"
      ],
      [
        "ǥ",
        "ƾƄ"
      ],
      [
        "ǥƾ",
        "Ƅ"
      ],
      [
        "Ɓ",
        "ƫ"
      ],
      [
        "ǥƥ",
        "Ə"
      ],
      [
        "Ɛ",
        "Ƒ"
      ],
      [
        "ǨƷƝ",
        "ǧƦƻ"
      ],
      [
        "ǦƊƥ",
        "ǥƑƊ"
      ],
      [
        "ǩƀ",
        "ƙ"
      ],
      [
        "ǩ",
        "ƀƙ"
      ],
      [
        "ǥ",
        "ƥƖ"
      ],
      [
        "ǥƥ",
        "Ɩ"
      ],
      [
        "ǦƔƶ",
        "ǩƛƆ"
      ],
      [
        "Ǥƺƒ",
        "ǥƊƨ"
      ],
      [
        "ǨƯƗ",
        "Ǧƭƌ"
      ],
      [
        "ǦƌƇ",
        "ǥƯƼ"
      ],
      [
        "Ǧƌ",
        "Ɖ"
      ],
      [
        "Ǧ",
        "ƌƉ"
      ],
      [
        "Ǩƿƽ",
        "ǦƱƂ"
      ],
      [
        "ǧƚƄ",
        "ǦƕƅǤƺƋ"
      ],
      [
        "ƒ",
        "ƭ"
      ],
      [
        "ǩƇƍ",
        "ǦƖư"
      ],
      [
        "ǦƛƴǥƥƽǥƜư",
        "ǧƐƆǨƧƣ"
      ],
      [
        "ǥƯƹ",
        "ǨƯƝ"
      ],
      [
        "(",
        "\""
      ],
      [
        "ƶ",
        "Ƴ"
      ],
      [
        "ƍ",
        "Ǝ"
      ],
      [
        "n",
        "k"
      ],
      [
        "ǥƥƳ",
        "ǦƀƧ"
      ],
      [
        "ǥƤƧ",
        "ǥưƏ"
      ],
      [
        "ǤƸƚ",
        "ǥƊơ"
      ],
      [
        "ǧƻƓ",
        "ǥƐƈ"
      ],
      [
        "ǩ",
        "ƭ"
      ],
      [
        "Ƨ",
        "Ɖ"
      ],
      [
        "ƌ",
        "ƃ"
      ],
      [
        "Ġ",
        "U"
      ],
      [
        "ǦƕưǦƍƮ",
        "ǧƚƄ"
      ],
      [
        "ǨƧƄ",
        "ǥƈƙ"
      ],
      [
        "ǥƜ",
        "Ɔ"
      ],
      [
        "ǥ",
        "ƜƆ"
      ],
      [
        "ƭ",
        "Ɩ"
      ],
      [
        "ǥƤƧ",
        "ǥƈƩ"
      ],
      [
        "ǦƀƝ",
        "ǦƃƳ"
      ],
      [
        "ǦƮƵ",
        "ǨƐƽ"
      ],
      [
        "ǦƜƉǤƸƀ",
        "ǤƸƪ"
      ],
      [
        "ǦƜƉ",
        "ǤƸƀǤƸƪ"
      ],
      [
        "ǦƭƣǧơƮ",
        "ǧƚƄ"
      ],
      [
        "ǤƻƊ",
        "ǥƤƩ"
      ],
      [
        "ǥƮƞ",
        "ǨƷƵ"
      ],
      [
        "ǥƹƶ",
        "ǤƸƍ"
      ],
      [
        "ǥƸƸǨƧƁ",
        "ǧƚƄ"
      ],
      [
        "Ǧƣ",
        "ƀ"
      ],
      [
        "Ǧ",
        "ƣƀ"
      ],
      [
        "ǦƜƉ",
        "ǥƓƪǤƺƛ"
      ],
      [
        "ǦƘƯ",
        "ǧƔƱ"
      ],
      [
        "ǥƆ",
        "ƛ"
      ],
      [
        "ǦƵ",
        "ƪ"
      ],
      [
        "Ǧ",
        "Ƶƪ"
      ],
      [
        "ǧƚƄ",
        "ǥưƏ"
      ],
      [
        "Ǩ",
        "ƈƪ"
      ],
      [
        "Ǩƈ",
        "ƪ"
      ],
      [
        "Ʋ",
        "Ǩ"
      ],
      [
        "ǨƂ",
        "ƌ"
      ],
      [
        "ǦƲ",
        "ƙ"
      ],
      [
        "Ǧ",
        "Ʋƙ"
      ],
      [
        "ǥƍ",
        "ƚ"
      ],
      [
        "ƴ",
        "Ƣ"
      ],
      [
        "Ǧƞ",
        "ƶ"
      ],
      [
        "ǥƑƼ",
        "ǥƐƸ"
      ],
      [
        "Ə",
        "Ə"
      ],
      [
        "Ġ",
        "ǐ"
      ],
      [
        "ǦƎƢ",
        "ǨƮƨ"
      ],
      [
        "ǧƽ",
        "Ɨ"
      ],
      [
        "ǧ",
        "ƽƗ"
      ],
      [
        "ǧƻ",
        "Ɲ"
      ],
      [
        "ǤƸƀ",
        "ǥƐƍ"
      ],
      [
        "ǧƺ",
        "Ƹ"
      ],
      [
        "f",
        "l"
      ],
      [
        "ǧƚƄ",
        "ǥƅƳǩƔƮ"
      ],
      [
        "ǦƵ",
        "Ɠ"
      ],
      [
        "Ǩ",
        "ƴƧ"
      ],
      [
        "Ǩƴ",
        "Ƨ"
      ],
      [
        "ǦƔ",
        "ƻ"
      ],
      [
        "Ǧ",
        "Ɣƻ"
      ],
      [
        "ǧƺ",
        "Ƴ"
      ],
      [
        "ǧƛƸ",
        "ǥƯƹ"
      ],
      [
        "Ɩ",
        "ƽ"
      ],
      [
        "Ɖ",
        "Ɠ"
      ],
      [
        "Ǩƃƽ",
        "ǩƇƏ"
      ],
      [
        "Ǩƴƭ",
        "ǧƉƩ"
      ],
      [
        "e",
        "o"
      ],
      [
        "ƙ",
        "ƚ"
      ],
      [
        "P",
        "r"
      ],
      [
        "Ǩƾ",
        "Ɔ"
      ],
      [
        "ǧƻƏ",
        "ǥƅƸ"
      ],
      [
        "ǦƄƏǥƑƳ",
        "ǧƝƀ"
      ],
      [
        "ǨƴƟ",
        "ǩƝƢ"
      ],
      [
        "ǥƱƞ",
        "ǤƺƎ"
      ],
      [
        "ǨƵ",
        "Ə"
      ],
      [
        "s",
        "q"
      ],
      [
        "ǦƈƐ",
        "ǩƕƿ"
      ],
      [
        "ƒ",
        "ǩ"
      ],
      [
        "ƻ",
        "Ƽ"
      ],
      [
        "ǦƟ",
        "Ɣ"
      ],
      [
        "Ɓ",
        "Ƶ"
      ],
      [
        "ǨƯƭ",
        "ǦƳƕ"
      ],
      [
        "ƌ",
        "ƺ"
      ],
      [
        "ǦƜƀ",
        "ǥƐƎ"
      ],
      [
        "ǦƜƀǥ",
        "ƐƎ"
      ],
      [
        "ǥƏƖ",
        "ǥƾƗ"
      ],
      [
        "Ǧƃ",
        "Ɗ"
      ],
      [
        "ǧƎư",
        "ǨƱơ"
      ],
      [
        "Ǩƈƒ",
        "ǩƀƂ"
      ],
      [
        "ǦƗƶǩƗƴ",
        "ǥƒƌ"
      ],
      [
        "ǥƺƔ",
        "ǧƚƄ"
      ],
      [
        "ǥƽƓ",
        "ǥƉƍ"
      ],
      [
        "ǥư",
        "Ƽ"
      ],
      [
        "ǥ",
        "ưƼ"
      ],
      [
        "Ʈ",
        "ƭ"
      ],
      [
        "o",
        "a"
      ],
      [
        "Ɛ",
        "Ƅ"
      ],
      [
        "Ʊ",
        "Ʊ"
      ],
      [
        "Ɓ",
        "Ǣ"
      ],
      [
        "c",
        "y"
      ],
      [
        "ƶ",
        "ƈ"
      ],
      [
        "ǥƇƺ",
        "ǦƝƥ"
      ],
      [
        "ǥƏƑ",
        "Ǧƌƥ"
      ],
      [
        "Ƙ",
        "ǩ"
      ],
      [
        "ǥƮƉ",
        "ǦƎƒ"
      ],
      [
        "Ɗ",
        "Ɵ"
      ],
      [
        "Ǧƛ",
        "ƾ"
      ],
      [
        "Ǧ",
        "ƛƾ"
      ],
      [
        "ƣ",
        "Ʈ"
      ],
      [
        "Ǧƚ",
        "Ɩ"
      ],
      [
        "Ǧ",
        "ƚƖ"
      ],
      [
        "ǥƈƆ",
        "ǩƅƍ"
      ],
      [
        "Ǩƴ",
        "Ƶ"
      ],
      [
        "Ɗ",
        "ƕ"
      ],
      [
        "Ɲ",
        "Ǥ"
      ],
      [
        "ǥƹƿ",
        "ǥƑƊ"
      ],
      [
        "Ǩƾƾ",
        "ǥƈư"
      ],
      [
        "ǥƭƗ",
        "ǦƯƍ"
      ],
      [
        "ǩƁ",
        "Ɨ"
      ],
      [
        "ǥƸƦǦƝƥ",
        "ǤƺƆ"
      ],
      [
        "ƾ",
        "ƿ"
      ],
      [
        "ǩƂƮ",
        "Ǥƻƶ"
      ],
      [
        "ǥƮƌ",
        "ǥƅƨ"
      ],
      [
        "Ǩơƌ",
        "ǦƘƟ"
      ],
      [
        "Ǩƿƞ",
        "ǦƎƥ"
      ],
      [
        "ǨƂ",
        "Ƥ"
      ],
      [
        "ǤƼƘ",
        "ǥƊƿ"
      ],
      [
        "n",
        "v"
      ],
      [
        "ǧƚƄǧƠ",
        "ƔǧƩƶ"
      ],
      [
        "ǧƚƄ",
        "ǧƠƔǧƩƶ"
      ],
      [
        "ǥƀ",
        "ƒ"
      ],
      [
        "ǥ",
        "ƀƒ"
      ],
      [
        "ƴ",
        "ƹ"
      ],
      [
        "Ǥƹ",
        "ƅ"
      ],
      [
        "Ǥ",
        "ƹƅ"
      ],
      [
        "ǧƚƄ",
        "ǦƃƅǦƄƟ"
      ],
      [
        "ǩƝƢ",
        "ǥƯƹ"
      ],
      [
        "ǦƸƅǦ",
        "ƙ"
      ],
      [
        "ǦƸƅ",
        "Ǧƙ"
      ],
      [
        "ǨƿƘ",
        "ǩƜƀǨƦƁ"
      ],
      [
        "ƅ",
        "ƻ"
      ],
      [
        "ǨƮƩ",
        "Ǥƺƺ"
      ],
      [
        "ǥ",
        "ƈƚ"
      ],
      [
        "ǥƈ",
        "ƚ"
      ],
      [
        "ǩƜ",
        "Ʋ"
      ],
      [
        "ǥƛ",
        "ƺ"
      ],
      [
        "l",
        "p"
      ],
      [
        "ǧƛ",
        "Ƙ"
      ],
      [
        "Ǩ",
        "ƷƳ"
      ],
      [
        "ǨƷ",
        "Ƴ"
      ],
      [
        "Ƭ",
        "Ɣ"
      ],
      [
        "ǃ",
        "Ɨ"
      ],
      [
        "ǦƷƷ",
        "ǥƐƈ"
      ],
      [
        "g",
        "n"
      ],
      [
        "ƜǤ",
        "Ƽ"
      ],
      [
        "Ɯ",
        "ǤƼ"
      ],
      [
        "ǨƴƢ",
        "ǥƊơ"
      ],
      [
        "Ƭ",
        "Ʀ"
      ],
      [
        "ǧƚƄ",
        "ǦƊƀǦƜƯ"
      ],
      [
        "ǦƖƇǥƌƖ",
        "ǥƒƌ"
      ],
      [
        "ǦƖƇ",
        "ǥƌƖǥƒƌ"
      ],
      [
        "ǦƙƯ",
        "ǧƂƹ"
      ],
      [
        "4",
        "5"
      ],
      [
        "9",
        "0"
      ],
      [
        "ǥƺƔǧƔƨ",
        "ǤƺƎ"
      ],
      [
        "ǥƺƔ",
        "ǧƔƨǤƺƎ"
      ],
      [
        "Ǩ",
        "ƈƬ"
      ],
      [
        "Ǩƈ",
        "Ƭ"
      ],
      [
        "ǩƀ",
        "ƒ"
      ],
      [
        "ǩ",
        "ƀƒ"
      ],
      [
        "Ƣ",
        "Ɨ"
      ],
      [
        "ǨƮƾ",
        "ǧƽƮ"
      ],
      [
        "ǦƲ",
        "Ɖ"
      ],
      [
        "Ǧ",
        "ƲƉ"
      ],
      [
        "ǨƷ",
        "Ɵ"
      ],
      [
        "Ǩƌ",
        "ƶ"
      ],
      [
        "Ǩ",
        "ƌƶ"
      ],
      [
        "Ƽ",
        "ƕ"
      ],
      [
        "ǥƯƻ",
        "ǦƱƂ"
      ],
      [
        "ƫ",
        "ǩ"
      ],
      [
        "Ƹ",
        "ǩ"
      ],
      [
        "ǥƒ",
        "ƨ"
      ],
      [
        "ƹ",
        "ư"
      ],
      [
        "ǥƭƘ",
        "ǥ"
      ],
      [
        "ǥƭ",
        "Ƙǥ"
      ],
      [
        "ǧƆ",
        "Ɵ"
      ],
      [
        "ǧ",
        "ƆƟ"
      ],
      [
        "ƿ",
        "Ǥ"
      ],
      [
        "ǥ",
        "Ɨ"
      ],
      [
        "ǥƭƐ",
        "ǧƚƄ"
      ],
      [
        "ǥƒƨ",
        "ǨƯƢ"
      ],
      [
        "Ə",
        "Ʒ"
      ],
      [
        "Ǧƀ",
        "ƥ"
      ],
      [
        "ǦƈƐǤƸƺ",
        "ǤƺƆ"
      ],
      [
        "ǦƈƐ",
        "ǤƸƺǤƺƆ"
      ],
      [
        "ǧƮ",
        "Ʊ"
      ],
      [
        "ǧ",
        "ƮƱ"
      ],
      [
        "X",
        "X"
      ],
      [
        "ƻ",
        "Ʃ"
      ],
      [
        "ǧƔƟǦƀƁ",
        "ǧƳƻǧƻƟ"
      ],
      [
        "ǦƊ",
        "Ɨ"
      ],
      [
        "ǥƏƣ",
        "ǥƑƳ"
      ],
      [
        "ǧƤƾ",
        "ǥƌƺ"
      ],
      [
        "Ǥƺƒ",
        "ǨƁƔǧƽƑ"
      ],
      [
        "Ǩ",
        "ƭ"
      ],
      [
        "\"",
        ","
      ],
      [
        "ǦƖƹǩƝƢ",
        "ǧƚƄ"
      ],
      [
        "ǦƖƹ",
        "ǩƝƢǧƚƄ"
      ],
      [
        "ǥƐ",
        "Ư"
      ],
      [
        "ǧƧ",
        "ƀ"
      ],
      [
        "y",
        "p"
      ],
      [
        "ǥƐƎ",
        "ǧƚƄ"
      ],
      [
        "ǧƁ",
        "ƾ"
      ],
      [
        "Ƥ",
        "ƴ"
      ],
      [
        "Ə",
        "ƭ"
      ],
      [
        "ǦƠƷ",
        "ǧƚƄ"
      ],
      [
        "Ǥ",
        "ƽƙ"
      ],
      [
        "Ǥƽ",
        "ƙ"
      ],
      [
        "ǨƿƙǧƯƇ",
        "ǦƖƇǧƫƠ"
      ],
      [
        "ǥƭƦ",
        "ǦƠơ"
      ],
      [
        "ǥƅƬ",
        "ǥƅƱ"
      ],
      [
        "ǦƜƉǦƕƈ",
        "ǧƚƄ"
      ],
      [
        "ƻ",
        "ƈ"
      ],
      [
        "ǦƊƀǦƜƯ",
        "ǧƚƄ"
      ],
      [
        "ǦƜƉ",
        "ǤƸƀ"
      ],
      [
        "ǧƾƎ",
        "ǥƑƳ"
      ],
      [
        "ǩƀƂǥƽƓ",
        "ǧƚƄ"
      ],
      [
        "ǥƏƯǤƻƥ",
        "ǦƠƹǦƍƮ"
      ],
      [
        "ǩƘƳ",
        "ǥƅƉ"
      ],
      [
        "ǦƔƾ",
        "ǥƜƨ"
      ],
      [
        "Ƒ",
        "ƨ"
      ],
      [
        "Ǩơƨ",
        "ǩƝƢ"
      ],
      [
        "ǧƜƟ",
        "Ǧƭƣ"
      ],
      [
        "Ġ",
        "ǥưƆ"
      ],
      [
        "Ġǥ",
        "ưƆ"
      ],
      [
        "ǥƕƆ",
        "ǥƓƁ"
      ],
      [
        "ǧƳ",
        "ƕ"
      ],
      [
        "ǧ",
        "Ƴƕ"
      ],
      [
        "ǥƆƙ",
        "ǤƽƜ"
      ],
      [
        "ǩƜƀǦƱƂ",
        "ǥƒƌ"
      ],
      [
        "ǧƄƦ",
        "ǨƙƑ"
      ],
      [
        "Ɔ",
        "ƍ"
      ],
      [
        "'",
        ","
      ],
      [
        "ǦƗƶ",
        "ǥưƚ"
      ],
      [
        "ǧƛƸ",
        "ǥƐƌ"
      ],
      [
        "ǥƏƗ",
        "ǦƬƢǨƿƎ"
      ],
      [
        "Ƥ",
        "Ɵ"
      ],
      [
        "Ɨ",
        "ƨ"
      ],
      [
        "ƌ",
        "Ƅ"
      ],
      [
        "Ǧ",
        "ƢƦ"
      ],
      [
        "ǦƢ",
        "Ʀ"
      ],
      [
        "ǧ",
        "ƙƾ"
      ],
      [
        "ǧƙ",
        "ƾ"
      ],
      [
        "Ƨ",
        "ǩ"
      ],
      [
        "ƞ",
        "Ǩ"
      ],
      [
        "ǩƝƞǥƸƸ",
        "ǩƇƍǨƦƁǧƚƄ"
      ],
      [
        "ǩƝƞǥƸƸǩƇƍǨƦƁ",
        "ǧƚƄ"
      ],
      [
        "ǧƱƻǥƞƋ",
        "ǧƚƄ"
      ],
      [
        "Ǧƀƻ",
        "ǧƻƓ"
      ],
      [
        "ǦƖƇ",
        "Ǥƻƶ"
      ],
      [
        "ǨƑƗǥƐƍ",
        "ǧƚƄ"
      ],
      [
        "ǧ",
        "ƕƥ"
      ],
      [
        "ǧƕ",
        "ƥ"
      ],
      [
        "ǧƔƨǦƈƷ",
        "ǧƚƄ"
      ],
      [
        "ǥƅƬ",
        "ǥƛƭ"
      ],
      [
        "Ǩƿ",
        "Ʒ"
      ],
      [
        "ǩƙƤ",
        "ǤƺƆ"
      ],
      [
        "Ǩƙƚ",
        "ǦƋƟ"
      ],
      [
        "ǥƏƯǨƃƽ",
        "ǦƘƯ"
      ],
      [
        "ǥƛƽ",
        "ǩƙƅ"
      ],
      [
        "ǤƻƤ",
        "Ǥƺƺ"
      ],
      [
        "Ɲ",
        "ƾ"
      ],
      [
        "ǤƺƤ",
        "ǦƘƓ"
      ],
      [
        "ƜǤ",
        "Ƽƽ"
      ],
      [
        "ƜǤƼ",
        "ƽ"
      ],
      [
        "Ǩƿ",
        "Ɣ"
      ],
      [
        "Ǩ",
        "ƿƔ"
      ],
      [
        "Ǩƞ",
        "ƍ"
      ],
      [
        "Ǩ",
        "ƞƍ"
      ],
      [
        "ǥ",
        "Ɔƒ"
      ],
      [
        "ǥƆ",
        "ƒ"
      ],
      [
        "Ǧƃƅ",
        "ǨƊƂ"
      ],
      [
        ")",
        ")"
      ],
      [
        "ǥ",
        "ƀƑ"
      ],
      [
        "ǥƀ",
        "Ƒ"
      ],
      [
        "S",
        "u"
      ],
      [
        "ǧƔƟ",
        "ǩƕƿ"
      ],
      [
        "ǩ",
        "Ʊ"
      ],
      [
        "ǥƢƞ",
        "ǩƕƿ"
      ],
      [
        "ǧ",
        "ƅƧ"
      ],
      [
        "ǧƅ",
        "Ƨ"
      ],
      [
        "ǥƜư",
        "ǦƖƹ"
      ],
      [
        "ǧƛƸ",
        "ǤƼƼ"
      ],
      [
        "ǥƝ",
        "Ɛ"
      ],
      [
        "ǥ",
        "ƝƐ"
      ],
      [
        "Ƨ",
        "Ƅ"
      ],
      [
        "ǥƈƆ",
        "ǥƈƫ"
      ],
      [
        "ǦƜƉǨƶƣ",
        "ǧƚƄ"
      ],
      [
        "ǩƂƣ",
        "Ǥƺƛ"
      ],
      [
        "s",
        "l"
      ],
      [
        "ǧ",
        "ƻƘ"
      ],
      [
        "ǧƻ",
        "Ƙ"
      ],
      [
        "n",
        "p"
      ],
      [
        "Ƣ",
        "Ƴ"
      ],
      [
        "o",
        "e"
      ],
      [
        "Ǧư",
        "ƛ"
      ],
      [
        "ǧƔ",
        "Ɯ"
      ],
      [
        "ǧƠ",
        "Ɣ"
      ],
      [
        "ǧ",
        "ƠƔ"
      ],
      [
        "ǧƥƞ",
        "ǧƧƘ"
      ],
      [
        "ǨƮ",
        "Ƣ"
      ],
      [
        "Ǩ",
        "ƮƢ"
      ],
      [
        "ƥ",
        "Ƴ"
      ],
      [
        "ǦƜƉ",
        "ǦƉƀ"
      ],
      [
        "ǥƋ",
        "Ƈ"
      ],
      [
        "ǥ",
        "ƋƇ"
      ],
      [
        "ǧ",
        "ƬƑ"
      ],
      [
        "ǧƬ",
        "Ƒ"
      ],
      [
        "ǤƸƭ",
        "ǦƖƇ"
      ],
      [
        "Ɛ",
        "ƫ"
      ],
      [
        "ǥƑ",
        "ƈ"
      ],
      [
        "ǦƸƅ",
        "ǦƴƁ"
      ],
      [
        "ǦƸƅǦ",
        "ƴƁ"
      ],
      [
        "ǥƨ",
        "Ɓ"
[...]
