{
  "version": "1.0",
  "truncation": null,
  "padding": null,
  "added_tokens": [
    {
      "id": 1,
      "content": "<|im_start|>",
      "single_word": false,
      "lstrip": false,
      "rstrip": false,
      "normalized": false,
      "special": true
    },
    {
      "id": 2,
      "content": "<|im_end|>",
      "single_word": false,
      "lstrip": false,
      "rstrip": false,
      "normalized": false,
      "special": true
    }
  ],
  "normalizer": null,
  "pre_tokenizer": {
    "type": "ByteLevel",
    "add_prefix_space": false,
    "trim_offsets": true,
    "use_regex": true
  },
  "post_processor": {
    "type": "TemplateProcessing",
    "single": [
      {
        "Sequence": {
          "id": "A",
          "type_id": 0
        }
      }
    ],
    "pair": [
      {
        "Sequence": {
          "id": "A",
          "type_id": 0
        }
      },
      {
        "Sequence": {
          "id": "B",
          "type_id": 1
        }
      }
    ],
    "special_tokens": {}
  },
  "decoder": {
    "type": "ByteLevel",
    "add_prefix_space": true,
    "trim_offsets": true,
    "use_regex": true
  },
  "model": {
    "type": "BPE",
    "dropout": null,
    "unk_token": null,
    "continuing_subword_prefix": null,
    "end_of_word_suffix": null,
    "fuse_unk": false,
    "byte_fallback": false,
    "ignore_merges": false,
    "vocab": {
      "": 0,
      "<|im_start|>": 1,
      "<|im_end|>": 2,
      "Ā": 3,
      "ā": 4,
      "Ă": 5,
      "ă": 6,
      "Ą": 7,
      "ą": 8,
      "Ć": 9,
      "ć": 10,
      "Ĉ": 11,
      "ĉ": 12,
      "Ċ": 13,
      "ċ": 14,
      "Č": 15,
      "č": 16,
      "Ď": 17,
      "ď": 18,
      "Đ": 19,
      "đ": 20,
      "Ē": 21,
      "ē": 22,
      "Ĕ": 23,
      "ĕ": 24,
      "Ė": 25,
      "ė": 26,
      "Ę": 27,
      "ę": 28,
      "Ě": 29,
      "ě": 30,
      "Ĝ": 31,
      "ĝ": 32,
      "Ğ": 33,
      "ğ": 34,
      "Ġ": 35,
      "!": 36,
      "\"": 37,
      "#": 38,
      "$": 39,
      "%": 40,
      "&": 41,
      "'": 42,
      "(": 43,
      ")": 44,
      "*": 45,
      "+": 46,
      ",": 47,
      "-": 48,
      ".": 49,
      "/": 50,
      "0": 51,
      "1": 52,
      "2": 53,
      "3": 54,
      "4": 55,
      "5": 56,
      "6": 57,
      "7": 58,
      "8": 59,
      "9": 60,
      ":": 61,
      ";": 62,
      "<": 63,
      "=": 64,
      ">": 65,
      "?": 66,
      "@": 67,
      "A": 68,
      "B": 69,
      "C": 70,
      "D": 71,
      "E": 72,
      "F": 73,
      "G": 74,
      "H": 75,
      "I": 76,
      "J": 77,
      "K": 78,
      "L": 79,
      "M": 80,
      "N": 81,
      "O": 82,
      "P": 83,
      "Q": 84,
      "R": 85,
      "S": 86,
      "T": 87,
      "U": 88,
      "V": 89,
      "W": 90,
      "X": 91,
      "Y": 92,
      "Z": 93,
      "[": 94,
      "\\": 95,
      "]": 96,
      "^": 97,
      "_": 98,
      "`": 99,
      "a": 100,
      "b": 101,
      "c": 102,
      "d": 103,
      "e": 104,
      "f": 105,
      "g": 106,
      "h": 107,
      "i": 108,
      "j": 109,
      "k": 110,
      "l": 111,
      "m": 112,
      "n": 113,
      "o": 114,
      "p": 115,
      "q": 116,
      "r": 117,
      "s": 118,
      "t": 119,
      "u": 120,
      "v": 121,
      "w": 122,
      "x": 123,
      "y": 124,
      "z": 125,
      "{": 126,
      "|": 127,
      "}": 128,
      "~": 129,
      "ſ": 130,
      "ƀ": 131,
      "Ɓ": 132,
      "Ƃ": 133,
      "ƃ": 134,
      "Ƅ": 135,
      "ƅ": 136,
      "Ɔ": 137,
      "Ƈ": 138,
      "ƈ": 139,
      "Ɖ": 140,
      "Ɗ": 141,
      "Ƌ": 142,
      "ƌ": 143,
      "ƍ": 144,
      "Ǝ": 145,
      "Ə": 146,
      "Ɛ": 147,
      "Ƒ": 148,
      "ƒ": 149,
      "Ɠ": 150,
      "Ɣ": 151,
      "ƕ": 152,
      "Ɩ": 153,
      "Ɨ": 154,
      "Ƙ": 155,
      "ƙ": 156,
      "ƚ": 157,
      "ƛ": 158,
      "Ɯ": 159,
      "Ɲ": 160,
      "ƞ": 161,
      "Ɵ": 162,
      "Ơ": 163,
      "ơ": 164,
      "Ƣ": 165,
      "ƣ": 166,
      "Ƥ": 167,
      "ƥ": 168,
      "Ʀ": 169,
      "Ƨ": 170,
      "ƨ": 171,
      "Ʃ": 172,
      "ƪ": 173,
      "ƫ": 174,
      "Ƭ": 175,
      "ƭ": 176,
      "Ʈ": 177,
      "Ư": 178,
      "ư": 179,
      "Ʊ": 180,
      "Ʋ": 181,
      "Ƴ": 182,
      "ƴ": 183,
      "Ƶ": 184,
      "ƶ": 185,
      "Ʒ": 186,
      "Ƹ": 187,
      "ƹ": 188,
      "ƺ": 189,
      "ƻ": 190,
      "Ƽ": 191,
      "ƽ": 192,
      "ƾ": 193,
      "ƿ": 194,
      "ǀ": 195,
      "ǁ": 196,
      "ǂ": 197,
      "ǃ": 198,
      "Ǆ": 199,
      "ǅ": 200,
      "ǆ": 201,
      "Ǉ": 202,
      "ǈ": 203,
      "ǉ": 204,
      "Ǌ": 205,
      "ǋ": 206,
      "ǌ": 207,
      "Ǎ": 208,
      "ǎ": 209,
      "Ǐ": 210,
      "ǐ": 211,
      "Ǒ": 212,
      "ǒ": 213,
      "Ǔ": 214,
      "ǔ": 215,
      "Ǖ": 216,
      "ǖ": 217,
      "Ǘ": 218,
      "ǘ": 219,
      "Ǚ": 220,
      "ǚ": 221,
      "Ǜ": 222,
      "ǜ": 223,
      "ǝ": 224,
      "Ǟ": 225,
      "ǟ": 226,
      "Ǡ": 227,
      "ǡ": 228,
      "Ǣ": 229,
      "ǣ": 230,
      "Ǥ": 231,
      "ǥ": 232,
      "Ǧ": 233,
      "ǧ": 234,
      "Ǩ": 235,
      "ǩ": 236,
      "Ǫ": 237,
      "ǫ": 238,
      "Ǭ": 239,
      "ǭ": 240,
      "Ǯ": 241,
      "ǯ": 242,
      "ǰ": 243,
      "Ǳ": 244,
      "ǲ": 245,
      "ǳ": 246,
      "Ǵ": 247,
      "ǵ": 248,
      "Ƕ": 249,
      "Ƿ": 250,
      "Ǹ": 251,
      "ǹ": 252,
      "Ǻ": 253,
      "ǻ": 254,
      "Ǽ": 255,
      "ǽ": 256,
      "Ǿ": 257,
      "ǿ": 258,
      "ǯƼ": 259,
      "ǤƸ": 260,
      "ǧƚ": 261,
      "Ƽƌ": 262,
      "ǣƀ": 263,
      "ǧƚƄ": 264,
      "ƀƂ": 265,
      "Ǥƻ": 266,
      "Ǥƺ": 267,
      "ǥƏ": 268,
      "ǦƜ": 269,
      "Ǧƈ": 270,
      "Ǥƽ": 271,
      "Ǩƿ": 272,
      "ǥƅ": 273,
      "ǥƒ": 274,
      "ǥƈ": 275,
      "ǧƔ": 276,
      "ǥƤ": 277,
      "ǦƘ": 278,
      "ǥƮ": 279,
      "ǥƜ": 280,
      "ǥƒƌ": 281,
      "ǥƊ": 282,
      "ǨƯ": 283,
      "Ƽƚ": 284,
      "ǦƖ": 285,
      "ǥƐ": 286,
      "Ǥƹ": 287,
      "ǧƻ": 288,
      "ǤƸƀ": 289,
      "ƀƁ": 290,
      "ǥư": 291,
      "ǥƭ": 292,
      "ǨƮ": 293,
      "ƃƽ": 294,
      "Ǥƻƥ": 295,
      "ǦƘƯ": 296,
      "ǥƺ": 297,
      "Ǧƕ": 298,
      "ǥƏƯ": 299,
      "ǥƸ": 300,
      "ǦƝ": 301,
      "ǦƗ": 302,
      "ǩƇ": 303,
      "ƚƄ": 304,
      "ǥƹ": 305,
      "ǦƈƑ": 306,
      "Ǩơ": 307,
      "ǥƜƨ": 308,
      "ǥƌ": 309,
      "ǥƛ": 310,
      "ǥƷ": 311,
      "ǤƸƪ": 312,
      "ǩƀ": 313,
      "ǨƧ": 314,
      "Ǩƃƽ": 315,
      "Ǥƺƺ": 316,
      "ǨƦ": 317,
      "ǥƯ": 318,
      "ǥƇ": 319,
      "ǦƜƉ": 320,
      "ǧƎ": 321,
      "ǧƭ": 322,
      "ǥƼ": 323,
      "ǥƆ": 324,
      "ǩƢ": 325,
      "ǥƥ": 326,
      "ǧƉ": 327,
      "ǦƊ": 328,
      "ǧƧ": 329,
      "ǥƏƯǤƻƥ": 330,
      "ǧƔƨ": 331,
      "ǥƾ": 332,
      "ǩƗ": 333,
      "ǤƻƬ": 334,
      "Ǥƿ": 335,
      "Ǩƿƙ": 336,
      "ǨƦƁ": 337,
      "Ǧƀ": 338,
      "ǦƉ": 339,
      "Ǧƞ": 340,
      "ǤƺƆ": 341,
      "ǥƦ": 342,
      "ǦƳ": 343,
      "Ǩƀ": 344,
      "ǤƸƭ": 345,
      "Ǧƭ": 346,
      "ǥƽ": 347,
      "ǧƛ": 348,
      "ǤƸƺ": 349,
      "ǩƝ": 350,
      "ǦƠ": 351,
      "ǦƏ": 352,
      "ǨƇ": 353,
      "ǦƄ": 354,
      "ǥƍ": 355,
      "ǧƐ": 356,
      "Ġt": 357,
      "ǤƼ": 358,
      "ǤƸƍ": 359,
      "Ǧƛ": 360,
      "ǥƓ": 361,
      "Ǥƾ": 362,
      "Ǧƃ": 363,
      "Ɯƀ": 364,
      "Ǧƙ": 365,
      "ǦƎ": 366,
      "in": 367,
      "ǧƔƟ": 368,
      "th": 369,
      "ǦƝƥ": 370,
      "Ǧư": 371,
      "ǦƋ": 372,
      "ǥƑ": 373,
      "ǦƔ": 374,
      "Ǩƴ": 375,
      "ǦƂ": 376,
      "Ġa": 377,
      "ǥƿ": 378,
      "Ǥƺƛ": 379,
      "he": 380,
      "Ǣƀ": 381,
      "Ǧƌ": 382,
      "ǦƵ": 383,
      "Ǧƍ": 384,
      "Ǩơƌ": 385,
      "ǦƖƹ": 386,
      "ǤƼƚ": 387,
      "ǦƯ": 388,
      "ǤƽƠ": 389,
      "ǥƎ": 390,
      "Ǧƛƴ": 391,
      "ǥƜư": 392,
      "ǨƵ": 393,
      "ǦƈƐ": 394,
      "ǥƭƦ": 395,
      "ǥƈư": 396,
      "ƼƟ": 397,
      "er": 398,
      "ǧƮ": 399,
      "ǥƱ": 400,
      "Ǧƕư": 401,
      "ǥƯƹ": 402,
      "Ƹƀ": 403,
      "ǦƗƶ": 404,
      "ǤƸƀǤƸƪ": 405,
      "ǤƺƎ": 406,
      "ǩƜƀ": 407,
      "on": 408,
      "ǦƏƐ": 409,
      "ǥƦƂ": 410,
      "Ǩƾ": 411,
      "ǨƇƪ": 412,
      "ǤƽƜ": 413,
      "an": 414,
      "ǦƈƑǤƻƬ": 415,
      "re": 416,
      "ǤƻƖ": 417,
      "ǩƣ": 418,
      "ǧƱ": 419,
      "ǥƟ": 420,
      "ǥƤƚ": 421,
      "ǥƷƥ": 422,
      "Ǧƴ": 423,
      "ǧƺ": 424,
      "ǧƭƉ": 425,
      "ǦƖƇ": 426,
      "ǩƙ": 427,
      "ǩƫ": 428,
      "ǥƈƆ": 429,
      "ǥƊƨ": 430,
      "ǧƫ": 431,
      "ǦƸ": 432,
      "ƘƯ": 433,
      "ƄǦ": 434,
      "ǥƇƺ": 435,
      "ǨƉ": 436,
      "ǧƐƆ": 437,
      "ǥƏƑ": 438,
      "ǤƸƋ": 439,
      "ǥƁ": 440,
      "ǧƉƩ": 441,
      "ǥƹƶ": 442,
      "ǥƤƧ": 443,
      "ǥƌƖ": 444,
      "ǥƺƔ": 445,
      "ǧƨ": 446,
      "ǩƁ": 447,
      "ǨƿƇ": 448,
      "ǩƜƀǨƦƁ": 449,
      "ǦƱ": 450,
      "ǦƈƖ": 451,
      "ǦƲ": 452,
      "ǧƄ": 453,
      "ǤƸƊ": 454,
      "ƻƥ": 455,
      "ǦƳƕ": 456,
      "ǧƧƍ": 457,
      "te": 458,
      "Ǩƿƛ": 459,
      "Ġi": 460,
      "Ƹƪ": 461,
      "ǦƀƧ": 462,
      "ǦƂƨ": 463,
      "ǦƊƀ": 464,
      "ǤƿƝ": 465,
      "es": 466,
      "Ǩƽ": 467,
      "ǩƀƚ": 468,
      "ǧƎư": 469,
      "ǥƊƛ": 470,
      "ǦƬ": 471,
      "ǥưƆ": 472,
      "Ǥƽƿ": 473,
      "en": 474,
      "ǧƳ": 475,
      "ǥƊƠ": 476,
      "ti": 477,
      "Ƌǥ": 478,
      "Ƅǥ": 479,
      "ǥƥƽ": 480,
      "ƦƂ": 481,
      "ǤƽƓ": 482,
      "ǥƮƚ": 483,
      "ǧơ": 484,
      "Ǩƃ": 485,
      "ǩƝƢ": 486,
      "ƯǤ": 487,
      "Ǩƶ": 488,
      "ǥƅƳ": 489,
      "ǨƧƣ": 490,
      "at": 491,
      "ǩƘ": 492,
      "ĠĠ": 493,
      "ǧƚƄǧ": 494,
      "ǥƮƃ": 495,
      "ƒƌ": 496,
      "ƺǥ": 497,
      "Ġs": 498,
      "ƻǧ": 499,
      "or": 500,
      "ǥƐƌ": 501,
      "ǥƸƸ": 502,
      "Ǩư": 503,
      "ǤƹƟ": 504,
      "ƀǥ": 505,
      "ǦƍƮ": 506,
      "ǩƢƘ": 507,
      "ǥƢ": 508,
      "ƀǤ": 509,
      "ǥƅƶ": 510,
      "ǩƫƘ": 511,
      "Ɯƨ": 512,
      "ǥƻ": 513,
      "ǧƂ": 514,
      "ǩƇƍ": 515,
      "ǦƞƜ": 516,
      "ǨƂ": 517,
      "is": 518,
      "ǧƤ": 519,
      "ǥƭƐ": 520,
      "ǥƓƁ": 521,
      "ǥƀ": 522,
      "ǦƜƯ": 523,
      "ǩƇƏ": 524,
      "ǦƄƟ": 525,
      "Ġo": 526,
      "ƈƑ": 527,
      "ǧƜ": 528,
      "ǩƗƮ": 529,
      "Ǧƃƅ": 530,
      "ơǦ": 531,
      "ǥƺƦ": 532,
      "ǧƱƻ": 533,
      "ǧƝ": 534,
      "st": 535,
      "al": 536,
      "ǩƔ": 537,
      "ǥƊƩ": 538,
      "ǨƊ": 539,
      "ǦƜƀ": 540,
      "ǥƮƶ": 541,
      "ar": 542,
      "nt": 543,
      "Ǧƙƺ": 544,
      "ǥƐƈ": 545,
      "Ġc": 546,
      "ǦƖư": 547,
      "Ǩơƨ": 548,
      "ng": 549,
      "ƀƝ": 550,
      "ǩƗƴ": 551,
      "ǥưƏ": 552,
      "ǧƟ": 553,
      "ǥƉ": 554,
      "ǤƽƿǧƔƨ": 555,
      "ǥƾƗ": 556,
      "ǤƸƚ": 557,
      "ǤƸƀǤƺƛ": 558,
      "ǧƴ": 559,
      "ǦƙƺǨƃƽ": 560,
      "le": 561,
      "ǩƚ": 562,
      "nd": 563,
      "ǨƮơ": 564,
      "ǧƨƋ": 565,
      "ƥƽ": 566,
      "ǧƾ": 567,
      "ǧƻƏ": 568,
      "ǧơƮ": 569,
      "ƀƜ": 570,
      "ǤƹƠ": 571,
      "ƥǥ": 572,
      "ǥƮƞ": 573,
      "Ġǥ": 574,
      "ǥƼƏ": 575,
      "Ƹƭ": 576,
      "ǧƽ": 577,
      "Ǩƀƌ": 578,
      "Ġ=": 579,
      "ǥƸƮ": 580,
      "ƺƺ": 581,
      "ǧƩ": 582,
      "ƌǦ": 583,
      "ƁƯ": 584,
      "ƀǦ": 585,
      "ǩơ": 586,
      "Ǥƾƛ": 587,
      "ǥƽƱ": 588,
      "ǩƦ": 589,
      "ǥƈƶ": 590,
      "ǦƊƀǦƜƯ": 591,
      "Ǩƀƅ": 592,
      "ǦƄƏ": 593,
      "it": 594,
      "ǥƅƬ": 595,
      "**": 596,
      "ƥǤ": 597,
      "ǥƏƯǨƃƽ": 598,
      "Ġp": 599,
      "ǥƛƠ": 600,
      "ƭƉ": 601,
      "ǤƸƎ": 602,
      "ƙƨ": 603,
      "se": 604,
      "ǦƷ": 605,
      "ƏƯ": 606,
      "ǦƜƬ": 607,
      "to": 608,
      "ra": 609,
      "ǨƯƭ": 610,
      "ƨǥ": 611,
      "ǧƕ": 612,
      "ǥƻƺ": 613,
      "ǥƞ": 614,
      "ƸƋ": 615,
      "ǦƏƐǤƾƛ": 616,
      "ǩƂ": 617,
      "ǨƿƛǨơƌ": 618,
      "Ġf": 619,
      "ou": 620,
      "ǩƗƮǩƢƘ": 621,
      "Ǧƴƻ": 622,
      "ǥƱƕ": 623,
      "ǥƅƷ": 624,
      "ǤƺƧ": 625,
      "ǧƳƻ": 626,
      "ǩƕ": 627,
      "ƨǦ": 628,
      "ǦƜƺ": 629,
      "ri": 630,
      "ǨƁ": 631,
      "Ġw": 632,
      "ƽǧ": 633,
      "ǧƛƸ": 634,
      "ƠǦ": 635,
      "ǥƸƮǥƊƩ": 636,
      "ƔƟ": 637,
      "ǤƹƋ": 638,
      "ǧƬ": 639,
      "ƜƉ": 640,
      "ƿƙ": 641,
      "ǨƷ": 642,
      "ǩƃ": 643,
      "ƖƇ": 644,
      "ǧƎƯ": 645,
      "Ġb": 646,
      "ǩƃƽ": 647,
      "ǩƅ": 648,
      "ǨƉƲ": 649,
      "ǥƿƃ": 650,
      "ǨƿƘ": 651,
      "ǥƤƩ": 652,
      "ǩƪ": 653,
      "ǥƅƥ": 654,
      "ǧƉƹ": 655,
      "Ǥƹƈ": 656,
      "ǤƸƻ": 657,
      "ƺǨ": 658,
      "ǥƊơ": 659,
      "ǧƠ": 660,
      "ǧƃ": 661,
      "00": 662,
      "ǥƖ": 663,
      "ǦƃƳ": 664,
      "io": 665,
      "Ɔǥ": 666,
      "ǧƮƗ": 667,
      "ǧƄƶ": 668,
      "Ġ1": 669,
      "ǨƯƥ": 670,
      "de": 671,
      "ǦƕưǦƍƮ": 672,
      "Ġ\\": 673,
      "ǨƢ": 674,
      "ǨƮƩ": 675,
      "ǩƛ": 676,
      "ǧƔƵ": 677,
      "ǦƌƁ": 678,
      "me": 679,
      "ǦƉƀ": 680,
      "ǥƭƦǤƹƠ": 681,
      "ƭƤ": 682,
      "ve": 683,
      "ǧƼ": 684,
      "ǥƝ": 685,
      "ǦƟ": 686,
      "ƺƫ": 687,
      "Ǧơ": 688,
      "ƨǨ": 689,
      "ǧƂƹ": 690,
      "ǨƿƙǤƺƛ": 691,
      "Ƅǧ": 692,
      "ǩƀƚǨƿƇ": 693,
      "ed": 694,
      "ǩƟ": 695,
      "Ǩƙ": 696,
      "ǥƅƨ": 697,
      "ǥƷƱ": 698,
      "ǥƏƘ": 699,
      "ǦƘƎ": 700,
      "Ƹƺ": 701,
      "ǨƇƪǥƷƱ": 702,
      "ƼƉ": 703,
      "co": 704,
      "ưƏ": 705,
      "ƥǦ": 706,
      "as": 707,
      "Ǧưƴ": 708,
      "ƭƦ": 709,
      "ƟǦ": 710,
      "ǤƺƺǥƷƥ": 711,
      "ǧƻƙ": 712,
      "ǤƻƎ": 713,
      "ƑǦ": 714,
      "ǥƾƈ": 715,
      "Ġm": 716,
      "Ġd": 717,
      "ǤƽƆ": 718,
      "ǥƛƽ": 719,
      "ǧƝƀ": 720,
      "ǦƮ": 721,
      "Ǥƽƕ": 722,
      "ǩƀƂ": 723,
      "Ǥƻƣ": 724,
      "li": 725,
      "ƶǥ": 726,
      "Ƽƈ": 727,
      "ǤƺƺǥƷƥǦƙƺǨƃƽ": 728,
      "Ɣƨ": 729,
      "ĠǦ": 730,
      "ǩƣƟ": 731,
      "ǦưƔ": 732,
      "ta": 733,
      "ǩƀƉ": 734,
      "ce": 735,
      "ǨƿƙǤƸƪ": 736,
      "ǨƐ": 737,
      "Əǥ": 738,
      "Ƒǥ": 739,
      "ǤƺƋ": 740,
      "ro": 741,
      "ƪǥ": 742,
      "Ɨƶ": 743,
      "ƪǦ": 744,
      "ưǥ": 745,
      "Ǩƨ": 746,
      "ea": 747,
      "ic": 748,
      "ǨƮƾ": 749,
      "ƦƁ": 750,
      "of": 751,
      "Ưǥ": 752,
      "ƽƓ": 753,
      "ǧƛƮ": 754,
      "ǦƈƷ": 755,
      "ƽƠ": 756,
      "ƢƘ": 757,
      "ǥƌƅ": 758,
      "ƕư": 759,
      "ǥƐƎ": 760,
      "ƏǦ": 761,
      "ǩƝƞ": 762,
      "ǥƏƖ": 763,
      "ƌǥ": 764,
      "ƹǦ": 765,
      "ƅǦ": 766,
      "ǥƏƊ": 767,
      "ƙǤ": 768,
      "ǦƯƔ": 769,
      "ǨƋ": 770,
      "Ɩǥ": 771,
      "ƨǧ": 772,
      "ǤƺƤ": 773,
      "ƾƋ": 774,
      "ǥƸƂ": 775,
      "ǨƯƷ": 776,
      "ǥƏƗ": 777,
      "ha": 778,
      "ǧƖ": 779,
      "ǥƐƍ": 780,
      "Ǧƕƈ": 781,
      "ǩƥ": 782,
      "ǧƻƟ": 783,
      "ǦƯƏ": 784,
      "ƈƐ": 785,
      "ǧƐƃ": 786,
      "Ƈǥ": 787,
      "ǥƹƳ": 788,
      "Ǧƭƣ": 789,
      "ƋǦ": 790,
      "ǧƋ": 791,
      "ǥƽƓ": 792,
      "ǤƸƍǥƐƌ": 793,
      "10": 794,
      "Ǥƻƻ": 795,
      "Ġr": 796,
      "Ɵǥ": 797,
      "ǦƘƯǤƸƀ": 798,
      "ǥƜƺ": 799,
      "Ġe": 800,
      "Ǩƴƨ": 801,
      "ƐǤ": 802,
      "ǥƦƂǦƞƜ": 803,
      "ƽǥ": 804,
      "ne": 805,
      "ac": 806,
      "ǥƓƍ": 807,
      "Ƈǧ": 808,
      "ǧƾƎ": 809,
      "ǩƕƿ": 810,
      "ǩƇƍǨƦƁ": 811,
      "ƺƐ": 812,
      "ǥƈƛ": 813,
      "ǥƤƟ": 814,
      "ǦƱƂ": 815,
      "ns": 816,
      "ƍǥ": 817,
      "Ƅƶ": 818,
      "ƖƗ": 819,
      "Ǧƶ": 820,
      "et": 821,
      "ǨƢƫ": 822,
      "ǥƺƔǧƔƨ": 823,
      "ǥƭƗ": 824,
      "ǤƻƥǤƸƋ": 825,
      "ƻƬ": 826,
      "Ǝǥ": 827,
      "ǧƯ": 828,
      "ƑǤ": 829,
      "Ġ2": 830,
      "ǤƻƖǤƻƬ": 831,
      "om": 832,
      "Ʈǩ": 833,
      "ǥƆƅ": 834,
      "ǤƸƭǧƚƄ": 835,
      "ƥǨ": 836,
      "ǥƆƳ": 837,
      "ǧƈ": 838,
      "ǩƁƓ": 839,
      "ǥƈƩ": 840,
      "Ɲƥ": 841,
      "ǥƞƋ": 842,
      "ǧƗ": 843,
      "ƇǦ": 844,
      "Ƹƍ": 845,
      "ƴǥ": 846,
      "ǨƵƷ": 847,
      "``": 848,
      "ur": 849,
      "ǥƽƱǥƓƍ": 850,
      "ƨơ": 851,
      "ǥƢƃ": 852,
      "ǥƤƄ": 853,
      "Ơǥ": 854,
      "AI": 855,
      "20": 856,
      "Ġn": 857,
      "Ǥƻƶ": 858,
      "ǩƃƨ": 859,
      "ll": 860,
      "ǥƏƑǥƱƕ": 861,
      "ǩƂƣ": 862,
      "Ǩƈ": 863,
      "si": 864,
      "ǧƥ": 865,
      "la": 866,
      "ƀǨ": 867,
      "ƈƆ": 868,
      "ǥưƑ": 869,
      "ǦƠƇ": 870,
      "ǩƝƞǥƸƸ": 871,
      "Ǥƽƍ": 872,
      "ƀǧ": 873,
      "--": 874,
      "ǩƣƎ": 875,
      "ma": 876,
      "ǦƉƋ": 877,
      "ǧƻƓ": 878,
      "Ʈǥ": 879,
      "ƺƆ": 880,
      "Ġl": 881,
      "ǩƢƆ": 882,
      "ƞƜ": 883,
      "ǦƗƶǩƗƴ": 884,
      "ƄǤ": 885,
      "ǦƳƨ": 886,
      "ǥƹƴ": 887,
      "el": 888,
      "Ƭǥ": 889,
      "ƗƮ": 890,
      "Ġh": 891,
      "ǥƏƸ": 892,
      "ǩƜ": 893,
      "ǩƟƳ": 894,
      "ƄǨ": 895,
      "ǥƮƉ": 896,
      "ƏƐ": 897,
      "ǨƱ": 898,
      "ƺƎ": 899,
      "ƺǤ": 900,
      "ǦƋƩ": 901,
      "ǩƇƌ": 902,
      "ǧƧƑ": 903,
      "ǩƀƉǦƋƩ": 904,
      "ǨƮƮ": 905,
      "ǨƯƆ": 906,
      "pr": 907,
      "ƆǦ": 908,
      "hi": 909,
      "Ƃƨ": 910,
      "ǥƈƫ": 911,
      "ca": 912,
      "Ǩƍ": 913,
      "Ǥƻƀ": 914,
      "Ʒƥ": 915,
      "ƽƜ": 916,
      "Ɖǥ": 917,
      "Ġ-": 918,
      "Ƥǥ": 919,
      "Ƙǥ": 920,
      "ǥƼƀ": 921,
      "ǦƁ": 922,
      "ǥƦƂǤƽƕ": 923,
      "Ưƹ": 924,
      "ǥƟƟ": 925,
      "ǨƃƽǥƤƟ": 926,
      "ǧƤƾ": 927,
      "ơǦƁƯ": 928,
      "ƙǥ": 929,
      "nc": 930,
      "ǥƅƬǥƏƸ": 931,
      "ǦƜƟ": 932,
      "ƺƦ": 933,
      "ǦƵƁ": 934,
      "ǩƻ": 935,
      "ǤƿơǦƁƯ": 936,
      "ct": 937,
      "ǤƻƀǤƹƈ": 938,
      "ǥƷƥǤƽƜ": 939,
      "ƺǦ": 940,
      "ǧƲ": 941,
      "ho": 942,
      "Ġ|": 943,
      "Ǩƺƫ": 944,
      "ǧƟƥ": 945,
      "ǦƗƠ": 946,
      "Ɛǥ": 947,
      "ǨƏ": 948,
      "ǧƙ": 949,
      "ǥƉƍ": 950,
      "Ġ*": 951,
      "ch": 952,
      "ǩƒ": 953,
      "ǥƽƢ": 954,
      "ǦƠƹ": 955,
      "ưǦ": 956,
      "ǧƁ": 957,
      "ƻǥ": 958,
      "ƛƠ": 959,
      "ǧƎƯǥƢƃ": 960,
      "ǦƏƐǩƫƘ": 961,
      "ƍǦ": 962,
      "ǥƑƘ": 963,
      "ǥƯƼ": 964,
      "ǦƠƷ": 965,
      "ǦƜƍ": 966,
      "ǦƖƹǥƼƏ": 967,
      "Ǩƀƃ": 968,
      "ǥưƱ": 969,
      "ǦƔƾ": 970,
      "ǨƄ": 971,
      "ǧƜƋ": 972,
      "ƅǥ": 973,
      "ǦƜƪ": 974,
      "ƘƎ": 975,
      "um": 976,
      "ǨƯƍ": 977,
      "ƉǦ": 978,
      "fo": 979,
      "ǥƍƕ": 980,
      "ǥƁƥ": 981,
      "ǦƗƥ": 982,
      "ec": 983,
      "ǥƕ": 984,
      "ǥƆƙ": 985,
      "be": 986,
      "ǤƹƐ": 987,
      "ǥƼƺ": 988,
      "ǩƩ": 989,
      "ǦƸƸ": 990,
      "Ǧƛƴǥƥƽ": 991,
      "Ǩưƃ": 992,
      "ot": 993,
      "ƙǦ": 994,
      "ǦƌƇ": 995,
      "Ġǧ": 996,
      "ƚǥ": 997,
      "ǥƟƺ": 998,
      "ǨƯƴ": 999,
      "ǤƺƺǧƱƻ": 1000,
      "ǥƎƻ": 1001,
      "ǨƇƪǥƷƱǧƚƄ": 1002,
      "ǦƊƤ": 1003,
      "ƺǧ": 1004,
      "ǨƮƤ": 1005,
      "ƇƏ": 1006,
      "Əǧ": 1007,
      "ƍƮ": 1008,
      "ǥƮƃǤƻƬ": 1009,
      "ƹƋ": 1010,
      "Ɓǥ": 1011,
      "ǦƋƬ": 1012,
      "ǨƎ": 1013,
      "rs": 1014,
      "ǦƖƹǦƳƕ": 1015,
      "ǦƛƴǥƊƠ": 1016,
      "ǦƠƼ": 1017,
      "ǦƷƱ": 1018,
      "Ɩƹ": 1019,
      "ǥƅƶǤƻƖ": 1020,
      "ǧƔƟǦƴƻ": 1021,
      "lo": 1022,
      "ƹƴ": 1023,
      "ǥƮƢ": 1024,
      "ǨƊƂ": 1025,
      "ơƌ": 1026,
      "ǥƺƔǨƯƥ": 1027,
      "na": 1028,
      "ǧƴƠ": 1029,
      "Ǩƿư": 1030,
      "ƩǦ": 1031,
      "ƸƊ": 1032,
      "ǧƫƠ": 1033,
      "ǧƮơ": 1034,
      "ƶǦ": 1035,
      "ǥƐƄ": 1036,
      "ǦƖƭ": 1037,
      "ǦƠƹǦƍƮ": 1038,
      "Ƨǥ": 1039,
      "ƤƖ": 1040,
      "ǦƙƯ": 1041,
      "Ǧƻ": 1042,
      "ƛǥ": 1043,
      "ǨƧƂ": 1044,
      "ǥƺƷ": 1045,
      "Ʊǥ": 1046,
      "ǦƉƾ": 1047,
      "ƿƝ": 1048,
      "ƧƋ": 1049,
      "ǨƯƕ": 1050,
      "Ǧƕƙ": 1051,
      "Ɠǥ": 1052,
      "ƦǤ": 1053,
      "Ưǧ": 1054,
      "di": 1055,
      "ǤƸƤ": 1056,
      "ƾǥ": 1057,
      "ǩƢƆǥƟƟ": 1058,
      "ƪǧ": 1059,
      "ǤƼƠ": 1060,
      "ǦƵƋ": 1061,
      "ǧƻƄ": 1062,
      "ǥƈƗ": 1063,
      "ǤƾƋ": 1064,
      "us": 1065,
      "Ǧƭƥ": 1066,
      "ơǧ": 1067,
      "ǨƮơǧƮƗ": 1068,
      "ǥƐƑ": 1069,
      "Ǩƣ": 1070,
      "ƙƺ": 1071,
      "Ƃǥ": 1072,
      "ǦƔƹ": 1073,
      "ǩƪƌ": 1074,
      "ƮǦ": 1075,
      "ge": 1076,
      "ƀƻ": 1077,
      "ǥƸƦ": 1078,
      "tr": 1079,
      "ǥƁƥǥƺƷ": 1080,
      "ǦƖƇǧƫƠ": 1081,
      "ǥƌƅǦƋƬ": 1082,
      "ƯǦ": 1083,
      "ƫƘ": 1084,
      "ǩƀƠ": 1085,
      "ǥƇƆ": 1086,
      "Ɖǧ": 1087,
      "ǦƖƙ": 1088,
      "ƂǦ": 1089,
      "ǥƇƏ": 1090,
      "Ɯƺ": 1091,
      "ǨƿƐ": 1092,
      "ƻǤ": 1093,
      "pe": 1094,
      "ǤƼƘ": 1095,
      "ƐƆ": 1096,
      "ǥƏƥ": 1097,
      "ƸƸ": 1098,
      "ƭƐ": 1099,
      "ƽǦ": 1100,
      "ƿǧ": 1101,
      "ƛƴ": 1102,
      "ǦƖƹǩƝƢ": 1103,
      "ǥƮƹ": 1104,
      "ǦƞƐ": 1105,
      "ǥƤƇ": 1106,
      "ǥƛƞ": 1107,
      "ƤƩ": 1108,
      "ǧƔƱ": 1109,
      "Ɠǧ": 1110,
      "il": 1111,
      "Ġ$": 1112,
      "Ǩƾƾ": 1113,
      "ƻǧƖƗ": 1114,
      "Th": 1115,
      "ǤƺƆǨƧƣ": 1116,
      "Ǧƕƴ": 1117,
      "Ƈƺ": 1118,
      "ǥƷƲ": 1119,
      "ƝƢ": 1120,
      "ǥƏƯǤƻƥǥƸƮǥƊƩ": 1121,
      "ǥƻƺǨƮƮ": 1122,
      "ǧƳƻǧƻƟ": 1123,
      "Ơǧ": 1124,
      "ǥƈƆǦƞƐ": 1125,
      "ut": 1126,
      "ǥƀƼ": 1127,
      "ǦƜƺǥ": 1128,
      "Ƅǩ": 1129,
      "ǥƢƞ": 1130,
      "ǧƿ": 1131,
      "ǨƧƆ": 1132,
      "ǥƺƏ": 1133,
      "Ǩƨƀ": 1134,
      "ƍǨ": 1135,
      "ǤƺƺǤƻƬ": 1136,
      "ƈư": 1137,
      "pl": 1138,
      "ƗǦ": 1139,
      "ƼƁ": 1140,
      "Ɓǧ": 1141,
      "ǥƁƚ": 1142,
      "Ġ3": 1143,
      "ƀƋ": 1144,
      "ǩƓ": 1145,
      "ǤƻƷ": 1146,
      "im": 1147,
      "ol": 1148,
      "ƀƊ": 1149,
      "Ƒǧ": 1150,
      "ǦƜƺǥƙƨ": 1151,
      "ow": 1152,
      "ǦƵƷ": 1153,
      "Ƈƪ": 1154,
      "ƻƙ": 1155,
      "ǥƏƪ": 1156,
      "we": 1157,
      "ǦƖƇǥƌƖ": 1158,
      "Ƴǥ": 1159,
      "ǥƎƆ": 1160,
      "Ʀǥ": 1161,
      "Ɩǧƕ": 1162,
      "ƁǦ": 1163,
      "ƹǥ": 1164,
      "ƷǦ": 1165,
      "ǧƤƺ": 1166,
      "ǩƢƄ": 1167,
      "ǦƲơ": 1168,
      "Ġ(": 1169,
      "ǥƮƌ": 1170,
      "ǥƊƟ": 1171,
      "ǧƎƇ": 1172,
      "ƎǦ": 1173,
      "ǦƎƥ": 1174,
      "ƨǤ": 1175,
      "ƈǥ": 1176,
      "Ɛƌ": 1177,
      "ǧƽƑ": 1178,
      "ǨƽƦ": 1179,
      "ul": 1180,
      "ƞǥ": 1181,
      "ǦƜƪǦƝƥ": 1182,
      "ƉƩ": 1183,
      "Ġy": 1184,
      "ƜƬ": 1185,
      "ǥƑƳ": 1186,
      "un": 1187,
      "Ɔǧ": 1188,
      "ǧƊ": 1189,
      "ǥƆƵ": 1190,
      "ǧƚƄǦ": 1191,
      "Ưƭ": 1192,
      "ǩơƹ": 1193,
      "ǦƬƢ": 1194,
      "Ʈƚ": 1195,
      "ƿƇ": 1196,
      "ĠǨ": 1197,
      "ǨƮƺ": 1198,
      "Ǧơƈ": 1199,
      "ǦƔƯ": 1200,
      "Ġ+": 1201,
      "ǥƐƦ": 1202,
      "ǥƹƿ": 1203,
      "Ʈơ": 1204,
      "Ġ\"": 1205,
      "ǥƤƄǧƐƆ": 1206,
      "ǥƤƖ": 1207,
      "ǦƀƝ": 1208,
      "ƜǦ": 1209,
      "ex": 1210,
      "ss": 1211,
      "ƍǧ": 1212,
      "Ɩǧ": 1213,
      "ǦƘƯǤƸƀǤƸƪ": 1214,
      "ƄƏ": 1215,
      "ƶǤ": 1216,
      "ƭƔ": 1217,
      "ǤƸƔ": 1218,
      "ƌƖ": 1219,
      "ƅƶ": 1220,
      "ƅƳ": 1221,
      "ƹǨ": 1222,
      "ƻƖ": 1223,
      "Ǥƿơ": 1224,
      "ǥƼƕ": 1225,
      "ǨƇƪǧƄƶ": 1226,
      "ǨƮƸ": 1227,
      "ǥƐƗ": 1228,
      "ƐƎ": 1229,
      "ǩƸ": 1230,
      "ǦƮƵ": 1231,
      "ƌǧ": 1232,
      "ǥƭƘ": 1233,
      "Ɗƨ": 1234,
      "Ƴƕ": 1235,
      "ǥƏƣ": 1236,
      "ǧƦ": 1237,
      "Ɣǥ": 1238,
      "ƹƈ": 1239,
      "ǥƛƠǤƸƺ": 1240,
      "ǥƌƺ": 1241,
      "ǥƓƪ": 1242,
      "ǤƻƥǥƏƊ": 1243,
      "ƭǥ": 1244,
      "ǤƺƧǥƓƁ": 1245,
      "Ɯư": 1246,
      "ĠT": 1247,
      "rt": 1248,
      "ǦƛƴǥƥƽǥƜư": 1249,
      "ƯƷ": 1250,
      "ǤƹƉ": 1251,
      "ts": 1252,
      "ƺƛ": 1253,
      "ǦƭƤ": 1254,
      "em": 1255,
      "ƌǨ": 1256,
      "ǤƸƪǤƺƺ": 1257,
      "ǦƞƁ": 1258,
      "ǥƈƙ": 1259,
      "ƆǨ": 1260,
      "ǧƩƺ": 1261,
      "ǧƺƿ": 1262,
      "ĠA": 1263,
      "ƢǦ": 1264,
      "ly": 1265,
      "ǦƲơǦƜƉ": 1266,
      "ƤƧ": 1267,
      "ǨƇƴ": 1268,
      "Ɨǥ": 1269,
      "ǥƅƉ": 1270,
      "ƑǨ": 1271,
      "ĠS": 1272,
      "ǥƈƒ": 1273,
      "ƌǤ": 1274,
      "ǥƏƍ": 1275,
      "ǧƔƨǦƈƷ": 1276,
      "ǥƅƳǤƺƎ": 1277,
      "ǨƙƑ": 1278,
      "ǥƣ": 1279,
      "ǨƯƝ": 1280,
      "ǥƿƫ": 1281,
      "ǧơƮǤƿƝ": 1282,
      "no": 1283,
      "ƶǨ": 1284,
      "ǨƵƄ": 1285,
      "fi": 1286,
      "id": 1287,
      "ĠǤ": 1288,
      "ǥƤƍ": 1289,
      "ƹƠ": 1290,
      "Ɵǧ": 1291,
      "ǤƸƉ": 1292,
      "ǦƛƴǥƤƚ": 1293,
      "ǨƶƊ": 1294,
      "ǤƿƝǦƊƤ": 1295,
      "Ɵƥ": 1296,
      "ǩƙƩ": 1297,
      "ƃƏ": 1298,
      "iv": 1299,
      "po": 1300,
      "ƆǤ": 1301,
      "ǦƬơ": 1302,
      "Ǧƣ": 1303,
      "ǧƫƋ": 1304,
      "ǦƗƅ": 1305,
      "ǥƮƉǥƅƨ": 1306,
      "ƪǨ": 1307,
      "Ɗƀ": 1308,
      "ƏƑ": 1309,
      "ƥǩ": 1310,
      "so": 1311,
      "ƿǥ": 1312,
      "ƠǤ": 1313,
      "Ƽƛ": 1314,
      "ƻƺ": 1315,
      "ǩƤ": 1316,
      "ǦƎƒ": 1317,
      "ĊĠ": 1318,
      "am": 1319,
      "ƾƎ": 1320,
      "ƺƔ": 1321,
      "ƝǦ": 1322,
      "ǤƽƠǧƚƄ": 1323,
      "ie": 1324,
      "ƥǧ": 1325,
      "ǦƏƏ": 1326,
      "ƀƌ": 1327,
      "ǦƘƟ": 1328,
      "Ʃǥ": 1329,
      "ǥƏƂ": 1330,
      "ǥƤƪ": 1331,
      "Ǧƨơ": 1332,
      "ǥƎƟ": 1333,
      "ƈǦ": 1334,
      "ǦƈƑǤƻƬǧƚƄ": 1335,
      "mi": 1336,
      "Ʒǥ": 1337,
      "Ɣǧ": 1338,
      "ƉǤ": 1339,
      "Ġg": 1340,
      "Ǩƾƃ": 1341,
      "ǥƖƜ": 1342,
      "ƨǩ": 1343,
      "ưƆ": 1344,
      "su": 1345,
      "ƀƚ": 1346,
      "ǦƜƍǥƊơ": 1347,
      "Ƭǧ": 1348,
      "ƴǦ": 1349,
      "ǨƊƱ": 1350,
      "ǨƧƣǥƆƳ": 1351,
      "nu": 1352,
      "Ǝǧ": 1353,
      "$$": 1354,
      "ǦƔƶ": 1355,
      "ǦƴƻǥƊƨ": 1356,
      "ǦƈƘ": 1357,
      "ǩƀƚǥƸƸ": 1358,
      "Ɛǩ": 1359,
      "ǨƃƽǥƊƛ": 1360,
      "mp": 1361,
      "ee": 1362,
      "Ɗƛ": 1363,
      "ǧƔƟǦƈƐ": 1364,
      "ǨƯƭǨƨƀ": 1365,
      "ǩƀƟ": 1366,
      "ǩƅƍ": 1367,
      "ǥƅƱ": 1368,
      "ǦƼ": 1369,
      "ǧƮƀ": 1370,
      "ơǥ": 1371,
      "ƫƠ": 1372,
      "ƀƧ": 1373,
      "ƚǧ": 1374,
      "ǧƯƇ": 1375,
      "ai": 1376,
      "ǦƸƅ": 1377,
      "ǩƘƟ": 1378,
      "ƊƠ": 1379,
      "ƬǤ": 1380,
      "ƅƧ": 1381,
      "wi": 1382,
      "Ʀǧ": 1383,
      "Ƹǥ": 1384,
      "ǦƖƇǦƜƬ": 1385,
      "Ƨƣ": 1386,
      "ǥƇƠ": 1387,
      "ǩƇƇ": 1388,
      "ǦƜƛ": 1389,
      "ƎǤ": 1390,
      "ǥƑƊ": 1391,
      "ǨƱơ": 1392,
      "ǥƟƎ": 1393,
      "ƞǧ": 1394,
      "ǦƈƖǨƀƅ": 1395,
      "ǥƮƞǧƎư": 1396,
      "Ƥƚ": 1397,
      "ni": 1398,
      "Ǩƌ": 1399,
      "ǧƌ": 1400,
      "Ġǩ": 1401,
      "ƳǤ": 1402,
      "ǨƯƄ": 1403,
      "Ǥƾƿ": 1404,
      "ǤƻƻǥƊơ": 1405,
      "ig": 1406,
      "ǦƂƨǧƚƄ": 1407,
      "ƭǧ": 1408,
      "ƊǦ": 1409,
      "ƓǦ": 1410,
      "ǧƮơǧƐƆ": 1411,
      "ƚǨ": 1412,
      "ƃǥ": 1413,
      "ǧƗƅ": 1414,
      "ƽƿ": 1415,
      "ƛǦ": 1416,
      "ǨƶƳ": 1417,
      "ǧƈƱ": 1418,
      "ǧƩƶ": 1419,
      "ǤƸƍǥƐƌǧƚƄ": 1420,
      "ưƔ": 1421,
      "ǧƛƴ": 1422,
      "ƶǩ": 1423,
      "ǥƐƌǦƗƶ": 1424,
      "ǨƑ": 1425,
      "ƋƬ": 1426,
      "ǨƮƸǥƤƚ": 1427,
      "ưǧ": 1428,
      "ǥƏƯǨƃƽǤƼƚ": 1429,
      "ǨƧƒ": 1430,
      "ǥƷƲǧƻƏ": 1431,
      "ƣǥ": 1432,
      "ǧƧƯ": 1433,
      "ƭǦ": 1434,
      "ƘǦ": 1435,
      "ǦƎƨ": 1436,
      "ƌƅ": 1437,
      "ǨƏƜ": 1438,
      "ƻǦ": 1439,
      "ǦƃƅǥƆƵ": 1440,
      "Ǧƀƻ": 1441,
      "ǧƻƃ": 1442,
      "ǤƿƝǦƌƁ": 1443,
      "ǦƖƽ": 1444,
      "ǨƧƄ": 1445,
      "ǦƞƄ": 1446,
      "ǦƊƕ": 1447,
      "ǨƮƾǨƮơ": 1448,
      "ƏǨ": 1449,
      "ǨƧƉ": 1450,
      "ǦƖưǧƚƄ": 1451,
      "ǥƥƹ": 1452,
      "Ɨƴ": 1453,
      "Ɲǥ": 1454,
      "ǥƥƽǧƚƄ": 1455,
      "Ǩƽƻ": 1456,
      "ƔƮ": 1457,
      "ƵƷ": 1458,
      "ir": 1459,
      "ƿƛ": 1460,
      "Ưƴ": 1461,
      "Ɛƍ": 1462,
      "ƯƝ": 1463,
      "ǤƹƋǩƗƴ": 1464,
      "ǧƻƆ": 1465,
      "Ġ5": 1466,
      "ǦƘƯǥƐƦ": 1467,
      "Ǧƕƅ": 1468,
      "ǦƘƯǤƸƀǧƧƍ": 1469,
      "ƖǦ": 1470,
      "ƈǧ": 1471,
      "ke": 1472,
      "Ǥƺƒ": 1473,
      "ǥƈưǤƺƆ": 1474,
      "ǤƹƋǤƸƀ": 1475,
      "ǦƎƢ": 1476,
      "ǦƑ": 1477,
      "ǦƎƧ": 1478,
      "ƛǨ": 1479,
      "ǧƤƾǤƼƚ": 1480,
      "fr": 1481,
      "ƌƻ": 1482,
      "yo": 1483,
      "ƟǨ": 1484,
      "ƃƅ": 1485,
      "Ƌǧ": 1486,
      "ci": 1487,
      "ƻǨ": 1488,
      "ưǤ": 1489,
      "Ƶǥ": 1490,
      "ƋǤ": 1491,
      "Ƴǧ": 1492,
      "ǥƅƃ": 1493,
      "ad": 1494,
      "qu": 1495,
      "tu": 1496,
      "ƔǧƩƶ": 1497,
      "ǥƅƍ": 1498,
      "Ƥƍ": 1499,
      "ǨƮƤǤƸƺ": 1500,
      "ƊƩ": 1501,
      "ǨƀƃǨƙƑ": 1502,
      "ƚǦ": 1503,
      "ǨƿƑ": 1504,
      "ǦƈƐǤƸƺ": 1505,
      "ƮƵ": 1506,
      "ǧƻƭ": 1507,
      "ƉƲ": 1508,
      "Ɔƙ": 1509,
      "ƨƋ": 1510,
      "ƤǤ": 1511,
      "ǧƐƆǨƧƣ": 1512,
      "ƖǤ": 1513,
      "mo": 1514,
      "ǥƌƻ": 1515,
      "Ǩƶƣ": 1516,
      "Ʊƻ": 1517,
      "ǤƸƻǨƦƁ": 1518,
      "ƸƮ": 1519,
      "Ƙǧ": 1520,
      "ǦƏƏǨƿư": 1521,
      "ƅƃ": 1522,
      "ǥƛƢ": 1523,
      "ƎƯ": 1524,
      "ǧƔƵǥƽƱ": 1525,
      "ǥƇƏǥưƑ": 1526,
      "ƜƯ": 1527,
      "ǨƽƬ": 1528,
      "ǨƂƲ": 1529,
      "vi": 1530,
      "ǦƝƐ": 1531,
      "ǨƎƷ": 1532,
      "ǤƸƖǧƕ": 1533,
      "os": 1534,
      "ǧƻƴ": 1535,
      "ǥƏƲ": 1536,
      "ǩƟƳǤƹƐ": 1537,
      "ǩƛƆ": 1538,
      "ǥƐƫ": 1539,
      "ǦƔƿ": 1540,
      "ƄƟ": 1541,
      "pa": 1542,
      "ǤƸƓ": 1543,
      "ĠI": 1544,
      "ǥƅƷǦƜƉ": 1545,
      "bo": 1546,
      "ƿơ": 1547,
      "Ǩƛ": 1548,
      "ƜƟ": 1549,
      "ƦƖ": 1550,
      "ǧƥƞ": 1551,
      "if": 1552,
      "ǨƧƁ": 1553,
      "ǧƔƨǤƺƎ": 1554,
      "ǤƸƭǥƛƽ": 1555,
      "ǨƾƓ": 1556,
      "do": 1557,
      "ǦƃƅǦƄƟ": 1558,
      "ǥƕƆ": 1559,
      "ǩƇƑ": 1560,
      "ǦƺƐ": 1561,
      "ĠC": 1562,
      "ǩƚƾ": 1563,
      "ƸǦ": 1564,
      "ǧƎƯǤƿƝ": 1565,
      "ǤƸƀǧƧƍ": 1566,
      "ƅƈ": 1567,
      "ue": 1568,
      "ǥƮƚǧƚƄ": 1569,
      "ƚǤ": 1570,
      "ǥƅƈ": 1571,
      "ǤƸƖǧƕƌ": 1572,
      "ƾƈ": 1573,
      "Ƥƾ": 1574,
      "Ġ4": 1575,
      "Ɖƀ": 1576,
      "ƱǦ": 1577,
      "Ɨƥ": 1578,
      "Ơƹ": 1579,
      "ǧƢ": 1580,
      "ǩƜƀǦƱƂ": 1581,
      "ǥƸƂǥƜƺ": 1582,
      "ǥƸƦǦƝƥ": 1583,
      "##": 1584,
      "ƳǦ": 1585,
      "ƜƋ": 1586,
      "Ǥƺƫ": 1587,
      "ǥƮƢǦƈƷ": 1588,
      "12": 1589,
      "ǥƏƯǤƻƥǩƀƚǨƿƇ": 1590,
      "ƜǤ": 1591,
      "Ɖƍ": 1592,
      "ǩƤƐ": 1593,
      "Ɗǥ": 1594,
      "\\(": 1595,
      "ǨƿƇǧƨƋ": 1596,
      "\\)": 1597,
      "ǤƾƋǥƦƂ": 1598,
      "ưƴ": 1599,
      "ƍǤ": 1600,
      "ǥƏƋ": 1601,
      "ǥƟƎǥƸƂ": 1602,
      "ǥƤƧǧƚƄ": 1603,
      "50": 1604,
      "ưƢ": 1605,
      "Ƌǩ": 1606,
      "ǧƼƖ": 1607,
      "ǦƘƓ": 1608,
      "Ưƍ": 1609,
      "ƐǦ": 1610,
      "ǧƴƢ": 1611,
      "ƹƶ": 1612,
      "Ǥƻƽ": 1613,
      "Ʃǧ": 1614,
      "Ɯǥ": 1615,
      "ǧƚƄǤƺƺ": 1616,
      "Ɛǧ": 1617,
      "ƅƥ": 1618,
      "ǧƽƮ": 1619,
      "ep": 1620,
      "ǨƯƁ": 1621,
      "ǩƀƂǥƐƈ": 1622,
      "ǩƘƳ": 1623,
      "ǥƯƼǨƇƴ": 1624,
      "ǨƁƔ": 1625,
      "ƙǨ": 1626,
      "ǧƮƗǦƳƕ": 1627,
      "ǩƇƍǨƦƁǧƚƄ": 1628,
      "ǤƹƦ": 1629,
      "ǨƺƫǤƽƓ": 1630,
      "rm": 1631,
      "ǥƐƄǧƧƍ": 1632,
      "Ǩƴƹ": 1633,
      "ǨƮư": 1634,
      "Ʒǧ": 1635,
      "ƭƗ": 1636,
      "ƛƞ": 1637,
      "ƼƠ": 1638,
      "ƍƐ": 1639,
      "Ƨƍ": 1640,
      "ǥƧ": 1641,
      "ǧƠƁ": 1642,
      "ǥƯƹǤƺƎ": 1643,
      "ǦƸƩ": 1644,
      "ƔǦ": 1645,
      "ǨƷƯ": 1646,
      "ǨƿƙǧƧƍ": 1647,
      "ǨƮơǥƈƒ": 1648,
      "Ʈǧ": 1649,
      "ǦƉƍ": 1650,
      "ƓƁ": 1651,
      "Ʈƶ": 1652,
      "Ɨǧ": 1653,
      "ǧƛƮǦƠƇ": 1654,
      "ǥƐƬ": 1655,
      "ǦƉƀǦƜƉ": 1656,
      "ǥƊƿ": 1657,
      "ǥƏƘǥƌƖ": 1658,
      "ǥƌƻǧƖƗ": 1659,
      "ǥƼƀǥ": 1660,
      "ƂǤ": 1661,
      "Əƥ": 1662,
      "ǦƝơ": 1663,
      "ƷƱ": 1664,
      "ƴǧ": 1665,
      "Ǧƭƌ": 1666,
      "Ƣǧ": 1667,
      "da": 1668,
      "oo": 1669,
      "ƪǤ": 1670,
      "ơƨ": 1671,
      "Ƣǥ": 1672,
      "ǥƀƙ": 1673,
      "ǤƸƀǤƸƋ": 1674,
      "ǩƥƮ": 1675,
      "ǥƅƷǤƽƓ": 1676,
      "ǥƑƽ": 1677,
      "ǥƑƢ": 1678,
      "ǧƧƑǦƊƀ": 1679,
      "ǦƐ": 1680,
      "ǥưƽ": 1681,
      "ǨƐƥ": 1682,
      "ǧƬƦ": 1683,
      "ǤƻƥǤƸƋǦƘƯ": 1684,
      "ǣƁ": 1685,
      "ǦƔƯǦƌƁ": 1686,
      "ǩƦƖ": 1687,
      "ǦƬƾ": 1688,
      "ǥƐƸ": 1689,
      "ǦƉƓ": 1690,
      "ƌƁ": 1691,
      "ia": 1692,
      "Ǝư": 1693,
      "Ǩƥ": 1694,
      "ǧƜƟ": 1695,
      "ǦƀƁ": 1696,
      "ƕǥ": 1697,
      "ǤƽƆǦƘƯ": 1698,
      "ưƑ": 1699,
      "Ġu": 1700,
      "ƪǩ": 1701,
      "ǧƛƸǥƅƳ": 1702,
      "ƬǦ": 1703,
      "ƭǨ": 1704,
      "ǥƆƍ": 1705,
      "ƯǨ": 1706,
      "ƎǨ": 1707,
      "ǨƉƺ": 1708,
      "ǧƲƾ": 1709,
      "ƈƶ": 1710,
      "ǤƺƧǧƔƟ": 1711,
      "ƯƇ": 1712,
      "ƽƆ": 1713,
      "Ɔƅ": 1714,
      "ǥƾƋ": 1715,
      "ǤƸƍǦƖƭ": 1716,
      "ƿƃ": 1717,
      "ǥƼƀǥƧƋ": 1718,
      "Ǩƣƅ": 1719,
      "ǧƉƇ": 1720,
      "ǨƯƻ": 1721,
      "Ǩƴƭ": 1722,
      "ǩƁƿ": 1723,
      "ǤƺƺǧƚƄ": 1724,
      "ǩƂƣǤƹƈ": 1725,
      "Ǥƻƅ": 1726,
      "va": 1727,
      "ǥƿƅ": 1728,
      "ld": 1729,
      "ƻƎ": 1730,
      "ǥưƝ": 1731,
      "ǨƴƨǩƇƏ": 1732,
      "Ɨƅ": 1733,
      "ƋǨ": 1734,
      "ƢǨ": 1735,
      "ǧƃƭ": 1736,
      "ƮǤ": 1737,
      "Ɲƀ": 1738,
      "ƔƵ": 1739,
      "ƾƗ": 1740,
      "Ƹƻ": 1741,
      "Ƹƚ": 1742,
      "ǥƎƆǥƏƲ": 1743,
      "ǤƽƎ": 1744,
      "ǥƾƈǥƤƚ": 1745,
      "ǩƚƏ": 1746,
      "ǨơƌǤƸƺ": 1747,
      "ag": 1748,
      "ǦƈƏ": 1749,
      "ay": 1750,
      "ƏǤ": 1751,
      "ǤƸƤǤƸƪ": 1752,
      "ǧƋƬ": 1753,
      "sh": 1754,
      "Ƃǧ": 1755,
      "ƅƬ": 1756,
      "ǨƿƐǥƊƨ": 1757,
      "ǥƖƜǦƬƢ": 1758,
      "ǂƷ": 1759,
      "Ɯƈ": 1760,
      "ǥƈƩǧƔƨ": 1761,
      "Ɠƍ": 1762,
      "ǩƔƮ": 1763,
      "ǨƇƪǥƊƨ": 1764,
      "ǧƭƔ": 1765,
      "ǩƲ": 1766,
      "ǨƮƭ": 1767,
      "ǧƨƋǥƺƏ": 1768,
      "ǧƭƖ": 1769,
      "ǥƤƴ": 1770,
      "ǦƕưǥƭƗ": 1771,
      "ƣǧ": 1772,
      "od": 1773,
      "ǥƏƥǥƭƐ": 1774,
      "Ƃƹ": 1775,
      "ƞƍ": 1776,
      "ǥƅƴ": 1777,
      "gh": 1778,
      "ƃǧ": 1779,
      "ǦƕƅǤƺƋ": 1780,
      "ƬǨ": 1781,
      "ǧƠƔǧƩƶ": 1782,
      "ƀǩ": 1783,
      "ƛǤ": 1784,
      "ǥƸƌ": 1785,
      "ǦƕƙǨƂƲ": 1786,
      "Ɛƃ": 1787,
      "ƠǨ": 1788,
      "ǦƟƐ": 1789,
      "ƾƛ": 1790,
      "ƃǦ": 1791,
      "Ʈƞ": 1792,
      "mb": 1793,
      "ǥƤƱ": 1794,
      "ƅǨ": 1795,
      "ǦƈƑǤƻƬǥƏƯǤƻƥ": 1796,
      "Ɗơ": 1797,
      "ǧƚƄǥƽƱǥƓƍ": 1798,
      "ǥƈƆǧƱƻ": 1799,
      "ǥƏƑǧƎư": 1800,
      "ǦƌƑ": 1801,
      "ǤƻƎǨƀƌ": 1802,
      "ǤƼƁ": 1803,
      "ǦƯƏǤƸƪ": 1804,
      "ǦƊƥ": 1805,
      "ƩǤ": 1806,
      "ǩƙƅ": 1807,
      "ǧƬƬ": 1808,
      "Ƈƍ": 1809,
      "ǥƭƦǧƔƟ": 1810,
      "ǥƙ": 1811,
      "ǥƢƞǥƊƠ": 1812,
      "lu": 1813,
      "Ʈƹ": 1814,
      "ǥƯƻ": 1815,
      "ǨƁƌ": 1816,
      "ǨơƨǨƾƾ": 1817,
      "15": 1818,
      "ǥƭƘǥƜƨ": 1819,
      "wo": 1820,
      "ǥƛƢǩƘƟ": 1821,
      "ƕǨ": 1822,
      "ǥƸƈ": 1823,
      "ƮƗ": 1824,
      "ƫǥ": 1825,
      "Ʋǧ": 1826,
      "ǨƵƄǦ": 1827,
      "ǥƛƾ": 1828,
      "ov": 1829,
      "Ƈƌ": 1830,
      "ƔǨ": 1831,
      "ǦƈƑǧƚƄ": 1832,
      "ap": 1833,
      "Ǧƚ": 1834,
      "ƯƔ": 1835,
      "ǦƎƧǥƈƶ": 1836,
      "Ɔǩ": 1837,
      "ƹǧ": 1838,
      "ƃǤ": 1839,
      "ǥƛƴ": 1840,
      "Ɲƞ": 1841,
      "ǥƊƨǧƉƩ": 1842,
      "ab": 1843,
      "ƛƮ": 1844,
      "ƮƮ": 1845,
      "ǥƅƳǧƳƻ": 1846,
      "ǥƥƳ": 1847,
      "Ǧƶƈ": 1848,
      "ơƮ": 1849,
      "ǦƸƸǦƈƏ": 1850,
      "Ġv": 1851,
      "ua": 1852,
      "ƞƋ": 1853,
      "ƻƏ": 1854,
      "ǥƎƋ": 1855,
      "ǨƂƉ": 1856,
      "Ɩư": 1857,
      "ƴǨ": 1858,
      "Ǥƹư": 1859,
      "ǥƸƌǦƜƛ": 1860,
      "ǤƻƋ": 1861,
      "ǥƹƶǤƸƔ": 1862,
      "ƭƣ": 1863,
      "ǤƼƁǤƸƚ": 1864,
      "ƻƓ": 1865,
      "ǦƳƨǦƄƏ": 1866,
      "30": 1867,
      "ǧƚƄǥƏƑǥƱƕ": 1868,
      "ǥƯƆ": 1869,
      "ƻƣ": 1870,
      "ǦƢ": 1871,
      "ǨƋƱ": 1872,
      "ry": 1873,
      "ǥƍƳ": 1874,
      "ǨƵƄǦƺƐ": 1875,
      "ƼƏ": 1876,
      "ǧƺƢ": 1877,
      "ǥƅƨǧƐƃ": 1878,
      "ƽƱ": 1879,
      "ƂǨ": 1880,
      "ĠP": 1881,
      "ǩƔƙ": 1882,
      "gi": 1883,
      "ǩƁƿǥƅƍ": 1884,
      "ǦƛƴǥƤƚǧƚƄ": 1885,
      "ǦƊƕǨƵƄ": 1886,
      "ƹƳ": 1887,
      "uc": 1888,
      "ǥƑƨ": 1889,
      "bl": 1890,
      "ǥƭƩ": 1891,
      "To": 1892,
      "Ʈƃ": 1893,
      "ǥƯƌ": 1894,
      "ƟƓ": 1895,
      "ǨƇƳ": 1896,
      "ƉǨ": 1897,
      "ǦƀƧǥƒƌ": 1898,
      "av": 1899,
      "ǥƆƅǥƮƹ": 1900,
      "ǤƸƻǩƢƘ": 1901,
      "ǥƷƥǥƅƷ": 1902,
      "ƿǦ": 1903,
      "ƣƟ": 1904,
      "ef": 1905,
      "ƱƂ": 1906,
      "ǩƗƨ": 1907,
      "ǥƷƧ": 1908,
      "ǦƎƪ": 1909,
      "ǥƅƻ": 1910,
      "ƙǧ": 1911,
      "ǥƲ": 1912,
      "ty": 1913,
      "ǥƸƃ": 1914,
      "rr": 1915,
      "op": 1916,
      "ǧƙƽ": 1917,
      "ƦǦ": 1918,
      "ǥƊƟǨƃƽ": 1919,
      "ƨƀ": 1920,
      "Ƴƨ": 1921,
      "wa": 1922,
      "ǥƓƪǤƺƛ": 1923,
      "ƻơ": 1924,
      "ǦƌƑǦƈƘ": 1925,
      "ǥƏư": 1926,
      "ǩƙƐ": 1927,
      "ƗǤ": 1928,
      "Ƽǥ": 1929,
      "ǥƺƭ": 1930,
      "ǥƮƌǦƈƐ": 1931,
      "ǤƸƊǧƚƄ": 1932,
      "Ʊƕ": 1933,
      "ǦƜƉǦƕƈ": 1934,
      "ơƈ": 1935,
      "wh": 1936,
      "ƯƆ": 1937,
      "Ɛƈ": 1938,
      "ǧƺƦ": 1939,
      "ǦƂƨǥƏƯǤƻƥ": 1940,
      "ǥƈƶǤƽƜ": 1941,
      "xt": 1942,
      "ƺƤ": 1943,
      "ƺƧ": 1944,
      "ǧƎưǥƜƨ": 1945,
      "ǦƟƥ": 1946,
      "Ƴǩ": 1947,
      "ǥưƝǨƯƕ": 1948,
      "ǩƇƊ": 1949,
      "ǩƙƤ": 1950,
      "ǥƅƳǩƔƮ": 1951,
      "ǦƎƨǨ": 1952,
      "Ƭơ": 1953,
      "ƃƳ": 1954,
      "Ƃƣ": 1955,
      "ev": 1956,
      "ƣǦ": 1957,
      "ǩƘƲ": 1958,
      "ǤƸƀǨƵƷ": 1959,
      "ƈƖ": 1960,
      "ǦƎƪǦƖƽ": 1961,
      "ǦƝƾ": 1962,
      "ǦƳƛ": 1963,
      "ƍǩ": 1964,
      "sp": 1965,
      "ǥƋ": 1966,
      "ǥƙƨ": 1967,
      "ƿƀ": 1968,
      "ƅƨ": 1969,
      "ƤǦ": 1970,
      "ǦƈƑǦƃƳ": 1971,
      "ƟƳ": 1972,
      "ǦưƑ": 1973,
      "ǩƣƎǩƙƩ": 1974,
      "ǨƿƜ": 1975,
      "ƁǤ": 1976,
      "ƣǤ": 1977,
      "ǥƅƋ": 1978,
      "ƻƀ": 1979,
      "ǦƎƨǨƍƐ": 1980,
      "ǧơƮǥƮƚ": 1981,
      "ǧƧƑǥƭƦ": 1982,
      "ǦƊƊ": 1983,
      "ǥƜưǧƐƃ": 1984,
      "cu": 1985,
      "ǥƏƤ": 1986,
      "ƘƟ": 1987,
      "ǥƱƱ": 1988,
      "ƁǨ": 1989,
      "ǨƐƽ": 1990,
      "ǥƪ": 1991,
      "ǧƏ": 1992,
      "ǥƍƇ": 1993,
      "19": 1994,
      "ĠĊ": 1995,
      "ǤƹƋǩƗƴǧƚƄ": 1996,
      "ƟǤ": 1997,
      "Ɯǧ": 1998,
      "ǦƉƾǥƈư": 1999,
      "ƬƬ": 2000,
      "ǦƖƹǦơƈ": 2001,
      "rn": 2002,
      "ǦƜƺǥƙƨǥƭƦǤƹƠ": 2003,
      "ǧƻƓǦƞƜ": 2004,
      "ǥƇƆǧơƮ": 2005,
      "Ǧƈƿ": 2006,
      "ƅǧ": 2007,
      "ǨƿƙǦƠƷ": 2008,
      "ǧƋƗ": 2009,
      "ƖƜ": 2010,
      "ƴƻ": 2011,
      "ǤƼƠǧƻƟ": 2012,
      "ƳǨ": 2013,
      "ǤƽƜǧƔƨ": 2014,
      "yt": 2015,
      "ǥƿƵ": 2016,
      "ƕƈ": 2017,
      "ƾǧ": 2018,
      "ǧƉƌ": 2019,
      "ƭƥ": 2020,
      "ƯƏ": 2021,
      "ǥƮƶǥƺƭ": 2022,
      "pp": 2023,
      "ƃǨ": 2024,
      "rd": 2025,
      "Ǧƺ": 2026,
      "ǨƯƆǥƈƫ": 2027,
      "Ɓƥ": 2028,
      "ƑƘ": 2029,
      "ǥƏƷ": 2030,
      "fe": 2031,
      "ǦƜƈ": 2032,
      "ƹǩ": 2033,
      "ǩƃƨǥƈƆ": 2034,
      "ǧƛƊ": 2035,
      "ǥƹƿǦƳƛ": 2036,
      "ǥƻƺǧƫƋ": 2037,
      "ƀƅ": 2038,
      "ƾǤ": 2039,
      "ǥƛƠǦƭƤ": 2040,
      "ǧƦƻ": 2041,
      "ls": 2042,
      "ƻƻ": 2043,
      "ǦƏƐǥƏƖ": 2044,
      "ǦƲƻǧƖƗ": 2045,
      "ǤƿƮ": 2046,
      "Ɲǣ": 2047,
      "ĠB": 2048,
      "Py": 2049,
      "ǨƯƉ": 2050,
      "ƽǤ": 2051,
      "ǦƕƈǧƎƇ": 2052,
      "Ƽƀ": 2053,
      "ƺƢ": 2054,
      "Ƨǧ": 2055,
      "ƽǨ": 2056,
      "ǨƉƺǦƜƯ": 2057,
      "ǧƻƙǦƈƑ": 2058,
      "ǤƻƋǧƻ": 2059,
      "ƿư": 2060,
      "ǥƾƁ": 2061,
      "by": 2062,
      "ǦƍƢ": 2063,
      "ƅƷ": 2064,
      "ǧƟƭ": 2065,
      "ƶǧ": 2066,
      "ƹƿ": 2067,
      "ƚƏ": 2068,
      "ǤƻƋǧƻƍ": 2069,
      "ƛƽ": 2070,
      "ǧƻƜ": 2071,
      "ǤƽƠǥƏƯǤƻƥ": 2072,
      "ǧƧư": 2073,
      "Ɖǩ": 2074,
      "ǤƼƗ": 2075,
      "ƂǢ": 2076,
      "ǥƭƣ": 2077,
      "ǥƼƀǥƏƑ": 2078,
      "ǥƛƠǧƴƠ": 2079,
      "ǤƽƓǩƪƌ": 2080,
      "ck": 2081,
      "ǨƯƗ": 2082,
      "ǨƮơǧƮƗǦƜƺ": 2083,
      "ǦƜƋ": 2084,
      "ƖǨ": 2085,
      "ƹǤ": 2086,
      "ǨơƨǧƎư": 2087,
      "ǦƈƐǥƊƟ": 2088,
      "ƢƆ": 2089,
      "ǨƎƷǥƾƗ": 2090,
      "ǨƮƾǥƤƇ": 2091,
      "ǦƗƠǦƳƕ": 2092,
      "ƁƓ": 2093,
      "ǧƟƥǩƁƓ": 2094,
      "ƺƋ": 2095,
      "Ƅƿ": 2096,
      "Ǧƨ": 2097,
      "ǧƫƙ": 2098,
      "ưǨ": 2099,
      "ǥƏƗǥƈư": 2100,
      "ơǨ": 2101,
      "ƱƼ": 2102,
      "ǥƅƳǦƳƨ": 2103,
      "Ǥƺƌ": 2104,
      "ǧƚƄǥƺƔǧƔƨ": 2105,
      "ƾƓ": 2106,
      "ǧƚƄǩƗƮǩƢƘ": 2107,
      "Ƥǧ": 2108,
      "Ǩƾƹ": 2109,
      "ǧƔƻ": 2110,
      "ǨƯƯ": 2111,
      "ǩƇƏǧƚƄ": 2112,
      "ǧƱƻǥƞƋ": 2113,
      "ǧƄƶǥƐƎ": 2114,
      "ƮǨ": 2115,
      "ǤƻƻǤƽƕ": 2116,
      "ǨƴƟ": 2117,
      "ǤƸƽ": 2118,
      "ht": 2119,
      "ǤƺƆǤƸƀ": 2120,
      "ǤƼƼ": 2121,
      "Ɲǯ": 2122,
      "ƔƯ": 2123,
      "ǧƛƑ": 2124,
      "ǧƧƯǦƞƁ": 2125,
      "Ǧƻơ": 2126,
      "ƛƸ": 2127,
      "ǦƭƣǥƜƨ": 2128,
      "Ʊǧ": 2129,
      "Ġ6": 2130,
      "ƘǨ": 2131,
      "ǥƾƗǥƈư": 2132,
      "ǩƙƍ": 2133,
      "ǨƮƨ": 2134,
      "ƒǥ": 2135,
      "ƈƫ": 2136,
      "ǧƚƄǩƇƍǨƦƁ": 2137,
      "ǦƖƯ": 2138,
      "ǦƈƑǤƻƬǩƜƀǨƦƁ": 2139,
      "ƈƱ": 2140,
      "ǤƻƣǧƠƁ": 2141,
      "ƱƳ": 2142,
      "ǤƻƷǥƀƼ": 2143,
      "ƌǩ": 2144,
      "ǥơ": 2145,
      "ƧǦ": 2146,
      "ǧƳƖ": 2147,
      "ǤƻƖǤƻƬǧƚƄ": 2148,
      "ǦƜƋǥƏƋ": 2149,
      "ǤƸƍǤƻƅ": 2150,
      "ǤƺƉ": 2151,
      "sa": 2152,
      "ǦƝƃ": 2153,
      "Ƴƻ": 2154,
      "ƧƑ": 2155,
      "ƽƍ": 2156,
      "ƣƎ": 2157,
      "og": 2158,
      "ƴƨ": 2159,
      "ba": 2160,
      "ǦƌƁǧƻƭ": 2161,
      "ĠM": 2162,
      "ƟƟ": 2163,
      "ƏƖ": 2164,
      "ǦƄƟǥƈư": 2165,
      "ǦƨơǥƞƋ": 2166,
      "ǥưƏǦƘƎ": 2167,
      "cr": 2168,
      "ƜǨ": 2169,
      "ǨƮƭǧƻƃ": 2170,
      "ǦƊƀǨƃƽ": 2171,
      "ǥƮƳ": 2172,
      "ǧƎƩ": 2173,
      "ƤƄ": 2174,
      "ƅǤ": 2175,
      "ǩƃƽǦƘƯ": 2176,
      "ǦƝƂ": 2177,
      "ǨƀƁ": 2178,
      "ǥƖƄ": 2179,
      "ǥƅƶǤƸƭ": 2180,
      "ǧƺƧ": 2181,
      "ǦƛƲ": 2182,
      "ǩƢƄǦƵƋ": 2183,
      "ǩơƹǧƛƮ": 2184,
      "ƻƄ": 2185,
      "ǨƮƲ": 2186,
      "ǥƇƺǧƎư": 2187,
      "ǤƸƀǧƯƇ": 2188,
      "ƷǤ": 2189,
      "ưǩ": 2190,
      "ƎƇ": 2191,
      "ǩƇƇǥƏƖ": 2192,
      "ƝǨ": 2193,
      "ǤƸƍǦƘƯ": 2194,
      "ǨƿƘǦƜƉ": 2195,
      "Ǩƅ": 2196,
      "ǤƹƟǥƏƯǤƻƥ": 2197,
      "ǤƻƊ": 2198,
      "lt": 2199,
      "ǥƈƛǩƀƠ": 2200,
      "ǨƽƯ": 2201,
      "ǥƈƶǥƮƚ": 2202,
      "pt": 2203,
      "ǤƼư": 2204,
      "ƣǨ": 2205,
      "ƼƓ": 2206,
      "ǦƵƎ": 2207,
      "ǤƻƖǧƚƄ": 2208,
      "ǧƻƈ": 2209,
      "Ɖǯ": 2210,
      "ƈƷ": 2211,
      "ĠF": 2212,
      "ǧƮƀǥƍƕ": 2213,
      "ǤƺƺǥƷƥǦƙƺǨƃƽǦƊƀǦƜƯ": 2214,
      "ǤƽƜǤƸƺ": 2215,
      "ǥƤƪǩƘƳ": 2216,
      "ǦƯƔǨƾƃ": 2217,
      "ƅƋ": 2218,
      "ƕƙ": 2219,
      "ǧƽƑǧƻƜ": 2220,
      "Ɵǩ": 2221,
      "ǧƤƾǤƺƤ": 2222,
      "Ǩƺ": 2223,
      "ǦƋƥ": 2224,
      "ǥƾƀ": 2225,
      "ǥƊƛǥƒƌ": 2226,
      "ǥƨ": 2227,
      "Ǝƨ": 2228,
      "ǤƹƟǦƘƯ": 2229,
      "ǩƁƇ": 2230,
      "ƧƆ": 2231,
      "ǨơƌǤƸƚ": 2232,
      "ǨƦƁǦƱƂ": 2233,
      "ǨƑƗ": 2234,
      "ǦƜƀǨƿƑ": 2235,
      "ƮƢ": 2236,
      "ƐƗ": 2237,
      "ǧƻƏǦƵƎ": 2238,
      "ǨƵƛ": 2239,
      "Ƣƃ": 2240,
      "ǦƉƍǨƃƽ": 2241,
      "ǨƉƯ": 2242,
      "ǦƼƔ": 2243,
      "ǠƤ": 2244,
      "ƆƳ": 2245,
      "Ʒǩ": 2246,
      "ǥƇƽ": 2247,
      "ƪƁ": 2248,
      "ƠƇ": 2249,
      "Ġx": 2250,
      "ob": 2251,
      "Ɩƭ": 2252,
      "ǧƟƥǨƯƆ": 2253,
      "Ƨƒ": 2254,
      "ǥƱƂ": 2255,
      "ǩƢƜ": 2256,
      "ǥƾƷ": 2257,
      "ǥƐƃ": 2258,
      "ǥƅƃǧƴƠ": 2259,
      "ƕƆ": 2260,
      "ǥƼƠ": 2261,
      "ǦƜƺǤƼƚ": 2262,
      "ǧƚƄǥƜư": 2263,
      "ǩƣƟǧƉƩ": 2264,
      "ƊƱ": 2265,
      "ǥƛƭ": 2266,
      "ƻǩ": 2267,
      "ƊǨ": 2268,
      "ǥƓƁǧƉƌ": 2269,
      "hn": 2270,
      "ǨƛƋ": 2271,
      "ǥƊƠǥƅƥ": 2272,
      "ǦƘƾ": 2273,
      "ƈƩ": 2274,
      "Ǝǩ": 2275,
      "ǥƱƅ": 2276,
      "ǧƅ": 2277,
      "Ɣƾ": 2278,
      "cl": 2279,
      "ǥƇƽǦƕư": 2280,
      "Ġ0": 2281,
      "ǤƺƤǩƀƚ": 2282,
      "Ɲǧ": 2283,
      "ǦƝƐǦƖƙ": 2284,
      "ƕƿ": 2285,
      "ƳƖ": 2286,
      "ǥƈƇ": 2287,
      "ǤƸƓǤƸƚ": 2288,
      "ǦƎƢǧƴƢ": 2289,
      "ǦƀƧǧƚƄ": 2290,
      "ƼƖ": 2291,
      "ƼƔ": 2292,
      "ǥƝƇ": 2293,
      "ǨƵư": 2294,
      "Ƒǩ": 2295,
      "ǧƻƇ": 2296,
      "ǧƔƟǧƉƩ": 2297,
      "ƒǨ": 2298,
      "25": 2299,
      "ǧƊƶ": 2300,
      "ǥƮƤ": 2301,
      "ǦƗƅǦƸƸ": 2302,
      "ƅƱ": 2303,
      "Ƃǩ": 2304,
      "ǨƧƣǩƇƊ": 2305,
      "ǨƍƯ": 2306,
      "Ƭǩ": 2307,
      "Ǩơơ": 2308,
      "Ġ8": 2309,
      "ǨơƨǧƤƺ": 2310,
      "gr": 2311,
      "ƿƻ": 2312,
      "ǥƼƂ": 2313,
      "Jo": 2314,
      "ǧƎưǤƻƣ": 2315,
      "ƈƛ": 2316,
      "ǩƣƞ": 2317,
      "ǦƊƀǥƷƧ": 2318,
      "ǥƤƏ": 2319,
      "ǧƆ": 2320,
      "ǨƃƽǦƺƐ": 2321,
      "ǧƁƫ": 2322,
      "ǧƚƄǤƸƀ": 2323,
      "ǥƅƅ": 2324,
      "ǩƻƑ": 2325,
      "ǥƌƻǧƔƟ": 2326,
      "pu": 2327,
      "ǥƊƱ": 2328,
      "ƢǤ": 2329,
      "Ƽƺ": 2330,
      "Ǩƴƣ": 2331,
      "ƛǧ": 2332,
      "ƐǨ": 2333,
      "ǥƐƈǤƽƜ": 2334,
      "ǧƚƄǦƘƯ": 2335,
      "ƬƢ": 2336,
      "ǥƍƏ": 2337,
      "ǧƻƓǦƞƄ": 2338,
      "ƚǢ": 2339,
      "ǦƭƣǧơƮ": 2340,
      "ǤƻƥǤƾƿ": 2341,
      "ƹƟ": 2342,
      "}{": 2343,
      "ǥƑƊǨƯƉ": 2344,
      "ƿƘ": 2345,
      "ǩƾ": 2346,
      "ǦƗƅǨơƌ": 2347,
      "ǧƔƟǤƺƧ": 2348,
      "ƇǤ": 2349,
      "ƕơ": 2350,
      "oc": 2351,
      "ǧƭƉǧƭƉ": 2352,
      "ǥƭƩǥƭƐ": 2353,
      "Ǩƥƿ": 2354,
      "ǧƻƏǩƪƌ": 2355,
      "ƀƉ": 2356,
      "ƗǨ": 2357,
      "ƺƷ": 2358,
      "ǧƑ": 2359,
      "ǩƥƮǩƣƟ": 2360,
      "ƤƍǧƉƩ": 2361,
      "Ƹǧ": 2362,
      "ǨƉƲǧƚƄ": 2363,
      "du": 2364,
      "ƊƂ": 2365,
      "ƉƋ": 2366,
      "ƠƼ": 2367,
      "ǦƋƥǦƜƉ": 2368,
      "ƮƉ": 2369,
      "ǤƽƜǥƓƁ": 2370,
      "ǩƆ": 2371,
      "St": 2372,
      "Ɖƹ": 2373,
      "ƧǨ": 2374,
      "ĠE": 2375,
      "ƽƑ": 2376,
      "pi": 2377,
      "ƔǤ": 2378,
      "ǥƾƅ": 2379,
      "ƴǤ": 2380,
      "ǥƃƏ": 2381,
      "ǥƅƬǥƏƸǧƚƄ": 2382,
      "ĠH": 2383,
      "ƎƋ": 2384,
      "ǥƪƒ": 2385,
      "ds": 2386,
      "ƅƍ": 2387,
      "ƇƑ": 2388,
      "ǦƞƗ": 2389,
      "ǥƱƞ": 2390,
      "ƃƭ": 2391,
      "ǩƅƒ": 2392,
      "ǥƈƗǨơƨ": 2393,
      "ǦƱơǦ": 2394,
      "ƸƉ": 2395,
      "ƫǤ": 2396,
      "ǥƷƮ": 2397,
      "ƏƘ": 2398,
      "ƍƕ": 2399,
      "Ǧƅ": 2400,
      "ǦƜƺǥƙƨǤƺƺ": 2401,
      "ƈǤ": 2402,
      "Ɯƪ": 2403,
      "ǦƋƉ": 2404,
      "ĠW": 2405,
      "ƀƼ": 2406,
      "ƸƎ": 2407,
      "ǥƇƠǤƸƪ": 2408,
      "ĠD": 2409,
      "02": 2410,
      "ǥƏƑǧƔƟ": 2411,
      "ǥƤƍǦƝƂ": 2412,
      "ǥƹƲ": 2413,
      "ǩƔƀ": 2414,
      "ǤƺƔ": 2415,
      "ǩƦƙ": 2416,
      "ƸƂ": 2417,
      "ƊƤ": 2418,
      "ǦƔƹǥƏƘ": 2419,
      "ƝƎ": 2420,
      "ǦƱơǦƟƓ": 2421,
      "Ǩƃƌ": 2422,
      "ǥƛư": 2423,
      "ǨƯƄǤƼư": 2424,
      "ǦƕƈǦƞƜ": 2425,
      "ǦƯƍ": 2426,
      "ǩƣƎǦƠƼ": 2427,
      "ǨƯƢ": 2428,
      "ƱǤ": 2429,
      "ǦƩ": 2430,
      "ǥƅƴǨƶƣ": 2431,
      "ƔƱ": 2432,
      "ǦƯƔǥƦƂ": 2433,
      "ǥƽƕ": 2434,
      "ǨƴƭǤƹư": 2435,
      "sw": 2436,
      "ƾǦ": 2437,
      "ǥƾƮ": 2438,
      "ǥƈƛǦƖư": 2439,
      "ǥƯƻǦƉƾ": 2440,
      "Ɯƍ": 2441,
      "ǨƔ": 2442,
      "Ǥƿƃ": 2443,
      "ƸƤ": 2444,
      "SS": 2445,
      "ǧƔƟǥƑƽ": 2446,
      "ǨƿƘǥƏƯǤƻƥ": 2447,
      "ǤƸƺǤƺƆ": 2448,
      "ǥƌƖǧƚƄ": 2449,
      "ƾǧƗƅ": 2450,
      "ǥƺƜ": 2451,
      "ǥƌƅǥƐƫ": 2452,
      "ǥƤƚǥưƑ": 2453,
      "ak": 2454,
      "ǦƜƉǥƅƳ": 2455,
      "ƓǤ": 2456,
      "ǥƈƻ": 2457,
      "ƵƄ": 2458,
      "ǨƾƓǥƅƥ": 2459,
      "18": 2460,
      "ru": 2461,
      "ǥƿƃǧƐƆ": 2462,
      "Ǩƶƅ": 2463,
      "ǦƂƣ": 2464,
      "Ɲơ": 2465,
      "Ġ7": 2466,
      "ǧƼƺ": 2467,
      "ǨƵƷǦƝƥ": 2468,
      "ǥƁƇ": 2469,
      "ƽƕ": 2470,
      "ǥƮƃǧƚƄ": 2471,
      "ǥƪƒǤƽƓ": 2472,
      "ǦƠƑ": 2473,
      "ǧƚƄǦƖƹǦƳƕ": 2474,
      "Ʃƺ": 2475,
      "ƹƐ": 2476,
      "ǧƉƹǥƾƁ": 2477,
      "ǥƍƁ": 2478,
      "Ưƥ": 2479,
      "ǥƺƗ": 2480,
      "ƋƱ": 2481,
      "ǥƍƕǨƯƍ": 2482,
      "ƈƗ": 2483,
      "ǦƋƟ": 2484,
      "eg": 2485,
      "Ǩƿƞ": 2486,
      "ǥƅƸ": 2487,
      "ƫǦ": 2488,
      "ǥƑƘǥƷƥ": 2489,
      "fu": 2490,
      "ǥƈƤ": 2491,
      "ǩƔƀǥ": 2492,
      "tt": 2493,
      "ǨƴƢ": 2494,
      "ǤƸư": 2495,
      "ǦƕưǩƇƏ": 2496,
      "ǥƦƂǦƞƜǦƂƨ": 2497,
      "ǦưƔǥƀƙ": 2498,
      "ǥƥƇ": 2499,
      "ǤƸƍǨƃƽ": 2500,
      "'s": 2501,
      "Ưƻ": 2502,
      "Ġk": 2503,
      "ǨƍƉ": 2504,
      "ƙƽ": 2505,
      "ǧƻƄǧƻƇ": 2506,
      "ǩƩƬ": 2507,
      "ƈƒ": 2508,
      "ƺǩ": 2509,
      "bi": 2510,
      "ǧƭƑ": 2511,
      "ǤƸƥ": 2512,
      "ǦƝƥǨƶƊ": 2513,
      "ǦƙƮ": 2514,
      "ip": 2515,
      "ǦƘƯǤƻƀǤƹƈ": 2516,
      "oh": 2517,
      "ǧƧƁ": 2518,
      "ǨưƃǦƕƴ": 2519,
      "eq": 2520,
      "ǨƶƊǦƝƥǨƶƊ": 2521,
      "ǧƔƟǦƀƁ": 2522,
      "ǥƍƗ": 2523,
      "Ɩƙ": 2524,
      "ƫǧ": 2525,
      "bu": 2526,
      "ǥƛƛ": 2527,
      "ǥƦƂǦƞƜǤƽƠ": 2528,
      "ǥƊƩǤƺƎ": 2529,
      "ǥƊƪ": 2530,
      "Ʋǥ": 2531,
      "ǧƔƷ": 2532,
      "ǥƏƘǥƾƗ": 2533,
      "ǥƟƺǤƺƎ": 2534,
      "ǥƺƦǥƒƌ": 2535,
      "ǥƤƩǦưƔ": 2536,
      "ǤƻƷǦƠƼ": 2537,
      "ƓƝ": 2538,
      "ƱǨ": 2539,
      "01": 2540,
      "ǩƔƀǥƔƮ": 2541,
      "ǧƔƱǤƺƎ": 2542,
      "ǥƆƳǧƭƖ": 2543,
      "ǦƲƟ": 2544,
      "Ǩƒ": 2545,
      "mu": 2546,
      "ǦƔƿǥƺƜ": 2547,
      "ǥƍƎ": 2548,
      "sc": 2549,
      "ǥưƆǤƼƚ": 2550,
      "ƴƠ": 2551,
      "ǦƉƀǤƻƥ": 2552,
      "ǥƽƓǥƜư": 2553,
      "ǧƻƿ": 2554,
      "Ƥǩ": 2555,
      "ǩƀƐ": 2556,
      "ǨƿƙǦƘƯ": 2557,
      "ǧƔƵǥƭƐ": 2558,
      "ǧƭƖǧƕ": 2559,
      "ǤƸƺǦƂƨ": 2560,
      "ǤƼƘǥƌƖ": 2561,
      "ǤƻƤ": 2562,
      "ƀƔ": 2563,
      "ǨƯƊ": 2564,
      "ǥƹƳǥƏư": 2565,
      "ǩƢƜǨƉƲ": 2566,
      "ǨƶƋ": 2567,
      "ǤƺƤǦƵƁ": 2568,
      "ǧƭƖǧƕƥ": 2569,
      "Ʈƾ": 2570,
      "Ɓƚ": 2571,
      "ƞƐ": 2572,
      "ǧƌƫ": 2573,
      "ǦƱƽ": 2574,
      "ƻƶ": 2575,
      "ǥƒƖǥ": 2576,
      "ǥƻƺǧƭƑ": 2577,
      "ƾǨ": 2578,
      "ǥưƔ": 2579,
      "ƴǩ": 2580,
      "ƇǨ": 2581,
      "ǥƎƅ": 2582,
      "ǦƜƉǥƊƩǤƺƎ": 2583,
      "ǩƝƙ": 2584,
      "Ǧƙƚ": 2585,
      "ǦƤ": 2586,
      "ei": 2587,
      "Ġ`": 2588,
      "ui": 2589,
      "Ɖǣ": 2590,
      "ǤƺƆǤƸƀǤƸƪ": 2591,
      "ǥƟƺǦƜƬ": 2592,
      "ƲǤ": 2593,
      "ǨƯƑ": 2594,
      "AIǦƊƀǦƜƯ": 2595,
      "ƗƠ": 2596,
      "ǦƲƹ": 2597,
      "ǥƒƖǥƕơ": 2598,
      "ǥƇƆǥƤƇ": 2599,
      "fa": 2600,
      "*ǯ": 2601,
      "ĠR": 2602,
      "Ưǩ": 2603,
      "ƸƩ": 2604,
      "ƀƙ": 2605,
      "Ǝƻ": 2606,
      "ƓǨ": 2607,
      "ǨƶƋǥƊƿ": 2608,
      "ƮƤ": 2609,
      "ƭǩ": 2610,
      "ǧƿƻ": 2611,
      "up": 2612,
      "ga": 2613,
      "ƮƩ": 2614,
      "ƕǦ": 2615,
      "ǨƯƷǩƗƮ": 2616,
      "ǤƸƜ": 2617,
      "ǨƁƌǤƸƚ": 2618,
      "40": 2619,
      "ǩƇƇǧƔƨ": 2620,
      "Ǩƈƞ": 2621,
      "MO": 2622,
      "ǥƇƻ": 2623,
      "ǦƲƟǩƀƚ": 2624,
      "ǧƖƾǧƗƅ": 2625,
      "ǥƌƗ": 2626,
      "__": 2627,
      "ǤƸƴ": 2628,
      "ǩƔƙǨƯƯ": 2629,
      "Ɵƺ": 2630,
      "ǦƀƎ": 2631,
      "ǤƸưǥƯƌ": 2632,
      "ƦǨ": 2633,
      "ƈǩ": 2634,
      "Ƥƺ": 2635,
      "ƼǤ": 2636,
      "ǧƁƵ": 2637,
      "ǧƨƳ": 2638,
      "ǧƚƄǧƾƎ": 2639,
      "11": 2640,
      "Ƹƈ": 2641,
      "ǧƾƤ": 2642,
      "ǨƄƑ": 2643,
      "ǨƿƘǦƘƯ": 2644,
      "Co": 2645,
      "ƉǧƅƧ": 2646,
      "ǩƘƅ": 2647,
      "ǥƏƯǤƻƥǥƜƨ": 2648,
      "ǧƚƄǤƿơǦƁƯ": 2649,
      "ey": 2650,
      "ǧƫƞ": 2651,
      "ƛǩ": 2652,
      "br": 2653,
      "mm": 2654,
      "ǧƱƳ": 2655,
      "ǧƉƹǧƂƹ": 2656,
      "Ɗƶ": 2657,
      "ǦƗƏ": 2658,
      "ff": 2659,
      "Ƥƪ": 2660,
      "60": 2661,
      "py": 2662,
      "ƯƑ": 2663,
      "ƵǤ": 2664,
      "ƠƷ": 2665,
      "ƵǨ": 2666,
      "ǩƃƽǦƜƉ": 2667,
      "ǤƸƀǤƻƽ": 2668,
      "ǧƻƙǥƇƺ": 2669,
      "Ǩƙƽ": 2670,
      "ƇƆ": 2671,
      "ƐƬ": 2672,
      "ǨƽƯǤƻƶ": 2673,
      "ǦƀƝǨƀƃ": 2674,
      "ǦƳƕǥƾƋ": 2675,
      "ǥưƏǨƯƴ": 2676,
      "ǩƪƤ": 2677,
      "ǥƽƩ": 2678,
      "ǧƉƛ": 2679,
      "ǦƸƐ": 2680,
      "ĠL": 2681,
      "ǦƭƢ": 2682,
      "ƢƄ": 2683,
      "ǤƻƥǤƸƋǦƘƯǤƸƀǤƺƛ": 2684,
      "ǥƣư": 2685,
      "ǩƚƐ": 2686,
      "ƙƤ": 2687,
      "ǧƉƩǨƴƨ": 2688,
      "ǦƷƻ": 2689,
      "ǩƗƻ": 2690,
      "ǤƸƍǤƼƚ": 2691,
      "ƕǧ": 2692,
      "ǥƿƫǩƀƟ": 2693,
      "ǥƟƺǧơ": 2694,
      ").": 2695,
      "ǥƮƝ": 2696,
      "ǥƐƸǥƼƕ": 2697,
      "Ǧƕƣ": 2698,
      "ǧƴƧ": 2699,
      "ƓƍǤƽƜ": 2700,
      "In": 2701,
      "ǦƭƥǩƪƤ": 2702,
      "ǤƻƣǨơƨ": 2703,
      "ǤƽƿǥƾƗ": 2704,
      "ǩƀƠǦƈƐ": 2705,
      "Ǧƒ": 2706,
      "ƸƖ": 2707,
      "ǥƅƅǦ": 2708,
      "ǥƍư": 2709,
      "ǥƮƞǩƙƅ": 2710,
      "ǤƸƉǤƸƪ": 2711,
      "ǥƤƚǧƧƍ": 2712,
      "ƈǨ": 2713,
      "rc": 2714,
      "ƖƯ": 2715,
      "ǥƅƱǥƐƌ": 2716,
      "ǨơƌǥƊƨ": 2717,
      "ƲǦ": 2718,
      "Ǩơƣ": 2719,
      "Ưƕ": 2720,
      "ǧƋƬǧƉƹ": 2721,
      "ǥƜƺǦƙƯ": 2722,
      "ǦƗƩ": 2723,
      "ǦƃƳǨƦƁ": 2724,
      "An": 2725,
      "ƏƜ": 2726,
      "Ǥƺƚ": 2727,
      "ǨƧƒǨƉƲ": 2728,
      "ǠƸ": 2729,
      "ǦƷƱǥƺƦ": 2730,
      "ǦƈƑǤƼƚ": 2731,
      "ǥƟƹ": 2732,
      "ǥƁƚǥƇƺ": 2733,
      "ǥƔ": 2734,
      "ƺƏ": 2735,
      "ǨƙƽǧƄƶ": 2736,
      "ǤƸƀǦƭƥ": 2737,
      "ǩƲƜ": 2738,
      "Əǩ": 2739,
      "ƩǨ": 2740,
      "ǥƸƸǨƧƁ": 2741,
      "Ǩƈƒ": 2742,
      "ǦƴƁ": 2743,
      "ĠǢ": 2744,
      "ǦƜƉǨƶƣ": 2745,
      "ms": 2746,
      "ǥƟƺǧơƀ": 2747,
      "ǩƣƟǥƓƁ": 2748,
      "ǤƽƏ": 2749,
      "ǥƏƂǤƸƎ": 2750,
      "ƿƐ": 2751,
      "ǦƄƏǤƹƉ": 2752,
      "ǥƏƯǤƻƥǨƮƩ": 2753,
      "ǨƿƙǧƯƇ": 2754,
      "ǥưƱǦƘƯ": 2755,
      "ƙǩ": 2756,
      "ǧƃƤ": 2757,
      "ǨƀƅǧƚƄ": 2758,
      "16": 2759,
      "ǥƊƪǥƊƛ": 2760,
      "ƧƁ": 2761,
      "rk": 2762,
      "ǥƛƞǧƭƔ": 2763,
      "ƵƁ": 2764,
      "ƷǨ": 2765,
      "ǥƊƠǥƼƺ": 2766,
      "ǩƢƝ": 2767,
      "ƂƲ": 2768,
      "Al": 2769,
      "ǦƛƴǥƥƽǧƚƄ": 2770,
      "ǦƘƯǦƌƇ": 2771,
      "ǦƈƑǥƏƯǤƻƥ": 2772,
      "ƻƷ": 2773,
      "ǦưƴǥƹƳ": 2774,
      "ǧƩƿ": 2775,
      "ƕƴ": 2776,
      "ǦƳƢ": 2777,
      "ys": 2778,
      "ǧƚƄǦƖƇǧƫƠ": 2779,
      "go": 2780,
      "ǧƻƪ": 2781,
      "ǥƽƢǥƼƏ": 2782,
      "ǧƦƏ": 2783,
      "ƏƦ": 2784,
      "Ʈƌ": 2785,
      "Ƃ-": 2786,
      "ƣƫ": 2787,
      "ǥƥƶ": 2788,
      "ǤƺƋǤƻƶ": 2789,
      "ǤƿƃǨƿƛ": 2790,
      "Ơǩ": 2791,
      "ƵǦ": 2792,
      "ǤƻƥǤƸƊ": 2793,
      "ǥƹƳǨơơ": 2794,
      "ƒǦ": 2795,
      "ǥƉƧ": 2796,
      "ǧƻƃǤƹƠ": 2797,
      "ǩƢƑ": 2798,
      "ki": 2799,
      "ǦƓ": 2800,
      "ǦƱƽǨƽƦ": 2801,
      "ǤƺƺǧƱƻǧƚƄ": 2802,
      "Ġ9": 2803,
      "ib": 2804,
      "ǦƉƧ": 2805,
      "ǨƿƇǧƨƋǤƸƭ": 2806,
      "ǥƜưǥƌƺ": 2807,
      "ƘǤ": 2808,
      "ǩơƻ": 2809,
      "ph": 2810,
      "Ġ'": 2811,
      "ǨƯƦ": 2812,
      "Ɣƙ": 2813,
      "ǥƮƃǤƻƬǧƚƄ": 2814,
      "ǥƅƅǦƻơ": 2815,
      "ǥƏƈ": 2816,
      "ǦƈƐǥƑƘ": 2817,
      "ǥƏƶ": 2818,
      "ƃǥƜ": 2819,
      "ǥƍơ": 2820,
      "Ǩƿƽ": 2821,
      "ǧƕƙ": 2822,
      "ƒƟ": 2823,
      "ǨƿƎ": 2824,
      "ǦƴƋ": 2825,
      "ƀǦƟƥ": 2826,
      "ǥƏƦ": 2827,
      "ik": 2828,
      "ǥƏƯǦƌƁǧƻƭ": 2829,
      "ƏƗ": 2830,
      "ǥƤƚǤƸƪ": 2831,
      "ƯƗ": 2832,
      "ǥƽƢǦƈƐ": 2833,
      "ǩƸơ": 2834,
      "Ǧƿƀ": 2835,
      "ƽƻ": 2836,
      "ǦƠƸ": 2837,
      "ǤƸƀǤƽƍ": 2838,
      "ǦưƧ": 2839,
      "ǨƧƉǥƾƗ": 2840,
      "ǨƯƾ": 2841,
      "ǤƻƥǧơƮǤƿƝ": 2842,
      "Ʊơ": 2843,
      "ǥƤƜ": 2844,
      "ub": 2845,
      "ud": 2846,
      "ǩƺ": 2847,
      "ƭƌ": 2848,
      "ƫƋ": 2849,
      "Əƍ": 2850,
      "Ƹƽ": 2851,
      "ǨƯƊǦƖƭ": 2852,
      "ǧƚƮ": 2853,
      "ƋƗ": 2854,
      "ǥƑƊǨƯƉǦƈƑ": 2855,
      "ǧƭƉǦƖƹǩƝƢ": 2856,
      "ƶǦƀƁ": 2857,
      "21": 2858,
      "Ġǃ": 2859,
      "ƚ`": 2860,
      "ƠƁ": 2861,
      "Ʈƺ": 2862,
      "ƇƠ": 2863,
      "Ʋƹ": 2864,
      "ƻƆ": 2865,
      "ǤƽƍǧƽƮ": 2866,
      "ox": 2867,
      "ƂƼ": 2868,
      "ƃǥƜƾ": 2869,
      "ƆƵ": 2870,
      "ǤƽƠǨƃƽ": 2871,
      "80": 2872,
      "ǥƎƋǥƊƛ": 2873,
      "ƑƊ": 2874,
      "ǤƸƀǧƛƴ": 2875,
      "ǦƜƪǦƝƥǧƚƄ": 2876,
      "ǤƸƾ": 2877,
      "ǥưƄ": 2878,
      "ǥƏƂǥƊƠ": 2879,
      "ǦƕưǥƭƦ": 2880,
      "ǥƝƚ": 2881,
      "ƻƟ": 2882,
      "ǩƀƂǥƺƔ": 2883,
      "ƼƘ": 2884,
      "ny": 2885,
      "ǥƐƌǦƗƶǤƹƟ": 2886,
      "Ma": 2887,
      "ǦƘƯǥƜƨ": 2888,
      "ǥƭƗǧƬƦ": 2889,
      "ǦƌƉǧƅƧ": 2890,
      "ǦƕƴǤƸƪ": 2891,
      "ƥƞ": 2892,
      "ǦƎƌ": 2893,
      "ǥƈƛǤƽƜ": 2894,
      "ft": 2895,
      "ǧƧƻ": 2896,
      "ǥƮƹǦƘƓ": 2897,
      "ƑƄ": 2898,
      "ǦƝƿ": 2899,
      "ƂƉ": 2900,
      "ǧƓ": 2901,
      "ƏƋ": 2902,
      "ǥƈƆǤƺƫ": 2903,
      "ǥƐƧ": 2904,
      "ƅƉ": 2905,
      "Ƣƞ": 2906,
      "ǦƯƏǤƸƪǤƺƺ": 2907,
      "Ǥƻƍ": 2908,
      "ƋƩ": 2909,
      "ǤƺƲ": 2910,
      "ǦƋƅ": 2911,
      "xp": 2912,
      "ǥưƊ": 2913,
      "ǦƖƹǥƐƑ": 2914,
      "ǥƿƅǩơƻ": 2915,
      "Ǩƌƃ": 2916,
      "Ǧƃƅǧƻƪ": 2917,
      "Ʈƀ": 2918,
      "ƃƨ": 2919,
      "ǤƼƤ": 2920,
      "Ġ[": 2921,
      "oi": 2922,
      "ƀƃ": 2923,
      "ĠG": 2924,
      "ǧƾƎǥƛƽ": 2925,
      "ǥƑƼ": 2926,
      "ǦƄƟǨƧƉ": 2927,
      "ǦƤƍǧƉƩ": 2928,
      "Ƹƅ": 2929,
      "ǤƸƍǨƦƁ": 2930,
      "Ǝƥ": 2931,
      "ǦƃƯ": 2932,
      "ǩƘƅǨƯƻ": 2933,
      "ǩƤƐǥƎƅ": 2934,
      "ǦƄƏǨƯƆ": 2935,
      "ƚ-": 2936,
      "ǦƄƿ": 2937,
      "ǦƏƐǤƾƛǤƺƆ": 2938,
      "ǧƜƋǥƈư": 2939,
      "ǨƁƔǧƳƻ": 2940,
      "ƸǨ": 2941,
      "ǥƎƟǥƛƠ": 2942,
      "ǥƽƒ": 2943,
      "ǧƧƘ": 2944,
      "ƝƗ": 2945,
      "ye": 2946,
      "ǧƿƻǨƯƑ": 2947,
      "ǦƯƔǨƵƛ": 2948,
      "ǤƻƘ": 2949,
      "Ɵƭ": 2950,
      "Əƪ": 2951,
      "ǨƯƦǧƻƆ": 2952,
      "ǥƝƗ": 2953,
      "rl": 2954,
      "Ġq": 2955,
      "au": 2956,
      "Ɨǩ": 2957,
      "ƵƋ": 2958,
      "ƲƁ": 2959,
      "ǥƷƴ": 2960,
      "ǧƥƨ": 2961,
      "ǤƾƝ": 2962,
      "Ʋƾ": 2963,
      "ƣǩ": 2964,
      "ĠO": 2965,
      "Ɣƹ": 2966,
      "ƍƳ": 2967,
      "ƽƮ": 2968,
      "ǥƺƓ": 2969,
      "ƇƳ": 2970,
      "ǩƼƓ": 2971,
      "ǩƚƜ": 2972,
      "ǦƝơǤƻƶ": 2973,
      "ƣư": 2974,
      "ǥƈƛǥƻƺ": 2975,
      "ǩƀƟǥƺƦ": 2976,
      "ƕƅ": 2977,
      "ǨƑƗǥƐƍ": 2978,
      "ǩƒƈ": 2979,
      "ǥƏƯǤƻƥǤƽƿǧƔƨ": 2980,
      "ǩƚƏǧƝƀ": 2981,
      "ǩƩƶ": 2982,
      "ǤƺƮ": 2983,
      "ǦƉƋǦƜƺ": 2984,
      "ǧƼƓ": 2985,
      "ĠN": 2986,
      "ǥƏƍǥƺƔ": 2987,
      "ƌƫ": 2988,
      "ǤƺƺǥƑƘ": 2989,
      "ǥƞƃǥƜƾ": 2990,
      "ǨƯƭǩƟƳ": 2991,
      "ƞǦ": 2992,
      "ǦƲƻ": 2993,
      "ǧƠƴ": 2994,
      "ǥƁƏ": 2995,
      "ǦƗƶǥƀƙ": 2996,
      "ǦƦƂ": 2997,
      "ǧƉƹǥƈƫ": 2998,
      "ǤƽƳ": 2999,
      "ǩƛƨ": 3000,
      "ǩƀƂǧƚƄ": 3001,
      "ơǤ": 3002,
      "Ɖƾ": 3003,
      "ƘƳ": 3004,
      "ǥƺƔǥƯƹ": 3005,
      "ǤƺƑ": 3006,
      "ǨƿƙǩƇƌ": 3007,
      "Ƌƹ": 3008,
      "ǤƺƫǥƏƗ": 3009,
      "ƝƐ": 3010,
      "ǥƆư": 3011,
      "ew": 3012,
      "ƹƁ": 3013,
      "Ʋơ": 3014,
      "ǦƜƀǧƻƈ": 3015,
      "Ʃƶ": 3016,
      "ƧƯ": 3017,
      "ǨƇƪǧƄƶǨƯƭǨƨƀ": 3018,
      "ǦƉƿ": 3019,
      "ǩƫƘǧƚƄ": 3020,
      "ǤƸƀǦƮƵ": 3021,
      "ƫǨ": 3022,
      "ǧƤƾǤƺƤǥƪƒǤƽƓ": 3023,
      "ǨƮƨǨƮƺ": 3024,
      "ǦƷƻǥƊƠ": 3025,
      "ǤƸƀǦƬơ": 3026,
      "ưƃ": 3027,
      "ǩƚƐǧƧƁ": 3028,
      "ǥƿƗ": 3029,
      "ƉǥƏƊ": 3030,
      "ǦƔƾǦƝƾ": 3031,
      "ǤƺƋǦƃƅ": 3032,
      "ƗƏ": 3033,
      "ǤƹƠǦƃƯ": 3034,
      "ǦƭƧ": 3035,
      ".\"": 3036,
      "ǩƓƾ": 3037,
      "ƻƊ": 3038,
      "ǦƏơ": 3039,
      "ƥƿ": 3040,
      "ǧƼƖǧƨƋ": 3041,
      "Wh": 3042,
      "ǥƺƔǧƔƨǧƨƋǥƺƏ": 3043,
      "ǦƵƋǨƯƕ": 3044,
      "ǦƠơ": 3045,
      "Ǩƙƚ": 3046,
      "ǥƤƩǧƚƄ": 3047,
      "ǨƃƌǦƙƯ": 3048,
      "ǦƴƲ": 3049,
      "14": 3050,
      "ǨưƢ": 3051,
      "ǨƇƪǦƈƑ": 3052,
      "ǩƝƢǧƚƄ": 3053,
      "ǩƻƄ": 3054,
      "ƤƏ": 3055,
      "Ʀǩ": 3056,
      "ƪƌ": 3057,
      "Ƈǩ": 3058,
      "ǩƦƆ": 3059,
      "ǨƂơ": 3060,
      "ǦƃƳǦƳƕ": 3061,
      "ǧƚƄǦƕưǦƍƮ": 3062,
      "ǦƔƹǥƖƄ": 3063,
      "dd": 3064,
      "ƭǤ": 3065,
      "ǦƜƉǤƺƛ": 3066,
      "ǧƻƄǦƈƐ": 3067,
      "ǦƖƇǧƫƠǤƸƭ": 3068,
      "ǧƻƧ": 3069,
      "Ǝƒ": 3070,
      "ǦƜƉǤƻƀǤƹƈ": 3071,
      "ǦƷƱǥƅƥ": 3072,
      "ǨƾƑ": 3073,
      "ǥƮƇ": 3074,
      "ƎƟ": 3075,
      "ǥƷƨ": 3076,
      "ơƹ": 3077,
      "ƽǩ": 3078,
      "Ja": 3079,
      "ǨƾƓǥƇƺ": 3080,
      "ƛƾ": 3081,
      "ǦƟƐǤƺƛ": 3082,
      "ǩƙƢ": 3083,
      "ǦƔƹǨƿƛ": 3084,
      "ǧƚƄǥƻƺǨƮƮ": 3085,
      "ǨƇƪǧƔƱ": 3086,
      "22": 3087,
      "ǧƚƄǧƠ": 3088,
      "Ɗǧ": 3089,
      "Ɓǩ": 3090,
      "ǥƃ": 3091,
      "ǩƀƂǥƽƓ": 3092,
      "*:": 3093,
      "Ƌǣ": 3094,
      "Ʋƻ": 3095,
      "ǧƚƄǦƗƶǩƗƴ": 3096,
      "ƿǨ": 3097,
      "ƌƮ": 3098,
      "thon": 3099,
      "):": 3100,
      "ƚƖ": 3101,
      "Ġj": 3102,
      "ǦƔƿǧƭƖ": 3103,
      "He": 3104,
      "ǥƛƾǥ": 3105,
      "ǥƺƧ": 3106,
      "ǤƸƪǦƀƧ": 3107,
      "ǥƆƜ": 3108,
      "ǧƫƯ": 3109,
      "ǦƈƐǦƜƬ": 3110,
      "ǥƆƙǤƸƀǧƯƇ": 3111,
      "ƽƦ": 3112,
      "ǦƄƟǥƏƗ": 3113,
      "ƿƫ": 3114,
      "ǧƻƏǥƎƆ": 3115,
      "ǥưƆǥƅƶ": 3116,
      "ǨƮưǥƽƕ": 3117,
      "ǥƛƾǥƃƏ": 3118,
      "rg": 3119,
      "ƛƋ": 3120,
      "ǧƫƞǤƺƉ": 3121,
      "ǤƸƲ": 3122,
      "Ưƌ": 3123,
      "ǦƘƥ": 3124,
      "ǩƫƘǦƕƈ": 3125,
      "ƚǩ": 3126,
      "ǥƆƳǥƮƚ": 3127,
      "Ɠǩ": 3128,
      "ǧƽƑǧƫƙ": 3129,
      "ǧƾƎǤƸƽ": 3130,
      "Ƴư": 3131,
      "ĠǠ": 3132,
      "Ǧƴƞ": 3133,
      "Ƃ\"": 3134,
      "Ǧƛƿ": 3135,
      "ps": 3136,
      "ǤƸƀǥƮƚ": 3137,
      "ǦƠƇǥƇƆ": 3138,
      "ƕƌ": 3139,
      "ǥƈƝ": 3140,
      "ǦƉƧǨơƌ": 3141,
      "ǤƸƭǥƿƃ": 3142,
      "ǩƙƍǤƽƎ": 3143,
      "ǦưƔǥƀƙǥƏƘǥƌƖ": 3144,
      "ǥƢƞǥƼƺ": 3145,
      "ǨƁƊ": 3146,
      "ǦƷƷ": 3147,
      "ǨƀƌǤƸƔ": 3148,
      "ǤƸƺǤƻƀǤƹƈ": 3149,
      "ƝƇ": 3150,
      "ǥƌƻǥƭƦ": 3151,
      "ưƱ": 3152,
      "iz": 3153,
      "ǣƂ": 3154,
      "ǧƟƳ": 3155,
      "wn": 3156,
      "ǩƀƏ": 3157,
      "Ʃǩ": 3158,
      "Əƣ": 3159,
      "Bo": 3160,
      "ǦƜƉǥƾƈǥƤƚ": 3161,
      "nn": 3162,
      "ǨƶƳǥƤƟ": 3163,
      "ƕǤ": 3164,
      "ok": 3165,
      "ǦƗƥǥƸƸ": 3166,
      "ǥƤƧǩƇƏǧƚƄ": 3167,
      "ǧƚƄǥƷƥǤƽƜ": 3168,
      "ƏƊ": 3169,
      "ǥƛƽǥƮƶ": 3170,
      "ǧƚƄǧƤƾ": 3171,
      "sk": 3172,
      "Python": 3173,
      "ƯƼ": 3174,
      "ǧƔƟǦƈƐǤƸƀǤƸƪ": 3175,
      "ǧƚƄǦƖƹǥƼƏ": 3176,
      "ǤƺƬ": 3177,
      "my": 3178,
      "ǩƝƠ": 3179,
      "ƽƎ": 3180,
      "ƻƴ": 3181,
      "ǩƇƎ": 3182,
      "ǧƖƫ": 3183,
      "ƙƯ": 3184,
      "Ǩƪ": 3185,
      "ƹƉ": 3186,
      "ǥƩ": 3187,
      "ǥƊƞ": 3188,
      "ƻƃ": 3189,
      "ƻƑ": 3190,
      "ǦƜƺǦƞƄ": 3191,
      "ǨƷƝ": 3192,
      "ǦƍƟ": 3193,
      "gl": 3194,
      "Ɣǩ": 3195,
      "),": 3196,
      "tl": 3197,
      "ƒǧ": 3198,
      "ǩƇƑǨ": 3199,
      "ƥƮ": 3200,
      "ǥƍƱ": 3201,
      "13": 3202,
      "Ǩƞ": 3203,
      "Ɩǩ": 3204,
      "ǨƇƪǥƊƨǥƌƖ": 3205,
      "Ƥƒ": 3206,
      "ǦƶƉǥƏƊ": 3207,
      "ǥƏƯǤƻƥǥƸƮǥƊƩǦƂƨ": 3208,
      "ƼǦ": 3209,
      "24": 3210,
      "ǧƬƦǥƐƈ": 3211,
      "nf": 3212,
      "ǧƕƌ": 3213,
      "ƎƆ": 3214,
      "Ɛƥ": 3215,
      "Ƣƫ": 3216,
      "ǥƯƟ": 3217,
      "ǥƾƪ": 3218,
      "ǧƧƋ": 3219,
      "Ch": 3220,
      "ƤƇ": 3221,
      "ǦưƴǦƞƜ": 3222,
      "ǥƺƕ": 3223,
      "ǦƝƯ": 3224,
      "ƃƤ": 3225,
      "ǩƝƢǤƸƴ": 3226,
      "ǧƜƼ": 3227,
      "ǨƜ": 3228,
      "ǦƖƇǥƭƦ": 3229,
      "ǦƻơǨƶƳ": 3230,
      "ǩƇƑǨƞƍ": 3231,
      "ǦƀƧǨƃƽ": 3232,
      "ǥƠ": 3233,
      "ǩƼƓǥƊƱ": 3234,
      "ǩƩƾ": 3235,
      "ǥƭƦǤƹƠǥƒƌ": 3236,
      "ƺƿ": 3237,
      "dr": 3238,
      "ǧƤƼ": 3239,
      "ǤƸƍǥƏƯ": 3240,
      "ƹƦ": 3241,
      "ǧƄƦ": 3242,
      "ǦƖưǩƗƻ": 3243,
      "ƽƢ": 3244,
      "ǥƈƤǦƖƭ": 3245,
      "ƏƸ": 3246,
      "ǦƭƧǨƧƆ": 3247,
      "ǩơƺ": 3248,
      "ǦƶƈǨƴƹ": 3249,
      "ǥƊƛǩƇƏ": 3250,
      "ǥƏƌ": 3251,
      "ǩƅƸ": 3252,
      "ǥƹƴǨƽƻ": 3253,
      "gu": 3254,
      "ǤƼƴ": 3255,
      "ǥƱƕǧƤƺ": 3256,
      "ƻƭ": 3257,
      "Ɗǩ": 3258,
      "ǧƛƴǦƎƥ": 3259,
      "Ʀƙ": 3260,
      "ǥƕƆǤƸƚ": 3261,
      "Ƃ\\": 3262,
      "tw": 3263,
      "ǥƼƺǨưƃ": 3264,
      "ǨƯƴǦƘƎ": 3265,
      "||": 3266,
      "ǧƛƸǥƅƳǧƚƄ": 3267,
      "ǩƱƼ": 3268,
      "ƸǤ": 3269,
      "Ɯƛ": 3270,
      "ƊǤ": 3271,
      "ǧƔƨǧƚƄ": 3272,
      "ǦƬƢǨƿƎ": 3273,
      "ǨƧƂǧƂƹ": 3274,
      "ǦƜƉǧƝƀ": 3275,
      "ƤǨ": 3276,
      "ǧƉƹǥƮƚ": 3277,
      "ƙƩ": 3278,
      "()": 3279,
      "ǥƣƫ": 3280,
      "Ǩƌƃǥƛƴ": 3281,
      "ǨƮƩǦƈƑ": 3282,
      "ǦƜƨ": 3283,
      "ǧƛƖ": 3284,
      "ƿƑ": 3285,
      "ǦƏƐǥƇƺ": 3286,
      "ǦƽƜ": 3287,
      "ǧƨƳǥƮƚ": 3288,
      "ǦƯƏǥƤƩ": 3289,
      "ǨƮƩǦƈƑǤƻƬ": 3290,
      "ƬǨƏƜ": 3291,
      "ǩƝƒ": 3292,
      "ǧƻƙǥƮƚǧƚƄ": 3293,
      "ĠJ": 3294,
      "ǨƿƛǤƸƀǦƭƥ": 3295,
      "Ƹơ": 3296,
      "ǦƳƨǩƇƍ": 3297,
      "ǩơƾ": 3298,
      "ƧƂ": 3299,
      "ƲƉ": 3300,
      "ǥƱƀ": 3301,
      "ǨƴƣǤƻƻ": 3302,
      "Ƽǧ": 3303,
      "ƅƢ": 3304,
      "ǦƈƑǨƮƤǤƸƺ": 3305,
      "ǧƋƬǧƉƹǧƚƄ": 3306,
      "ǩƀƐǦƸƐ": 3307,
      "ǥƍƴ": 3308,
      "ǥƒƌǥƅƶǤƻƖ": 3309,
      "ǧƇ": 3310,
      "ǨƁƔǧƽƑ": 3311,
      "ƌƇ": 3312,
      "ǩƦƈ": 3313,
      "ǨƁƚ": 3314,
      "ƉƇ": 3315,
      "ǧƬƔ": 3316,
      "ƞƁ": 3317,
      "ǧƻƧǧƻƭ": 3318,
      "ǧƚƄǧƔƟǦƴƻ": 3319,
      "ǥƹƸ": 3320,
      "ǥƏƪǦƜƉ": 3321,
      "ǩƀƁ": 3322,
      "ǥƮƇǥƮ": 3323,
      "ǥƛưǩƚƾ": 3324,
      "ƞǤ": 3325,
      "Ƣǩ": 3326,
      "ǨƯƾǧƨƋ": 3327,
      "ǦƎƌǦƏơ": 3328,
      "ǥƜƨǧƺƿ": 3329,
      "ǩƔƻǧ": 3330,
      "ǧƭƔǦơƈ": 3331,
      "ǥƏƥǨƯƝ": 3332,
      "ƖƄ": 3333,
      "ǩƸƟ": 3334,
      "ƥƼ": 3335,
      "ǤƼƦ": 3336,
      "ǥƆƷ": 3337,
      "ǩƔƻǧƂƼ": 3338,
      "ǦƵƁǧƨƋ": 3339,
      "ƛƛ": 3340,
      "ǧƼƖǥƆƙ": 3341,
      "ƟƎ": 3342,
      "ǥƿƅǨƦƁ": 3343,
      "ǤƹƘ": 3344,
      "ǦƎƨǥƊƨ": 3345,
      "ǨƽƬǦƍƢ": 3346,
      "ǩƁƓǥƾƷ": 3347,
      "Ƨư": 3348,
      "ǧƉƩǥƓƁ": 3349,
      "ƤƐ": 3350,
      "ǥƏƯǤƻƥǥƸƮǥƊƩǤƽƠ": 3351,
      "ǥưƚ": 3352,
      "ǨƧƣǥƆƳǦƖƹǦơƈ": 3353,
      "ǧƾƎǩƣƟ": 3354,
      "ƙƑ": 3355,
      "hr": 3356,
      "ƠƔ": 3357,
      "ǥƤƚǦƠƷ": 3358,
      "Yo": 3359,
      "ǦƸƩǥƺƦ": 3360,
      "ǤƹƟǤƼƚ": 3361,
      "ǧƚƄǦƃƅǥƆƵ": 3362,
      "ǩƥư": 3363,
      "..": 3364,
      "ǥƹƳǥƝƇ": 3365,
      "ǤƺƺǥƷƥǦƙƺǨƃƽǥƜƨ": 3366,
      "ǩƀƔ": 3367,
      "ǥƍƫ": 3368,
      "ǦƗƥǦƜƟ": 3369,
      "ǦƂƨǩƜƀǨƦƁ": 3370,
      ")`": 3371,
      "ǥƮƇǥƮƙ": 3372,
      "ǦƀƎǤƹƈ": 3373,
      "ǩƙƐǥƈƶ": 3374,
      "ǥƝƏ": 3375,
      "ǤƸƇ": 3376,
      "ǧƎƋ": 3377,
      "ƾƾ": 3378,
      "ǨƍƯǧƉƩ": 3379,
      "Ǩơƀ": 3380,
      "ǥƏƍǩƦƈ": 3381,
      "ƑƳ": 3382,
      "ǩƂƮ": 3383,
      "Fi": 3384,
      "ǦƘƎǧơƮ": 3385,
      "ǧƪƁ": 3386,
      "Li": 3387,
      "xe": 3388,
      "ƈƘ": 3389,
      "ƀƠ": 3390,
      "ǨƎƷǥƏƖ": 3391,
      "ǥƭƗǧƬƦǤƸƲ": 3392,
      "ǤƹƋǥ": 3393,
      "ƯƄ": 3394,
      "ƏƂ": 3395,
      "ǥƐƈǧƐƆ": 3396,
      "ǨƷƑ": 3397,
      "ƹǦƞƜ": 3398,
      "ǧƛƮǥƉƍ": 3399,
      "ƼǨ": 3400,
      "ǨƉƯǥƥƽǧƚƄ": 3401,
      "ƃǩ": 3402,
      "ƌǢ": 3403,
      "ǤƽƓǧƚƄ": 3404,
      "ǦƵƷǦƴƋ": 3405,
      "ǨƋƹǦƞƜ": 3406,
      "ǦƴƗ": 3407,
      "ǧƎưǥƮƞ": 3408,
      "ǨƐƥǥƅƻ": 3409,
      "ǥƌƖǥƭƦ": 3410,
      "ǦƏƐǥƍƇ": 3411,
      "ǩƗƮǩƢƘǧƚƄ": 3412,
      "ǥƐƍǧƧư": 3413,
      "ǧƥƞǧƻƏ": 3414,
      "ƀƟ": 3415,
      "ƯƦ": 3416,
      "ĠǥƜƨ": 3417,
      "ǨƐƥǩƔƀ": 3418,
      "ǧƔƨǦƝƥ": 3419,
      "ǧƩƺǦưƔ": 3420,
      "ǥƐƍǥƭƗ": 3421,
      "ǧƩƺǩƗƴ": 3422,
      "ǧƪ": 3423,
      "ǦƭƌǦƛƲ": 3424,
      "Ca": 3425,
      "ǥưƊǩƇƍ": 3426,
      "ze": 3427,
      "ǤƽƠǩƜƀǨƦƁ": 3428,
      "ǥƊƛǧƚƄ": 3429,
      "Ǧƌƥ": 3430,
      "ƅǩ": 3431,
      "ǥƏƊǦƗƶ": 3432,
      "ƶƊ": 3433,
      "ƏƲ": 3434,
      "ƭǩƅƍ": 3435,
      "Ƹư": 3436,
      "ƁƔ": 3437,
      "17": 3438,
      "ǥƅƷǤƽƓǧƚƄ": 3439,
      "ƅƴ": 3440,
      "ǤƸƥǩƇƍ": 3441,
      "ƞǩ": 3442,
      "ǨƋƱǨƯƭ": 3443,
      "ǨƇƪǧƄƶǨƯƭǨƨƀǥƤƄǧƐƆ": 3444,
      "ǩƒƈǥƯƹ": 3445,
      "ƺƌ": 3446,
      "Ɣƶ": 3447,
      "ǦƈƑǤƻƬǥƺƔǨƯƥ": 3448,
      "ƯƉ": 3449,
      "ƥǨƺƫ": 3450,
      "99": 3451,
      "ƶƣ": 3452,
      "ƛƆ": 3453,
      "ǧƳƻǥƈƗ": 3454,
      "ǧƲƉ": 3455,
      "Ƈƽ": 3456,
      "ƍƇ": 3457,
      "ǧƚƄǤƸƻǨƦƁ": 3458,
      "ƒǤ": 3459,
      "ǦƷƱǥƺƦǥƭƦǤƹƠ": 3460,
      "ǥƮƚǤƹƉ": 3461,
      "ǤƽƠǤƻƬ": 3462,
      "ǥƼƕǨƵƷ": 3463,
      "ǥƜƟ": 3464,
      "ǥƤƧǩƇƏ": 3465,
      "ǨƧƄǥƈƒ": 3466,
      "ug": 3467,
      "ǦƯƛ": 3468,
      "ƨơǥƞƋ": 3469,
      "Ʈư": 3470,
      "ǥƮƣ": 3471,
      "ƇƇ": 3472,
      "ǤƸƖ": 3473,
      "ǦƂƣǨƀƅ": 3474,
      "ǧƉƩǧƐƆ": 3475,
      "ǤƽƠǨƮƤǤƸƺ": 3476,
      "ƻƽ": 3477,
      "ǨƮƿ": 3478,
      "ƜǧƴƢ": 3479,
      "ǦƯƒ": 3480,
      "ǧƚƄǦƜƀ": 3481,
      "ǧƜƠ": 3482,
      "ǤƸƋǩƝƢ": 3483,
      "ƢƦ": 3484,
      "ǥƁƥǨƺƫ": 3485,
      "ǦƉƩ": 3486,
      "We": 3487,
      "ǩƩƾǩƩƶ": 3488,
      "ǦƎƨǥƹƿ": 3489,
      "ǨƃƜ": 3490,
      "ǦƓƍǤƽƜ": 3491,
      "ǥƮƘ": 3492,
      "23": 3493,
      "ǥƮƶǥƱƅ": 3494,
      "ǦƱƇ": 3495,
      "Ǩƴơǧ": 3496,
      "ǥƈƛǦƄƏ": 3497,
      "ǥƮƠ": 3498,
      "ǦƣƀǦƟƥ": 3499,
      "ǨƴơǧƌƮ": 3500,
      "cc": 3501,
      "ǦƝƎ": 3502,
      "ǦƊƘ": 3503,
      "Ɓƿ": 3504,
      "ǦƵƁǨơƌ": 3505,
      "ǥƿƆ": 3506,
      "ǦƇ": 3507,
      "ƭƘ": 3508,
      "ƪƤ": 3509,
      "ǥƍƊ": 3510,
      "vo": 3511,
      "Ɣƀ": 3512,
      "Ǩưƈ": 3513,
      "ǧƝơ": 3514,
      "ǩƁƵ": 3515,
      "ǤƹƋǥƉƍ": 3516,
      "ks": 3517,
      "ǦƲƳ": 3518,
      "ǥƐƈǩƀƂǧƚƄ": 3519,
      "Ɣƻ": 3520,
      "So": 3521,
      "ǨƓƝ": 3522,
      "ǥƀƋ": 3523,
      "Ǧƹ": 3524,
      "ǤƻƍǧƄƶ": 3525,
      "ǥƸƮǦƈƑ": 3526,
      "ǨƿƙǤƸƀ": 3527,
      "Re": 3528,
      "ǧƊƶǥƆƵ": 3529,
      "ǩƦƖǥƅƈ": 3530,
      "Ɛƽ": 3531,
      "Ƌǯ": 3532,
      "ǦƎƒǥƺƏ": 3533,
      "ǧƨƋǥƺƦ": 3534,
      "ǦƄƏǥƑƳ": 3535,
      "ǥƹƶǥƜƨ": 3536,
      "ǧƉƈ": 3537,
      "ǥƏƣǦƄƟ": 3538,
      "ǧƃƈ": 3539,
      "ǦƨơǥƼƏ": 3540,
      "ǥƮƚǦƜƟ": 3541,
      "ǧƮƀǥƍƕǧƚƄ": 3542,
      "ǥƮƈ": 3543,
      "ǨƿƛǦƭƥ": 3544,
      "ǩƒƱ": 3545,
      "Ƽƫ": 3546,
      "ǧƻƏǥƸƸ": 3547,
      "ƾǩ": 3548,
      "ǩƅƱ": 3549,
      "ǥƒƌǦƖƇǥƌƖ": 3550,
      "ǨƔƬǨƏƜ": 3551,
      "ǨƮƲǨƿư": 3552,
      "ǩƝƩ": 3553,
      "MOSS": 3554,
      "ƐƸ": 3555,
      "ƸƇ": 3556,
      "ƕǩ": 3557,
      "ǥƏƫ": 3558,
      "ǦƎƒǦƔƾ": 3559,
      "ǦƀƝǧƻƴ": 3560,
      "ǧƻƴǦƊƤ": 3561,
      "ǦƎƥǥƏƗ": 3562,
      "ǧƚƄǥƜưǦƖƹ": 3563,
      "ǧƻƆǨƊƂ": 3564,
      "ǨƷƵ": 3565,
      "ǧƛƸǤƺƒ": 3566,
      "ǥƮƞǩƪƌ": 3567,
      "ǥƭƸ": 3568,
      "Ƹƌ": 3569,
      "ǥƁƜ": 3570,
      "ǧƊƶǦƀƁ": 3571,
      "ǤƿƝǨƯƁ": 3572,
      "ǥƮƠǧƉƩ": 3573,
      "ǩƓƶ": 3574,
      "ǥƾƄ": 3575,
      "Ɓƫ": 3576,
      "ǥƥƏ": 3577,
      "ƐƑ": 3578,
      "ǨƷƝǧƦƻ": 3579,
      "ǦƊƥǥƑƊ": 3580,
      "ǩƀƙ": 3581,
      "ǥƥƖ": 3582,
      "ǦƔƶǩƛƆ": 3583,
      "ǤƺƒǥƊƨ": 3584,
      "ǨƯƗǦƭƌ": 3585,
      "ǦƌƇǥƯƼ": 3586,
      "ǦƌƉ": 3587,
      "ǨƿƽǦƱƂ": 3588,
      "ǧƚƄǦƕƅǤƺƋ": 3589,
      "ƒƭ": 3590,
      "ǩƇƍǦƖư": 3591,
      "ǦƛƴǥƥƽǥƜưǧƐƆǨƧƣ": 3592,
      "ǥƯƹǨƯƝ": 3593,
      "(\"": 3594,
      "ƶƳ": 3595,
      "ƍƎ": 3596,
      "nk": 3597,
      "ǥƥƳǦƀƧ": 3598,
      "ǥƤƧǥưƏ": 3599,
      "ǤƸƚǥƊơ": 3600,
      "ǧƻƓǥƐƈ": 3601,
      "ǩƭ": 3602,
      "ƧƉ": 3603,
      "ƌƃ": 3604,
      "ĠU": 3605,
      "ǦƕưǦƍƮǧƚƄ": 3606,
      "ǨƧƄǥƈƙ": 3607,
      "ǥƜƆ": 3608,
      "ƭƖ": 3609,
      "ǥƤƧǥƈƩ": 3610,
      "ǦƀƝǦƃƳ": 3611,
      "ǦƮƵǨƐƽ": 3612,
      "ǦƜƉǤƸƀǤƸƪ": 3613,
      "ǦƭƣǧơƮǧƚƄ": 3614,
      "ǤƻƊǥƤƩ": 3615,
      "ǥƮƞǨƷƵ": 3616,
      "ǥƹƶǤƸƍ": 3617,
      "ǥƸƸǨƧƁǧƚƄ": 3618,
      "Ǧƣƀ": 3619,
      "ǦƜƉǥƓƪǤƺƛ": 3620,
      "ǦƘƯǧƔƱ": 3621,
      "ǥƆƛ": 3622,
      "ǦƵƪ": 3623,
      "ǧƚƄǥưƏ": 3624,
      "Ǩƈƪ": 3625,
      "ƲǨ": 3626,
      "ǨƂƌ": 3627,
      "ǦƲƙ": 3628,
      "ǥƍƚ": 3629,
      "ƴƢ": 3630,
      "Ǧƞƶ": 3631,
      "ǥƑƼǥƐƸ": 3632,
      "ƏƏ": 3633,
      "Ġǐ": 3634,
      "ǦƎƢǨƮƨ": 3635,
      "ǧƽƗ": 3636,
      "ǧƻƝ": 3637,
      "ǤƸƀǥƐƍ": 3638,
      "ǧƺƸ": 3639,
      "fl": 3640,
      "ǧƚƄǥƅƳǩƔƮ": 3641,
      "ǦƵƓ": 3642,
      "ǨƴƧ": 3643,
      "ǦƔƻ": 3644,
      "ǧƺƳ": 3645,
      "ǧƛƸǥƯƹ": 3646,
      "Ɩƽ": 3647,
      "ƉƓ": 3648,
      "ǨƃƽǩƇƏ": 3649,
      "ǨƴƭǧƉƩ": 3650,
      "eo": 3651,
      "ƙƚ": 3652,
      "Pr": 3653,
      "ǨƾƆ": 3654,
      "ǧƻƏǥƅƸ": 3655,
      "ǦƄƏǥƑƳǧƝƀ": 3656,
      "ǨƴƟǩƝƢ": 3657,
      "ǥƱƞǤƺƎ": 3658,
      "ǨƵƏ": 3659,
      "sq": 3660,
      "ǦƈƐǩƕƿ": 3661,
      "ƒǩ": 3662,
      "ƻƼ": 3663,
      "ǦƟƔ": 3664,
      "ƁƵ": 3665,
      "ǨƯƭǦƳƕ": 3666,
      "ƌƺ": 3667,
      "ǦƜƀǥƐƎ": 3668,
      "ǥƏƖǥƾƗ": 3669,
      "ǦƃƊ": 3670,
      "ǧƎưǨƱơ": 3671,
      "ǨƈƒǩƀƂ": 3672,
      "ǦƗƶǩƗƴǥƒƌ": 3673,
      "ǥƺƔǧƚƄ": 3674,
      "ǥƽƓǥƉƍ": 3675,
      "ǥưƼ": 3676,
      "Ʈƭ": 3677,
      "oa": 3678,
      "ƐƄ": 3679,
      "ƱƱ": 3680,
      "ƁǢ": 3681,
      "cy": 3682,
      "ƶƈ": 3683,
      "ǥƇƺǦƝƥ": 3684,
      "ǥƏƑǦƌƥ": 3685,
      "Ƙǩ": 3686,
      "ǥƮƉǦƎƒ": 3687,
      "ƊƟ": 3688,
      "Ǧƛƾ": 3689,
      "ƣƮ": 3690,
      "ǦƚƖ": 3691,
      "ǥƈƆǩƅƍ": 3692,
      "ǨƴƵ": 3693,
      "Ɗƕ": 3694,
      "ƝǤ": 3695,
      "ǥƹƿǥƑƊ": 3696,
      "Ǩƾƾǥƈư": 3697,
      "ǥƭƗǦƯƍ": 3698,
      "ǩƁƗ": 3699,
      "ǥƸƦǦƝƥǤƺƆ": 3700,
      "ƾƿ": 3701,
      "ǩƂƮǤƻƶ": 3702,
      "ǥƮƌǥƅƨ": 3703,
      "ǨơƌǦƘƟ": 3704,
      "ǨƿƞǦƎƥ": 3705,
      "ǨƂƤ": 3706,
      "ǤƼƘǥƊƿ": 3707,
      "nv": 3708,
      "ǧƚƄǧƠƔǧƩƶ": 3709,
      "ǥƀƒ": 3710,
      "ƴƹ": 3711,
      "Ǥƹƅ": 3712,
      "ǧƚƄǦƃƅǦƄƟ": 3713,
      "ǩƝƢǥƯƹ": 3714,
      "ǦƸƅǦƙ": 3715,
      "ǨƿƘǩƜƀǨƦƁ": 3716,
      "ƅƻ": 3717,
      "ǨƮƩǤƺƺ": 3718,
      "ǥƈƚ": 3719,
      "ǩƜƲ": 3720,
      "ǥƛƺ": 3721,
      "lp": 3722,
      "ǧƛƘ": 3723,
      "ǨƷƳ": 3724,
      "ƬƔ": 3725,
      "ǃƗ": 3726,
      "ǦƷƷǥƐƈ": 3727,
      "gn": 3728,
      "ƜǤƼ": 3729,
      "ǨƴƢǥƊơ": 3730,
      "ƬƦ": 3731,
      "ǧƚƄǦƊƀǦƜƯ": 3732,
      "ǦƖƇǥƌƖǥƒƌ": 3733,
      "ǦƙƯǧƂƹ": 3734,
      "45": 3735,
      "90": 3736,
      "ǥƺƔǧƔƨǤƺƎ": 3737,
      "ǨƈƬ": 3738,
      "ǩƀƒ": 3739,
      "ƢƗ": 3740,
      "ǨƮƾǧƽƮ": 3741,
      "ǦƲƉ": 3742,
      "ǨƷƟ": 3743,
      "Ǩƌƶ": 3744,
      "Ƽƕ": 3745,
      "ǥƯƻǦƱƂ": 3746,
      "ƫǩ": 3747,
      "Ƹǩ": 3748,
      "ǥƒƨ": 3749,
      "ƹư": 3750,
      "ǥƭƘǥ": 3751,
      "ǧƆƟ": 3752,
      "ƿǤ": 3753,
      "ǥƗ": 3754,
      "ǥƭƐǧƚƄ": 3755,
      "ǥƒƨǨƯƢ": 3756,
      "ƏƷ": 3757,
      "Ǧƀƥ": 3758,
      "ǦƈƐǤƸƺǤƺƆ": 3759,
      "ǧƮƱ": 3760,
      "XX": 3761,
      "ƻƩ": 3762,
      "ǧƔƟǦƀƁǧƳƻǧƻƟ": 3763,
      "ǦƊƗ": 3764,
      "ǥƏƣǥƑƳ": 3765,
      "ǧƤƾǥƌƺ": 3766,
      "ǤƺƒǨƁƔǧƽƑ": 3767,
      "Ǩƭ": 3768,
      "\",": 3769,
      "ǦƖƹǩƝƢǧƚƄ": 3770,
      "ǥƐƯ": 3771,
      "ǧƧƀ": 3772,
      "yp": 3773,
      "ǥƐƎǧƚƄ": 3774,
      "ǧƁƾ": 3775,
      "Ƥƴ": 3776,
      "Əƭ": 3777,
      "ǦƠƷǧƚƄ": 3778,
      "Ǥƽƙ": 3779,
      "ǨƿƙǧƯƇǦƖƇǧƫƠ": 3780,
      "ǥƭƦǦƠơ": 3781,
      "ǥƅƬǥƅƱ": 3782,
      "ǦƜƉǦƕƈǧƚƄ": 3783,
      "ƻƈ": 3784,
      "ǦƊƀǦƜƯǧƚƄ": 3785,
      "ǦƜƉǤƸƀ": 3786,
      "ǧƾƎǥƑƳ": 3787,
      "ǩƀƂǥƽƓǧƚƄ": 3788,
      "ǥƏƯǤƻƥǦƠƹǦƍƮ": 3789,
      "ǩƘƳǥƅƉ": 3790,
      "ǦƔƾǥƜƨ": 3791,
      "Ƒƨ": 3792,
      "ǨơƨǩƝƢ": 3793,
      "ǧƜƟǦƭƣ": 3794,
      "ĠǥưƆ": 3795,
      "ǥƕƆǥƓƁ": 3796,
      "ǧƳƕ": 3797,
      "ǥƆƙǤƽƜ": 3798,
      "ǩƜƀǦƱƂǥƒƌ": 3799,
      "ǧƄƦǨƙƑ": 3800,
      "Ɔƍ": 3801,
      "',": 3802,
      "ǦƗƶǥưƚ": 3803,
      "ǧƛƸǥƐƌ": 3804,
      "ǥƏƗǦƬƢǨƿƎ": 3805,
      "ƤƟ": 3806,
      "Ɨƨ": 3807,
      "ƌƄ": 3808,
      "ǦƢƦ": 3809,
      "ǧƙƾ": 3810,
      "Ƨǩ": 3811,
      "ƞǨ": 3812,
      "ǩƝƞǥƸƸǩƇƍǨƦƁǧƚƄ": 3813,
      "ǧƱƻǥƞƋǧƚƄ": 3814,
      "ǦƀƻǧƻƓ": 3815,
      "ǦƖƇǤƻƶ": 3816,
      "ǨƑƗǥƐƍǧƚƄ": 3817,
      "ǧƕƥ": 3818,
      "ǧƔƨǦƈƷǧƚƄ": 3819,
      "ǥƅƬǥƛƭ": 3820,
      "ǨƿƷ": 3821,
      "ǩƙƤǤƺƆ": 3822,
      "ǨƙƚǦƋƟ": 3823,
      "ǥƏƯǨƃƽǦƘƯ": 3824,
      "ǥƛƽǩƙƅ": 3825,
      "ǤƻƤǤƺƺ": 3826,
      "Ɲƾ": 3827,
      "ǤƺƤǦƘƓ": 3828,
      "ƜǤƼƽ": 3829,
      "ǨƿƔ": 3830,
      "Ǩƞƍ": 3831,
      "ǥƆƒ": 3832,
      "ǦƃƅǨƊƂ": 3833,
      "))": 3834,
      "ǥƀƑ": 3835,
      "Su": 3836,
      "ǧƔƟǩƕƿ": 3837,
      "ǩƱ": 3838,
      "ǥƢƞǩƕƿ": 3839,
      "ǧƅƧ": 3840,
      "ǥƜưǦƖƹ": 3841,
      "ǧƛƸǤƼƼ": 3842,
      "ǥƝƐ": 3843,
      "ƧƄ": 3844,
      "ǥƈƆǥƈƫ": 3845,
      "ǦƜƉǨƶƣǧƚƄ": 3846,
      "ǩƂƣǤƺƛ": 3847,
      "sl": 3848,
      "ǧƻƘ": 3849,
      "np": 3850,
      "ƢƳ": 3851,
      "oe": 3852,
      "Ǧưƛ": 3853,
      "ǧƔƜ": 3854,
      "ǧƠƔ": 3855,
      "ǧƥƞǧƧƘ": 3856,
      "ǨƮƢ": 3857,
      "ƥƳ": 3858,
      "ǦƜƉǦƉƀ": 3859,
      "ǥƋƇ": 3860,
      "ǧƬƑ": 3861,
      "ǤƸƭǦƖƇ": 3862,
      "Ɛƫ": 3863,
      "ǥƑƈ": 3864,
      "ǦƸƅǦƴƁ": 3865,
      "ǥƨƁ": 3866,
      "ǨƯƝǩƢƘ": 3867,
      "ǥƂ": 3868,
      "ax": 3869,
      "Ǡư": 3870,
      "ǩƒƟ": 3871,
      "ǥƈƆǦƞƐǥƒƌ": 3872,
      "ǧƉƹǥƮƚǧƚƄ": 3873,
      "lv": 3874,
      "ǥƁƥǥƺƷǧƚƄ": 3875,
      "ǥƿƘ": 3876,
      "ƇƊ": 3877,
      "ǦƝƥǨƇƪ": 3878,
      "Le": 3879,
      "ǧƎƩǥƮƶ": 3880,
      "ǨƐƨ": 3881,
      "ƻƿ": 3882,
      "ǧƛƑǦƵƋ": 3883,
      "ǥƷƮǥƼƂ": 3884,
      "ǥƭƘǥƂƨ": 3885,
      "ǥƇƺǤƺƆ": 3886,
      "ǨưƱ": 3887,
      "ǥƹƸǧƦƏ": 3888,
      "Ʊǩ": 3889,
      "ǧƺƪ": 3890,
      "ƙƅ": 3891,
      "ǩƥƭ": 3892,
      "ǧƛƸǤƿơ": 3893,
      "ǤƸưǥƯƌǧƚƄ": 3894,
      "ǩƔƅ": 3895,
      "ơƑ": 3896,
      "ǤƸƀǩƦƖ": 3897,
      "ĠY": 3898,
      "ǥƍƳǥƏƯ": 3899,
      "ǨƧƆǩƢƑ": 3900,
      "\\[": 3901,
      "ǨƿƙǦƘƯǤƸƀǤƸƪ": 3902,
      "ǥƊƳ": 3903,
      "ƙƍ": 3904,
      "ǦƗƋ": 3905,
      "ju": 3906,
      "ƣƁ": 3907,
      "ǨƀƐ": 3908,
      "ǤƺƺǥƷƥǦƙƺǨƃƽǧƚƄ": 3909,
      "\\]": 3910,
      "ǧƼƩ": 3911,
      "ǥƹƻ": 3912,
      "ǧƻƿǨƉƲ": 3913,
      "ǦƄƏǥƤƧǥƈƩ": 3914,
      "OS": 3915,
      "ǤƺƺǧƉƩ": 3916,
      "ǧƻƩ": 3917,
      "ǥƟƹǨƮƭ": 3918,
      "ǥƺƦǧƚƄ": 3919,
      "ơǩ": 3920,
      "ƈƙ": 3921,
      "ǨƭƦ": 3922,
      "ǥƷƞ": 3923,
      "ǦƦ": 3924,
      "ǨƧƆǨƧƉ": 3925,
      "ǦƱƁ": 3926,
      "ǧƖƑ": 3927,
      "hu": 3928,
      "ǩƘƿ": 3929,
      "gs": 3930,
      "Ġ/": 3931,
      "ǦƕƈǧƎƇǥƒƌ": 3932,
      "ǧƨƎ": 3933,
      "ǧƱƍ": 3934,
      "ǧƬƬǤƺƌ": 3935,
      "ǥƓƪǤƸƪ": 3936,
      "ǧƎƯǥƢƃǤƿƝǦƊƤ": 3937,
      "Ɗƥ": 3938,
      "ǧƻƄǥƐƈ": 3939,
      "ǥƭƣǨƊƂ": 3940,
      "ǧƔƟǦƴƻǤƸƭ": 3941,
      "ƎƧ": 3942,
      "ǤƼƚǨƮƮ": 3943,
      "ǦưƸ": 3944,
      "Ho": 3945,
      "ǩƆƒ": 3946,
      "ǤƸƊǦƜƀ": 3947,
      "ǩƕƿǦƜƟ": 3948,
      "Ɖƛ": 3949,
      "ǧƻƙǥƮƚ": 3950,
      "Ǩƿƛǥƅƥ": 3951,
      "ǤƹƎ": 3952,
      "ǦƸƅǦƙư": 3953,
      "ǥƤƚǧƚƄ": 3954,
      "ƯƊ": 3955,
      "ǥƑƨǥƛƴ": 3956,
      "ƹƲ": 3957,
      "ƘƓ": 3958,
      "ǨƋƱǦƖƇ": 3959,
      "ǥƄƿ": 3960,
      "ƸƓ": 3961,
      "Se": 3962,
      "ǧƔƟǥƭƘ": 3963,
      "ǩƼ": 3964,
      "ǨƛƋǧƙƽ": 3965,
      "ǩƁƇǥƈư": 3966,
      "ǧƳƖǦƞƜ": 3967,
      "ưƽ": 3968,
      "ǥƥƹǧƚƄ": 3969,
      "ǨƳ": 3970,
      "ǨƯƄǤƻƷ": 3971,
      "ǧƱƻǤƼƼ": 3972,
      "ƀƎ": 3973,
      "ǧƼƓǨƧƣ": 3974,
      "ǨƿƙǦƘƯǤƸƀ": 3975,
      "ƩƬ": 3976,
      "ǦƘƠ": 3977,
      "ǤƺƧǥƓƁǧƚƄ": 3978,
      "ǧƐƆǨƮƺ": 3979,
      "ǥƐƬǨƯƴ": 3980,
      "ƛƐ": 3981,
      "ǨƿƙǦƮƵ": 3982,
      "ǨƧƂǤƼƗ": 3983,
      "ǤƸƋǦƝƥ": 3984,
      "ƨƁ": 3985,
      "ǦƱƠ": 3986,
      "ǦƋƿ": 3987,
      "ǦƗƥǦƜƬ": 3988,
      "ǨƧƦ": 3989,
      "ǤƺƆǤƸƀǤƺƛ": 3990,
      "ǨƄƚ": 3991,
      "ǐư": 3992,
      "ǦƟƐǤƸƪ": 3993,
      "ǨƽƻǦƝƾ": 3994,
      "ƅƸ": 3995,
      "ǧƈƱǦƃƅ": 3996,
      "ǥƮƃǥƏƯǤƻƥ": 3997,
      "ǩƓƁ": 3998,
      "ǥƅƅǥƈƆ": 3999,
      "ǦƄƉ": 4000,
      "ǧƚƄǤƸƻǩƢƘ": 4001,
      "ƣƅ": 4002,
      "ǥƉƩ": 4003,
      "ǥƌƖǥƒƌ": 4004,
      "ǦƗƨ": 4005,
      "ǧƧƻǥƊƨ": 4006,
      "ǥƊƨǤƽƜ": 4007,
      "ǥƛƢǩƘƟǦƈƐǥƑƘ": 4008,
      "Ɲǩ": 4009,
      "28": 4010,
      "ǧƚƄǧƟƥ": 4011,
      "Ɓǣ": 4012,
      "ƉƧ": 4013,
      "ǥƏƤǤƻƣ": 4014,
      "ǦƏƐǤƾƛǤƸƀǤƺƛ": 4015,
      "Op": 4016,
      "ǦƀƻǦƘƯ": 4017,
      "ǧƉƩǤƽƓ": 4018,
      "ǧƜƁ": 4019,
      "ǨƀƌǤƸƍǦƘƯ": 4020,
      "ǨƿƙǥưƆ": 4021,
      "ǦƕƏ": 4022,
      "ǥƌƺǥƟƟ": 4023,
      "ǧƾƎǤƸƽǧƚƄ": 4024,
      "ǥƈƶǩƀƠ": 4025,
      "ǦƖƹǤƾƿ": 4026,
      "ǦƈƑǩƜƀǨƦƁ": 4027,
      "ǦƐƜǧƴƢ": 4028,
      "ǧƃƧ": 4029,
      "ǥƐƄǤƸƪ": 4030,
      "ǥƉƂ": 4031,
      "ǦƉƀǩƜƀ": 4032,
      "ǥƆƅǩƃƨ": 4033,
      "ƐƧ": 4034,
      "ǦƗƠǨƮƺ": 4035,
      "ǤƽƍǤƺƎ": 4036,
      "ǥƷƥǧƨƋ": 4037,
      "ǤƸƝ": 4038,
      "ǨƂơǧƥƨ": 4039,
      "ǠƦ": 4040,
      "ǨƯƻǨƀƅ": 4041,
      "ǤƾƋǥƭƐ": 4042,
      "ǦƋƼ": 4043,
      "ǨƯƄǨƮƺ": 4044,
      "ǧƭƾ": 4045,
      "ǨƃƁ": 4046,
      "ǦƏƐǥƏƖǥƇƺ": 4047,
      "ǨƮƿǩƗƮ": 4048,
      "ǦƄƟǥƏƗǥƈư": 4049,
      "ǧƗƛ": 4050,
      "ǦƜƫ": 4051,
      ":*": 4052,
      "ǦƬƧ": 4053,
      "ǥƏƯǩƝƠ": 4054,
      "ǦƜƝ": 4055,
      "ǧƚƄǩƇƍǨƦƁǦƀƧ": 4056,
      "ǦƝƥǦƺƐ": 4057,
      "ǦƜƀǤƽƳ": 4058,
      "ǩƢƆǥƟƟǧƚƄ": 4059,
      "ǦƜƉǦƲơǦƜƉ": 4060,
      "ǦƷƱǥƈƻ": 4061,
      "ǨƄƂ": 4062,
      "ƋƉ": 4063,
      "ǥƒƌǧƤƾǤƼƚ": 4064,
      "ǥƏƂǦƕư": 4065,
      "ƈƏ": 4066,
      "ǨƶƳǥƤƟǧƚƄ": 4067,
      "ǥƺƟ": 4068,
      "ǧƱƻǥƈƫ": 4069,
      "ǥƥƗ": 4070,
      "ǥơƑ": 4071,
      "ǧƧƑǥƭƦǥƮƶ": 4072,
      "Sa": 4073,
      "ǦƸƩǦ": 4074,
      "ƚ\"": 4075,
      "ǩƘƶ": 4076,
      "ǥƤƪǧƩƺ": 4077,
      "ǥƇƀ": 4078,
      "ǦƮƊ": 4079,
      "ǧƗƇ": 4080,
      "ǦƠƸǥƿƃ": 4081,
      "ƴƧ": 4082,
      "ǨƀƗ": 4083,
      "ǥƹƳǧƭƉ": 4084,
      "ǦƛƴǥƥƽǥƜưǤƺƆǨƧƣ": 4085,
      "ǥƜƨǤƸƀǨƵƷ": 4086,
      "ǩƁƍ": 4087,
      "ǩƣƟǦƝƐ": 4088,
      "ǨƿƔǥƛƞ": 4089,
      "ǥƌƗǤƺƬ": 4090,
      "ǥƸƁ": 4091,
      "ƾƄ": 4092,
      "ǤƹƟǩƜƀǨƦƁ": 4093,
      "----": 4094,
      "ǥƮƣǤƼƠ": 4095,
      "ƾƷ": 4096,
      "ƱƆ": 4097,
      "fy": 4098,
      "ǥƏƪǦƘƯ": 4099,
      "ƷƲ": 4100,
      "ǣƃ": 4101,
      "ǥưƽǧƮơ": 4102,
      "ƕƊ": 4103,
      "ǥƑƳǩƁƓ": 4104,
      "\")": 4105,
      "ǩƕƿǥƺƦ": 4106,
      "ǤƸƀǦƠƷ": 4107,
      "ǦƜƉǦƕƈǥƜư": 4108,
      "ǧơƬ": 4109,
      "ǥƤƫ": 4110,
      "ǤƸƻǤƹƉ": 4111,
      "ǥƦƂǤƸƋ": 4112,
      "ƛƢ": 4113,
      "ƺƒ": 4114,
      "ǤƸƭǦƜƀ": 4115,
      "ǥƀƼǥƾƗ": 4116,
      "ǦƕƑ": 4117,
      "ǩƇƍǥƤƍ": 4118,
      "Ʀƻ": 4119,
      "ǦƗƶǦƜƟ": 4120,
      "ǧƚƄǥƮƉǥƅƨ": 4121,
      "35": 4122,
      "ƸƦ": 4123,
      "ǥƍƃ": 4124,
      "ǥƸƮǥƊƩǦƂƨ": 4125,
      "ǥƣưǩƟƳ": 4126,
      "ǦƐƭǩƅƍ": 4127,
      "ǦƔƯǤƻƘ": 4128,
      "ǥưƽǥƏƯǨƃƽ": 4129,
      "Ƴƛ": 4130,
      "bs": 4131,
      "ǨƂƥ": 4132,
      "ǧƉƹǦƮƊ": 4133,
      "Ǥƽƛ": 4134,
      "ǩƀƉǩơƹ": 4135,
      "ǧƔƵǨƄƑ": 4136,
      "ǤƼƘǧƧƀ": 4137,
      "ǧƢƳ": 4138,
      "ǥƾƪǧƎƯ": 4139,
      "Ɠƪ": 4140,
      "ǨƖ": 4141,
      "ǥƈƆǤƸƺ": 4142,
      "ǨơƨǦƘƎ": 4143,
      "ǦƜƉǤƸƀǤƺƛ": 4144,
      "It": 4145,
      "ƈƇ": 4146,
      "Ǩƾƅ": 4147,
      "ǦƜƀǥƤƧ": 4148,
      "ǦƸƩǦƚƖ": 4149,
      "70": 4150,
      "ǥƭƦǧƔƟǧƚƄ": 4151,
      "No": 4152,
      "ǧƛƮǧƚƄ": 4153,
      "ǩƇƏǥƭƐ": 4154,
      "ǦƔƻǥƇƻ": 4155,
      "ǧƚƄǧƈƱ": 4156,
      "ǦƝƥǨƯƴ": 4157,
      "ǦƬƣ": 4158,
      "lc": 4159,
      "ǧƔƵǨƧƆ": 4160,
      "ǥƺƊ": 4161,
      "ǧƲƾǧƥƞ": 4162,
      "ǐƾ": 4163,
      "ǥƯƹǦƖƹ": 4164,
      "ǤƼƠǦ": 4165,
      "ǥƿƫǤƹƐ": 4166,
      "ǥƟƺǥƛƠ": 4167,
      "ǩƢƗ": 4168,
      "ǥƏƯǤƻƥǦƏƐǩƫƘ": 4169,
      "Ǩƽƽ": 4170,
      "ǧƚƄǦƦƂ": 4171,
      "36": 4172,
      "hy": 4173,
      "ƱǤƹƐ": 4174,
      "ǨƮƤǨƯƆ": 4175,
      "ǩƢƄǧƮƗ": 4176,
      "Ơơ": 4177,
      "Ƹƃ": 4178,
      "ǨƧƂǥƯƟ": 4179,
      "ƿǩ": 4180,
      "ǩƥƼ": 4181,
      "ǨƱƆ": 4182,
      "ǥƤƧǥƭƦ": 4183,
      "ǦƳơ": 4184,
      "ǨƓ": 4185,
      "Ʒƴ": 4186,
      "ǧƛƐ": 4187,
      "ǥƱƕǧƎư": 4188,
      "ǥƍƷ": 4189,
      "ǧƚƄǩƣƎǩƙƩ": 4190,
      "ǦƅƧ": 4191,
      "ǧƂƺ": 4192,
      "ǧƔƚ": 4193,
      "ǥƽƢǨƱơ": 4194,
      "ǤƸƀǥƏƪ": 4195,
      "Ǝƛ": 4196,
      "ǥƈƗǥƇƺ": 4197,
      "ǨưƃǦƟƥ": 4198,
      "Ġǣ": 4199,
      "ǥƏƯǦƌƁǧƻƭǥƏƑǥƱƕ": 4200,
      "ǩƃƽǤƼƚ": 4201,
      "Ǝƪ": 4202,
      "ǃƷ": 4203,
      "ǧƊƯ": 4204,
      "ǨƽƮ": 4205,
      "ǤƸƓǦƳƨ": 4206,
      "ƺƬ": 4207,
      "If": 4208,
      "ǦƙƺǨƃƽǥƮƶǥƱƅ": 4209,
      "ǩƢƆǥƯƼ": 4210,
      "ǦƙƺǦƅƧ": 4211,
      "ƥƶ": 4212,
      "Ɣƿ": 4213,
      "ǥưƤ": 4214,
      "ƓƦ": 4215,
      "ǥƜƨǨƿƙǤƸƪ": 4216,
      "ǥƏƯǨƃƽǩƜƀǨƦƁ": 4217,
      "ǥƀƾ": 4218,
      "ƧǤ": 4219,
      "ǧƚƄǥƥƽ": 4220,
      "ĠǦƈƑ": 4221,
      "De": 4222,
      "ƍƉ": 4223,
      "kn": 4224,
      "ǩƛƪ": 4225,
      "ǤƽƜǨƀƅ": 4226,
      "ƔƬ": 4227,
      "ǥƏƘǥƾƗǦƛƴǥƊƠ": 4228,
      "ǥƅư": 4229,
      "ǥƭƤ": 4230,
      "Ǥƻƿ": 4231,
      "ǥƹƴǧƚƄ": 4232,
      "ƣƀ": 4233,
      "ǥƹƅ": 4234,
      "ƁƇ": 4235,
      "ǦƵƷǦƻ": 4236,
      "ƇǧƊƶ": 4237,
      "ǩƭƔ": 4238,
      "ǤƸƀǥƮƶ": 4239,
      "ǥƅƬǥƼƏ": 4240,
      "ƻƍ": 4241,
      "ǨƁƊǥƤƩ": 4242,
      "ǦƑƄ": 4243,
      "ǨƯƍǦƱƇ": 4244,
      "ǦƛƴǦƖư": 4245,
      "ǧƚƄǤƸƀǤƸƪ": 4246,
      "ǤƹƦǧƱƍ": 4247,
      "ǩƙƄ": 4248,
      "ǤƸƀǦƬƾ": 4249,
      "ǥƇƏǨƽƻ": 4250,
      "ǦƔƶǥƅƥ": 4251,
      "ĠV": 4252,
      "ǥƏƖǥƆƳ": 4253,
      "Ƈƴ": 4254,
      "ǥƏƖǥƆƳǤƺƎ": 4255,
      "ǩƝƢǧƧƯ": 4256,
      "ǥƛƠǤƸƺǥƮƃ": 4257,
      "rv": 4258,
      "ǧƛƸǥƺƔǧƚƄ": 4259,
      "ƻƜ": 4260,
      "ƽƬ": 4261,
      "ǥƏƑǥƸƃ": 4262,
      "ǦƶƲ": 4263,
      "Ǩơƥ": 4264,
      "ǦƖƇǥƭƗ": 4265,
      "ǧƾƎǧƚƄ": 4266,
      "ǨƿƇǥƎƻ": 4267,
      "eb": 4268,
      "ǥƒƌǥƏƑǥƱƕ": 4269,
      "ǧƫƥ": 4270,
      "ǩơƺǥƺƏ": 4271,
      "ǥƜƨǥƮƶ": 4272,
      "ƔǢ": 4273,
      "ǦƈƑǥưƆ": 4274,
      "ǨƯƚ": 4275,
      "ǥƈưǧƚƄ": 4276,
      "ǥƤƏǥƭƣ": 4277,
      "ǧƭƉǦƖƹǥƼƏ": 4278,
      "ǨƯƷǤƽƠ": 4279,
      "ǩƢƄǩƘƲ": 4280,
      "ǥƷƨǥƤƧǧƚƄ": 4281,
      "ǥƓƁǨƴƨ": 4282,
      "ǨƿƐǨơƌ": 4283,
      "ǥƤƧǦưƔ": 4284,
      "ǥƈƆǥƭƐ": 4285,
      "ǧƚƄǧƟƥǨƯƆ": 4286,
      "Ʃƙ": 4287,
      "ǨưƁ": 4288,
      "ǥƁƇǨƮƾ": 4289,
      "ǥƎƚ": 4290,
      "ǥƅƳǩƔƮǨƯƍ": 4291,
      "ƆƟ": 4292,
      "Ʋƛ": 4293,
      "ǦƝƟ": 4294,
      "ƹǩƥ": 4295,
      "ƻƋ": 4296,
      "ǨƿƇǥƺƦ": 4297,
      "ƿƅ": 4298,
      "Ǧƭƻ": 4299,
      "ǥƿƅǨƦƁǧƚƄ": 4300,
      "ƓƜ": 4301,
      "ǦƕưǦƍƮǩƛƆ": 4302,
      "\\\\": 4303,
      "ǧƚƄǧƎƯǥƢƃ": 4304,
      "ǧƚƄǧƃƭ": 4305,
      "ǤƿƝǥƁƥ": 4306,
      "ǥƥƥ": 4307,
      "ǩƫƘǥƺƦ": 4308,
      "(\\": 4309,
      "ƣƤ": 4310,
      "ǦƋƛ": 4311,
      "ǥƏƯǤƻƥǧƔƨǤƺƎ": 4312,
      "ǩơƵ": 4313,
      "Ɩƾ": 4314,
      "ǤƸƀǤƸƪǤƺƺ": 4315,
      "ǨƂƴ": 4316,
      "ǦƊƽ": 4317,
      "ƴƭ": 4318,
      "ǧƧưǤƸƺ": 4319,
      "Ǡƥ": 4320,
      "ǤƹƏ": 4321,
      "ǦưƧǥƌƖ": 4322,
      "ƟǢ": 4323,
      "Ɔƒ": 4324,
      "ǦƨơǦƋƟ": 4325,
      "ǦƕưǧƚƄ": 4326,
      "Ǧƴƾ": 4327,
      "ƺƪ": 4328,
      "ǧƔƚǨƇƳ": 4329,
      "ǧƂƒ": 4330,
      "ǦƄƏǦƀƝ": 4331,
      "ǧƹƁ": 4332,
      "xa": 4333,
      "ǩƣƞǨơƌ": 4334,
      "ǤƺƺǧƔƟ": 4335,
      "ǧƑƜǤƼƽ": 4336,
      "ǦƖƇǦƜƬǤƸƭ": 4337,
      "ǦƝƥǥƮƞǧƎư": 4338,
      "Si": 4339,
      "jo": 4340,
      "ǨƿƙǤƸƪǩƗƮǩƢƘ": 4341,
      "ǤƺƺǤƻƬǧƚƄ": 4342,
      "ǧƻƏǨƿƇ": 4343,
      "ƷƯ": 4344,
      "ǥƭƦǤƼƚ": 4345,
      "ƍƷ": 4346,
      "ƹǩƥƪ": 4347,
      "Mi": 4348,
      "ǤƿơǤƻƻ": 4349,
      "ǤƻƷǥƀƼǨƧƂ": 4350,
      "ǥƽƢǧƊƶ": 4351,
      "ǦƊƀǦƜƯǥƒƌ": 4352,
      "ǥƑƈǧƎư": 4353,
      "ƺƚ": 4354,
      "ǥƤƧǥƮƶ": 4355,
      "ƛƑ": 4356,
      "ǥƏƘǩƇƏ": 4357,
      "ǦƻơǦƄƏ": 4358,
      "ǥƮƽ": 4359,
      "ǦƄƟǨưƢ": 4360,
      "ǤƸƋǧƚƄ": 4361,
      "ǥƎƟǧƐƆ": 4362,
      "ƌƗ": 4363,
      "oy": 4364,
      "ǥƹƶǦƏƐǤƾƛ": 4365,
      "ǨƽƦǨƾƆ": 4366,
      "ǦƈƐǥƈƆ": 4367,
      "ƥƭ": 4368,
      "ǥƽƼ": 4369,
      "ǦƦƂǥƿƵ": 4370,
      "ǥƾƗǥƈưǤƺƆ": 4371,
      "ǤƸƍǩƔƙ": 4372,
      "ǦƑƘ": 4373,
      "ǦƄƟǥƅƴǨƶƣ": 4374,
      "ǥƆƬ": 4375,
      "ǨƃƽǥƐƦ": 4376,
      "ƍƢ": 4377,
      "ǥƏƯǤƻƥǤƸƺ": 4378,
      "Ƒƽ": 4379,
      "ǦƈƖǥƅƶǤƻƖ": 4380,
      "ǦƎƪǦƖƽǦƝƥ": 4381,
      "ƥƇ": 4382,
      "ǥƮƶǤƺƺ": 4383,
      "ǦƁƯ": 4384,
      "ǤƺƤǤƺƒ": 4385,
      "*.": 4386,
      "NA": 4387,
      "ǥƤƍǦƝƂǧƚƄ": 4388,
      "Ɯǩ": 4389,
      "ƏƤ": 4390,
      "ǨƵƞ": 4391,
      "ǦƖƗ": 4392,
      "ƵƎ": 4393,
      "ǦƎƉ": 4394,
      "ƆƜ": 4395,
      "ǥƨƁǨƃƁ": 4396,
      "ǥƌƺǥ": 4397,
      "ǥƦƈ": 4398,
      "ǨƃƽǥƊƛǥƒƌ": 4399,
      "ǩƻƑǦƴƞ": 4400,
      "75": 4401,
      "Ɠƶ": 4402,
      "ǩƀƻ": 4403,
      "ǥƅƷǥƤƇ": 4404,
      "ƯƯ": 4405,
      "ǦƕƙǥƭƦ": 4406,
      "ǧƥƝ": 4407,
      "ǧƻƆǨƃ": 4408,
      "ƤƱ": 4409,
      "ǥƼƃ": 4410,
      "ǩƝƞǥƸƸǩƇƍǨƦƁ": 4411,
      "ǤƿƝǩƚƜ": 4412,
      "ǦƔƾǥƅƥ": 4413,
      "ƱƤ": 4414,
      "ǥưƱǤƸƚ": 4415,
      "ƜƼ": 4416,
      "ǦƝƑ": 4417,
      "ǧƚƄǦƗƶǥƀƙ": 4418,
      "ǦƕưǦƍƮǥƒƌ": 4419,
      "ǧƚƄǥƎƆǥƏƲ": 4420,
      "ǥƘ": 4421,
      "ƙƮ": 4422,
      "Ġ#": 4423,
      "ƔƷ": 4424,
      "ǦƜƉǨƮƸǥƤƚ": 4425,
      "ǦƠƇǩƢƘ": 4426,
      "ǧƧƍǧƱƻ": 4427,
      "}\\": 4428,
      "ǤƼƑǦ": 4429,
      "ǥƹƴǩƾ": 4430,
      "ǧƜƋǨƵƷǦƝƥ": 4431,
      "Ƶƪ": 4432,
      "ǥƍƈ": 4433,
      "ǥƖƝ": 4434,
      "ƅƮ": 4435,
      "ǧƚƄǩƟƳǤƹƐ": 4436,
      "ǤƾƆ": 4437,
      "ǤƿƮǦƔƹ": 4438,
      "ǦƣƀǦƵƋ": 4439,
      "Ǩƣƅǩƥư": 4440,
      "\"ǯ": 4441,
      "ǦƶƈǨƴƹǨƀƅ": 4442,
      "ǨƢƋ": 4443,
      "ǦƟƓ": 4444,
      "ǨƛƋǧƳƕ": 4445,
      "ǥƇƉ": 4446,
      "Tr": 4447,
      "ǥƻƶ": 4448,
      "ǨƽƬǦƍƢǤƸƺ": 4449,
      "ǨƴƹǧƔƨ": 4450,
      "ǦƖưǩƲƜ": 4451,
      "nl": 4452,
      "Fo": 4453,
      "ǥƮơ": 4454,
      "ǤƼƑǦƁƯ": 4455,
      "ǦƄƏǨƧƁ": 4456,
      "ƀƐ": 4457,
      "ǥƍƏǤƽƜ": 4458,
      "ǥƄ": 4459,
      "ƉƯ": 4460,
      "ǧƾƎǥƥƽǧƚƄ": 4461,
      "ƀƍ": 4462,
      "ǩƃƨǧƔƵǥƽƱ": 4463,
      "ƾƅ": 4464,
      "Ƨƻ": 4465,
      "ǥƮƞǦƖƽ": 4466,
      "ǧƉƹǨƉƲ": 4467,
      "ƑƢ": 4468,
      "ǤƸƀǥƮƚǧƚƄ": 4469,
      "ǧƚƄǧƽƑ": 4470,
      "32": 4471,
      "\"\"": 4472,
      "Ǧưƛǥƛƴ": 4473,
      "ǨưƷ": 4474,
      "ǨƴƦ": 4475,
      "Ƃƒ": 4476,
      "ǤƸƎǥƅƶǤƻƖ": 4477,
      "af": 4478,
      "ƑƼ": 4479,
      "ƸƔ": 4480,
      "ǧƭƉǩƢƆǥƟƟ": 4481,
      "ǨƧƄǥƮƚ": 4482,
      "ǨƝ": 4483,
      "ǥƏƯǤƻƥǥƸƮǥƊƩǦƈƑǤƻƬ": 4484,
      "ǩƚƏǦƜƺ": 4485,
      "ƕƉ": 4486,
      "ǤƺƧǧƔƟǤƺƆ": 4487,
      "ǤƼƠǦƒƭ": 4488,
      "ǧƛƴǥƈư": 4489,
      "ǩƃƨǩƗƨ": 4490,
      "ǦưƔǤƽƓ": 4491,
      "ǨƿƛǥƱƕ": 4492,
      "ǨƂƌǨƂƉ": 4493,
      "ǨƮƾǦƖƽ": 4494,
      "ǧƔƟǦƴƻǦƖƹǥƼƏ": 4495,
      "Ƙƿ": 4496,
      "ǧƳƻǧƻƟǧƚƄ": 4497,
      "ơƔ": 4498,
      "ǧƻƼ": 4499,
      "ǨƧƄǦ": 4500,
      "ǥƒƌǥƈƆǦƞƐ": 4501,
      "Ǧơƣ": 4502,
      "ǦƳƳ": 4503,
      "ǐƵ": 4504,
      "ǩƥƮǦƖƙ": 4505,
      "ǥƏƯǤƻƥǩƀƉǦƋƩ": 4506,
      "ǤƸƜǨƥƿ": 4507,
      "ǥƍƱǩƙƩ": 4508,
      "ưƝ": 4509,
      "ǤƽƿǧƔƨǧƚƄ": 4510,
      "ǨƲ": 4511,
      "ǨơƨǦƼƔ": 4512,
      "ǥƍƠ": 4513,
      "ǦƟƥǨƯƢ": 4514,
      "ǦƁƒ": 4515,
      "ǧƚƄǧƬƬ": 4516,
      "Ǧƀƀ": 4517,
      "ǧƥƞǧƻƏǧƽƑǧƻƜ": 4518,
      "ǥƷƧǥƅƋ": 4519,
      "ǨƧƒǥƺƦ": 4520,
      "ǤƻƖǤƺƺ": 4521,
      "ǨƵƖ": 4522,
      "ǥƜƨǤƸƀǤƸƪ": 4523,
      "ǩƢƘǧƛƮ": 4524,
      "ǦƜƉǧƚƄ": 4525,
      "ǥƆƙǤƸƀǧƯƇǥƅƳǤƺƎ": 4526,
      "ǃƩ": 4527,
      "ǥƯƹǧƎƯǥƢƃ": 4528,
      "ǨƮƩǤƽƠ": 4529,
      "ǦƖƹǧƨƋ": 4530,
      "ǨƧƣǥƆƳǩƗƮǩƢƘ": 4531,
      "ǥƏƘǦƚƖ": 4532,
      "ǥưƁ": 4533,
      "sy": 4534,
      "ǦƈƷǥƤƖ": 4535,
      "Ǥƺƈ": 4536,
      "ƍơ": 4537,
      "ǧƕƅ": 4538,
      "ǥƷƥǤƸƚ": 4539,
      "Ǩƿƹ": 4540,
      "ǦƶƦ": 4541,
      "ǦƀƧǥƈƫ": 4542,
      "ǦƣƮ": 4543,
      "ǩƘƲǦƭƢ": 4544,
      "ǦƛƴǥƮƹǦƘƓ": 4545,
      "ǨƿƙǥƏƥǨƯƝ": 4546,
      "ǥƈƩǧƛƊ": 4547,
      "Ɲƚ": 4548,
      "ǦƈƿǩƗƴ": 4549,
      "Ƃǣ": 4550,
      "ǩƀƻǨƾƑ": 4551,
      "ǦƶƉǥƏƊǥƈư": 4552,
      "ƅƅ": 4553,
      "Ƅǥƻƺ": 4554,
      "ǦƬƣǨƵƏ": 4555,
      "Ɓƌ": 4556,
      "ǥƿƙ": 4557,
      "ǦƱƉ": 4558,
      "ǥƁƥǥƺƷǥƒƌ": 4559,
      "ǥƒƌǦƌƑǦƈƘ": 4560,
      "ưƧ": 4561,
      "ǦƃƳǨƱơ": 4562,
      "ǤƻƥǤƸƋǥƇƠǤƸƪ": 4563,
      "ǧƉƩǧƚƄ": 4564,
      "ǨƋƦ": 4565,
      "ǥƦƙ": 4566,
      "ǦƉƮǦ": 4567,
      "ǦƘƾǧƤƺ": 4568,
      "ǦƜƺǥƈƶ": 4569,
      "ǧơƮǥƮƞ": 4570,
      "ǥƌƺǥƝƗ": 4571,
      "ǦƽƜǥƜƨ": 4572,
      "ǦƈƑǥƾƈ": 4573,
      "ǦƃƠ": 4574,
      "ǥƼƀǦƔƾ": 4575,
      "ǨƉƲǥƽƩ": 4576,
      "ǥƒƌǦƔƯǦƌƁ": 4577,
      "Ǧƽ": 4578,
      "ǥƮƢǦƈƷǧƚƄ": 4579,
      "ǨƏƜǨƂƴ": 4580,
      "ǥƓƲ": 4581,
      "ƌƉ": 4582,
      "ǨƇƪǤƿơ": 4583,
      "ǨƧƄǦƨơ": 4584,
      "ƛƭ": 4585,
      "ƚƾ": 4586,
      "ĠK": 4587,
      "ǥƮƗ": 4588,
      "ơƀ": 4589,
      "ǦƉƮǦƼƔ": 4590,
      "ƅƒ": 4591,
      "ǥƒƌǤƸƍ": 4592,
      "ǥƏƦǤƸƀǤƸƪ": 4593,
      "ǦƍƷ": 4594,
      "ǦƜƀǥ": 4595,
      "ǥƓƈ": 4596,
      "ǧƻƆǨƃƞ": 4597,
      "ƷƧ": 4598,
      "ǥƏƯǨƃƽǤƼƚǥƯƼǨƇƴ": 4599,
      "ǩƹ": 4600,
      "ǦƈƑǤƻƬǥưƆ": 4601,
      "Ɠƈ": 4602,
      "ǥƝƚǦƌƁ": 4603,
      "ưƊ": 4604,
      "ing": 4605,
      "ǥƆƅǥƿƃ": 4606,
      "ǨƄƱ": 4607,
      "ǦƜƵ": 4608,
      "ƪƒ": 4609,
      "ǧƚƄǧƔƵǥƽƱ": 4610,
      "ǥưƤǥƅƶ": 4611,
      "Ex": 4612,
      "ǥƏƯǤƻƥǥưƆ": 4613,
      "ǤƼƘǧƂƹ": 4614,
      "ƾƙ": 4615,
      "ǩƇƌǧƚƄ": 4616,
      "ƮƸ": 4617,
      "Pa": 4618,
      "ǨơƗ": 4619,
      "ǨƮưǥƿƆ": 4620,
      "ǧƧƍǦƗƏ": 4621,
      "ǥƈƆǥƸƃ": 4622,
      "ƐƦ": 4623,
      "Ǩƴƥ": 4624,
      "ƘƲ": 4625,
      "ǥƮƌǦƕƴ": 4626,
      "ǥưƾ": 4627,
      "Ǩƈƹ": 4628,
      "ǨƯƁǦƘƎ": 4629,
      "ǥƊƩǦƉƋ": 4630,
      "ǦƘƯǤƸƀǤƽƍ": 4631,
      "ǨƛƋǧƙƽǨƴƨ": 4632,
      "ǥƦƂǤƽƕǥƜƨ": 4633,
      "ǦƜƃ": 4634,
      "ǦƉƹ": 4635,
      "ǧƚƄǤƽƿǧƔƨ": 4636,
      "ǥƼƱ": 4637,
      "ǦƵƷǦƻƩ": 4638,
      "ǦƗƢ": 4639,
      "ǩƚƾǤƻƥ": 4640,
      "ǦƉƀǦƜƉǧƚƄ": 4641,
      "ǨƧƄǥƾƋ": 4642,
      "ƤƜ": 4643,
      "Ǩƙƫ": 4644,
      "ơǨƐ": 4645,
      "ǧƚƄǧƤƾǤƼƚ": 4646,
      "ǨƴƟǨƴƣ": 4647,
      "ǧƺƢǨƉƲ": 4648,
      "ǥƒƌǥƺƔǧƔƨ": 4649,
      "ǥƟƹǥƅƻ": 4650,
      "Ġǯ": 4651,
      "ƬƑ": 4652,
      "Ǥƽƿǥƅƶ": 4653,
      "ǥưƍ": 4654,
      "ǦƘƯǤƸƭǥƛƽ": 4655,
      "ǘƧ": 4656,
      "ǥƏƳ": 4657,
      "ǧƽƪ": 4658,
      "ƞƗ": 4659,
      "ǩơƶ": 4660,
      "ǥƮƫ": 4661,
      "ǥƊƨǥƊƛ": 4662,
      "ǦƗƨǥƜƨ": 4663,
      "ǦƊƥǩƁƓ": 4664,
      "ǥƇƺǧƚƄ": 4665,
      "ǧƚƄǧƩƺ": 4666,
      "ǦƟƥǧƜƋ": 4667,
      "ǧƚƄǤƺƋǦƃƅ": 4668,
      "ǩƻƘ": 4669,
      "ǥƮƞǦƗƶ": 4670,
      "ǦƏƐǤƾƛǧƚƄ": 4671,
      "ǦƯƏǤƸƪǤƺƺǩƃƽ": 4672,
      "ǥƒƌǦƲƻǧƖƗ": 4673,
      "ǦƳƕǨƧƄ": 4674,
      "ǧƱƻǧ": 4675,
      "ǥƒƌǦƜƍǥƊơ": 4676,
      "ƑƱ": 4677,
      "xi": 4678,
      "ǦƉư": 4679,
      "Ƙƥ": 4680,
      "ǦƲƙǦ": 4681,
      "ǥƉƍǦƙƯ": 4682,
      "ǩƀƀ": 4683,
      "ǩƖ": 4684,
      "ǥƛƞǦƔƶ": 4685,
      "ǤƸƀǨƈƬ": 4686,
      "ǤƺƆǨƮƸǥƤƚ": 4687,
      "tp": 4688,
      "ƽƗ": 4689,
      "yi": 4690,
      "ǤƼƠǧƻƟǧƚƄ": 4691,
      "ǦƭƣǥƸƸ": 4692,
      "ǤƹƟǦƜƉ": 4693,
      "ǦƊƫ": 4694,
      "ǤƹƳ": 4695,
      "ǥƽƓǥƜưǧƚƄ": 4696,
      "ƶƲ": 4697,
      "tc": 4698,
      "ƜƠ": 4699,
      "ǥƮƉǨƣƅ": 4700,
      "ǦƈƑǥƜƨ": 4701,
      "ƠƑ": 4702,
      "ǨƇƪǤƸƻ": 4703,
      "ǦƜƬǤƹƦ": 4704,
      "ǥƷƦ": 4705,
      "ǩƀƲ": 4706,
      "ǨƽƬǥƌƖ": 4707,
      "ǥƌƀ": 4708,
      "ǤƸƻǤƺƺ": 4709,
      "ƜƜ": 4710,
      "ǦƗƶǤƻƣ": 4711,
      "ǩƓƶǨơƌ": 4712,
      "ƞƄ": 4713,
      "ǨƢƫǨƮƤǤƸƺ": 4714,
      "ǥưƏǧƺƢ": 4715,
      "\"ǣ": 4716,
      "ǦƎƈ": 4717,
      "ǧƼƺǤƹƏ": 4718,
      "ǥƆƅǧƚƄ": 4719,
      "ǥƐƫǦƜƉ": 4720,
      "ƎƉ": 4721,
      "ǧƔƳ": 4722,
      "ǨƈƞǨ": 4723,
      "Ƈƃ": 4724,
      "Wi": 4725,
      "ǨƴƟǩƝƢǥƽƱǥƓƍ": 4726,
      "ǥƐƫǤƹƉ": 4727,
      "dy": 4728,
      "ƏƠ": 4729,
      "ƝƯ": 4730,
      "ǥƤƏǥƤƩ": 4731,
      "ǩƪƌǨƯƁ": 4732,
      "ǦƜƺǥƙƨǥƭƦǤƹƠǧƮƗǦƳƕ": 4733,
      "AP": 4734,
      "ǨơƣǦƜƍ": 4735,
      "ǥƌƺǥƝƗǩƓƾ": 4736,
      "ǦƌƇǧƚƄǦƘƯ": 4737,
      "ǩƛƶ": 4738,
      "ǤƸƍǦƖƭǥƜư": 4739,
      "ǧƿƒ": 4740,
      "ǦƈƐǥưƱ": 4741,
      "ǥƆƥ": 4742,
      "Ɲƙ": 4743,
      "ǨƈƞǨƹƈ": 4744,
      "ǨƿƙǩƦƖ": 4745,
      "ǧƈƱǥƥƽ": 4746,
      "ǨƷƨ": 4747,
      "ǨƵƄǩƇƑ": 4748,
      "ǥƥƋ": 4749,
      "ǦƕưǦƍƮǥƈƆǦƞƐ": 4750,
      "ƼƗ": 4751,
      "ǐƸ": 4752,
      "ưƼ": 4753,
      "ƀƦ": 4754,
      "ǥưƏǦƗƶ": 4755,
      "ƖƑ": 4756,
      "sm": 4757,
      "ǥƹƶǥưƆ": 4758,
      "ǦƕƴǦƕư": 4759,
      "ƾƃ": 4760,
      "ǧƧƯǦƞƁǧƚƄ": 4761,
      "ǦƉƋǦƮƵ": 4762,
      "ǧƜƟǥƮƞ": 4763,
      "ǥƽƼǦƭƤ": 4764,
      "ǩƃƁ": 4765,
      "ǥưƽǩƇƏ": 4766,
      "ǦƘƯǦƜƀ": 4767,
      "ǨƧƈ": 4768,
      "ǦƤƍ": 4769,
      "ƻƤ": 4770,
      "ƏƳ": 4771,
      "ƴƋ": 4772,
      "ǥƜƨǤƺƎ": 4773,
      "Lu": 4774,
      "ǥƮƜ": 4775,
      "ƎƘ": 4776,
      "ƯƁ": 4777,
      "ǥƒƌǥƮƉǥƅƨ": 4778,
      "ǥƹƕ": 4779,
      "ǦƯƔǤƾƋ": 4780,
      "ǧƻƼǥƐƈ": 4781,
      "Ǧƚƴ": 4782,
      "ǥƆƲ": 4783,
      "ƎƷ": 4784,
      "ǩƛƆǤƸƭ": 4785,
      "ǦƎƒǥƈƗ": 4786,
      "ǧƚƄǥƟƺǦƜƬ": 4787,
      "ǧƟƭǨƯƭ": 4788,
      "ǨƯƁǦƍƮ": 4789,
      "ƁƊ": 4790,
      "ǩƪƨ": 4791,
      "ǨƁƘ": 4792,
      "ǥƈƛǥƻƺǤƸƀǤƸƪ": 4793,
      "ǧƛƮǧƚƄǥƜư": 4794,
      "Em": 4795,
      "ǥƍƁǥƈƆ": 4796,
      "ǥƷƧǥƅƋǥƊƛ": 4797,
      "ǤƺƔǤƸƪ": 4798,
      "ǨƀƌǦƘƯ": 4799,
      "ǥƏƯǨƃƽǥƯƼǨƇƴ": 4800,
      "ǧƉƙ": 4801,
      "ǧƚƄǥƎƟǥƛƠ": 4802,
      "Ƙƅ": 4803,
      "ǨƿƙǤƸƤǤƸƪ": 4804,
      "ƷƦ": 4805,
      "ƖƜǦƬƢ": 4806,
      "ƚƐ": 4807,
      "ǩƇƍǨƧƆ": 4808,
      "Ɨƻ": 4809,
      "ǨƇƪǨơƌ": 4810,
      "ǥƏƯǤƻƥǦƏƐǤƾƛ": 4811,
      "ƗƩ": 4812,
      "ǧƎƉ": 4813,
      "ǧƚƄǥƆƅǥƮƹ": 4814,
      "ƌƶ": 4815,
      "ǥƨƱǤƹƐ": 4816,
      "ǩƗƭ": 4817,
      "ǩƙƈ": 4818,
      "ǥƅƬǦƭƣ": 4819,
      "ǤƾƿǥƈƩ": 4820,
      "ǥƱƋ": 4821,
      "ƣƒ": 4822,
      "ǥƤƩǧƩƺ": 4823,
      "ǥơƑǦƖƙ": 4824,
      "je": 4825,
      "ǩƾƙ": 4826,
      "ǦƸƸǦƳƳ": 4827,
      "ƺƉ": 4828,
      "ƎƢ": 4829,
      "ǥƖƜǥƥƽ": 4830,
      "Ʀƈ": 4831,
      "27": 4832,
      "ǥƻƺǨƮƾ": 4833,
      "ǥƯƿ": 4834,
      "ǧƻƕ": 4835,
      "ƚƗ": 4836,
      "ǥƌƻǧƖƗǤƿƝǥƁƥ": 4837,
      "ǨƃƽǥƤ": 4838,
      "ǤƼƦǧƐƆ": 4839,
      "ƲƟ": 4840,
      "ǨƩ": 4841,
      "ǧƠƴǥƝƏ": 4842,
      "ǥƒƌǧƮơǧƐƆ": 4843,
      "ǨƿƙǦƠƷǧƚƄ": 4844,
      "ǤƸƀǧƻƄ": 4845,
      "Ʊƅ": 4846,
      "ǥƯƆǧƠƁ": 4847,
      "ƍƯ": 4848,
      "ǧƼƖǨƾƑ": 4849,
      "ǤƸƺǦƈƑ": 4850,
      "ǦƘƯǥƐƦǦƜƉ": 4851,
      "ǦƂƦ": 4852,
      "ǧƙƻ": 4853,
      "Ǧƿ": 4854,
      "ǦƘƯǥƦƂǤƽƕ": 4855,
      "ƲƜ": 4856,
      "ǨƶƅǨƿƇ": 4857,
      "ǩơƿ": 4858,
      "ǥƯƹǦƉƋ": 4859,
      "rf": 4860,
      "ǤƸƊǤƸƋ": 4861,
      "ǥƉƍǥƾƀ": 4862,
      "ǦƵƪǦ": 4863,
      "ƦƏ": 4864,
      "ǦƠƼǥƼƏ": 4865,
      "ǦƙƺǨƃƽǥƌƖ": 4866,
      "ǧƚƄǥƟƺǧơƀ": 4867,
      "Ǧƛƴǥƿƫ": 4868,
      "ǧƚƄǧƛƮǦƠƇ": 4869,
      "ǩƛƅ": 4870,
      "ǤƼƚǥƯƹ": 4871,
      "ǥƹƴǩƾƄ": 4872,
      "ǥƅƨǧƐƃǥƏƘǦƚƖ": 4873,
      "ǥƇƆǧơƮǥƜư": 4874,
      "Ǧƍƕ": 4875,
      "ǧƋƬǧƫƋ": 4876,
      "ǨƮƺǦƖƇ": 4877,
      "ǥƆƒǩƙƩ": 4878,
      "Ɗƿ": 4879,
      "ƿƮ": 4880,
      "Sc": 4881,
      "ǧƚƄǩƀƉǦƋƩ": 4882,
      "ƛƲ": 4883,
      "ǤƾƛǥƺƔ": 4884,
      "ǥƏƘǦƈƐ": 4885,
      "ǦƌƇǦƠƇ": 4886,
      "ƋƟ": 4887,
      "ǥƮƶǥƅƷ": 4888,
      "ǥƏƯǤƻƥǨƢƫ": 4889,
      "ǤƻƔ": 4890,
      "ƲǧƪƁ": 4891,
      "ǐƽ": 4892,
      "ǨƋƗ": 4893,
      "ǧƚƄǦƀƻ": 4894,
      "ǥƆƍǧƔƟ": 4895,
      "ǤƸƍǧƟƥǩƁƓ": 4896,
      "98": 4897,
      "ǥƌƻǧƖƗǩƢƆǥƟƟ": 4898,
      "ǧƏƍ": 4899,
      "ǥƓƲǥƭƦ": 4900,
      "ǧƚƄǦƕưǩƇƏ": 4901,
      "Ɯƾ": 4902,
      "ǨƏƜǥƓƁ": 4903,
      "ƞƃ": 4904,
      "ƈƬ": 4905,
      "ǧƚƄǤƸƀǤƺƛ": 4906,
      "ǥƆƲǧƪƁ": 4907,
      "ǤƺƋǥƮƞ": 4908,
      "ƶƅ": 4909,
      "ǧƚƄǨơƌǤƸƺ": 4910,
      "ǩƣƟǧƔƨ": 4911,
      "ƌƑ": 4912,
      "ǥƸƮǥƊƩǤƽƠ": 4913,
      "ǤƼƑ": 4914,
      "ǧƚƄǥƅƷǤƽƓ": 4915,
      "ǤƸƪǦƀƧǥƌƖ": 4916,
      "ƥƹ": 4917,
      "ǧƐƆǨƧƣǥƒƌ": 4918,
      "Ǥƻư": 4919,
      "ǥƆƜǤƸƚ": 4920,
      "ǩƁƵǥƮƈ": 4921,
      "ǥưƏǧƚƄ": 4922,
      "ƙƾ": 4923,
      "ƅư": 4924,
      "ǦƊƀǨƃƽǥƒƌ": 4925,
      "ǧƚƄǧƲƾ": 4926,
      "ƸǦƓ": 4927,
      "Ƶǧ": 4928,
      "ǥƆƥǦƃƳ": 4929,
      "ǥƼƺǧƃƈ": 4930,
      "ǩƗƲ": 4931,
      "ǥƒƌǨư": 4932,
      "ƃơ": 4933,
      "ǥƺƆ": 4934,
      "ǨƴƨǩƇƏǥƒƌ": 4935,
      "ǤƾƝǨƵƖ": 4936,
      "ǧƻƙǤƽƠ": 4937,
      "ǦƣƮǦƞƗ": 4938,
      "ǦƜƀǥƥƽ": 4939,
      "ǦƞƄǥƻƺ": 4940,
      "ǧƝƣ": 4941,
      "ǧƚƄǨƿƇǧƨƋ": 4942,
      "ǩƕƜ": 4943,
      "ǥƏƂǨƀƃ": 4944,
      "ǥƤƱǥƎƻ": 4945,
      "ƚƴ": 4946,
      "Ne": 4947,
      "ǨƀƳ": 4948,
      "ǧƉƛǥƥƶ": 4949,
      "ǥƍƖ": 4950,
      "ƙƐ": 4951,
      "ǤƻƥǤƸƊǦƘƯ": 4952,
      "ǤƼƠǩƀƒ": 4953,
      "ǨƿƙǦƬƾ": 4954,
      "ǩƞƋ": 4955,
      "ǥƳ": 4956,
      "ƅƎ": 4957,
      "ǨơƨǦƠƼ": 4958,
      "ǦƉƾǥƇƺ": 4959,
      "ǨƿƝ": 4960,
      "ǦƵƪǨƴƹ": 4961,
      "ǧƏƭ": 4962,
      "ǨƇƪǨƺƫ": 4963,
      "ƤƼ": 4964,
      "ǨƉƾ": 4965,
      "ǦƊƀǦƜƯǦƝƥ": 4966,
      "ƴƟ": 4967,
      "ǥưƱǥƏƯǤƻƥ": 4968,
      "Ʋƙ": 4969,
      "Da": 4970,
      "ǦƜƗ": 4971,
      "ǦƛƿǤƻƣ": 4972,
      "ǦƏƐǩƆƒ": 4973,
      "ǤƿƝǩƙƩ": 4974,
      "ǩƜƀǨƦƁǨƀƃǨƙƑ": 4975,
      "ǦƔƯǦƌƁǥƒƌ": 4976,
      "ǤƸƭǧƚƄǥƺƔǧƔƨ": 4977,
      "ƹƘ": 4978,
      "ǤƸƤǧƧƍ": 4979,
      "ǨƦƆ": 4980,
      "ǧƃƹǩƥƪ": 4981,
      "Ɓƶ": 4982,
      "ǥƿƃǥƒƌ": 4983,
      "ǦƄƟǥƒƌ": 4984,
      "ǨƄƸ": 4985,
      "Ɗƪ": 4986,
      "ǩƀƚǥƸƸǤƼƚ": 4987,
      "ǥƏƊǥƅƶ": 4988,
      "ǦƷƱǨƿƜ": 4989,
      "ǧƚƄǨƃƽǥƊƛ": 4990,
      "ƠǩƁƓ": 4991,
      "ǥƹƫ": 4992,
      "ƹƖ": 4993,
      "ǧƺƽ": 4994,
      "ǦƛƾǧƻƏ": 4995,
      "ƈƝ": 4996,
      "ǥƍƫǧƔƟ": 4997,
      "ǧƝơǧƜƠ": 4998,
      "ǨƇƳǥƅƳ": 4999,
      "ǥƤƧǨƇƪǧƄƶ": 5000,
      "ǥƮƤǥƆƅ": 5001,
      "ǧƇƃ": 5002,
      "ǧƗƅǦƯƒ": 5003,
      "ǥƍƚǧƉƩ": 5004,
      "ǥƅƉǧƺƿ": 5005,
      "ǥƅƋǦƜƍ": 5006,
      "ƿƜ": 5007,
      "ǧƲƒ": 5008,
      "ǦƕƢ": 5009,
      "ǥƼƹ": 5010,
      "Ɵƹ": 5011,
      "ǦƖƼ": 5012,
      "Ǧƥ": 5013,
      "ƟƐ": 5014,
      "ǦƘƯǥƤƚǥưƑ": 5015,
      "ǥƌƹ": 5016,
      "ƒƜ": 5017,
      "ǨƄƂǨƂ": 5018,
      "ƳƢ": 5019,
      "ǨƿƛǨơƌǥƈƆǧƱƻ": 5020,
      "ǨơƓ": 5021,
      "ǦơƆ": 5022,
      "ƠƂ": 5023,
      "ǧƚƄǧƻƓǦƞƜ": 5024,
      "ǤƽƆǦƈƑ": 5025,
      "ǥƁƏǥƥƽ": 5026,
      "Ɠƅ": 5027,
      "ǥƏƖǤƻƣ": 5028,
      "ǥƤƪǩƘƳǨƃƽ": 5029,
      "ǥƽƢǧƚƄ": 5030,
      "ǥƏƗǦƬƢǨƿƎǧƚƄ": 5031,
      "ǥƭƤǧƋƬ": 5032,
      "ǦƠƇǥƿƗ": 5033,
      "ǥƈƆǩƒƟ": 5034,
      "ǨƾƅǥƊƩ": 5035,
      "ǨƊƂǥƥƏ": 5036,
      "ƕƣ": 5037,
      "aw": 5038,
      "ǦƔƿǦƲƻ": 5039,
      "Ʃƾ": 5040,
      "ǥƅƅǦƻơǤƺƆ": 5041,
      "ǨƺƫǤƻƽ": 5042,
      "ǩƝƢǥƌƅ": 5043,
      "ǥƅƱǤƺƫ": 5044,
      "ǥƍƳǤƽƿ": 5045,
      "ǦƜƟǩƗƴ": 5046,
      "ǧƚƄǧƼƖ": 5047,
      "ǥƅƶǤƸƭǧƚƄ": 5048,
      ":-": 5049,
      "ǥƥƳǥƭƩ": 5050,
      "Ǧơƌ": 5051,
      "ǩƕƇ": 5052,
      "Ɖƺ": 5053,
      "ǨƇƳǥưƑ": 5054,
      "ǩƚƔ": 5055,
      "Mo": 5056,
      "ws": 5057,
      "ǨƯƭǥƏƥ": 5058,
      "ǧƈƶ": 5059,
      "ǥƎƨ": 5060,
      "ƾƹ": 5061,
      "ǩƇƍǧƂƹ": 5062,
      "ǥƹƶǦƲơǦƜƉ": 5063,
      "Fr": 5064,
      "qr": 5065,
      "ǤƺƋǧƉƩ": 5066,
      "ǧƉƩǧƧƍ": 5067,
      "ǧƁƯ": 5068,
      "ǩƗƪ": 5069,
      "ǧƚƄǧƤƾǤƺƤ": 5070,
      "ǥƹƫǥƊƩ": 5071,
      "Ǩƿƅ": 5072,
      "ƾƑ": 5073,
      "ǧƛƑǧƮơ": 5074,
      "ǩƅƒǥƺƗ": 5075,
      "ǤƹƋǥƤƄ": 5076,
      "Sh": 5077,
      "ǧƔƵǦƱƠ": 5078,
      "ǥƓƁǧƧƍ": 5079,
      "ǦƙƮǥƏƊ": 5080,
      "ƊƶǦƀƁ": 5081,
      "$,": 5082,
      "ǦƜƀǥƤƧǧƚƄ": 5083,
      "ǥƀƟ": 5084,
      "ǨƧƆǤƸƺ": 5085,
      "ƸƟ": 5086,
      "ǦƵƪǦƼƫ": 5087,
      "ǩƁƇǥƈưǤƺƆ": 5088,
      "ǧƚƮǨƂƤ": 5089,
      "Ġ{": 5090,
      "ƄǨƌƃ": 5091,
      "ǩƘƶǦƮƵ": 5092,
      "ǥƾƈǥƤƧǧƚƄ": 5093,
      "Ƶƛ": 5094,
      "ǦƖưǥƞƋ": 5095,
      "ƸƲ": 5096,
      "ǦƉƀǥƜƨ": 5097,
      "Ɲƿ": 5098,
      "Ġ>": 5099,
      "ǤƼƘǥƅƈ": 5100,
      "Ǥƹơ": 5101,
      "ǧƻƴǦƌƁ": 5102,
      "ƢǥƤƍ": 5103,
      "ǩƀƏǦƘƎ": 5104,
      "Go": 5105,
      "ǥƻƺǨƮƮǦƂƨ": 5106,
      "Əƶ": 5107,
      "ǥưƺ": 5108,
      "ǥƟƎǥƸƂǧƚƄ": 5109,
      "ǥƏƯǨƃƽǧƚƄ": 5110,
      "56": 5111,
      "Pe": 5112,
      "Ǩƕ": 5113,
      "ǤƹƋǥƐƎ": 5114,
      "ǤƸƺǤƽƠ": 5115,
      "Am": 5116,
      "ǨƯƍǨƯƭ": 5117,
      "Ġ<": 5118,
      "ǤƽƠǨƧƉǥƾƗ": 5119,
      "ǦƜƀǥƖƜǦƬƢ": 5120,
      "ǥƜƨǦƜƪǦƝƥ": 5121,
      "ǧƜƟǧƚƄ": 5122,
      "ƥƨ": 5123,
      "ƄƂ": 5124,
      "ǦƉƓǥƼƀ": 5125,
      "ǥƼƺǥƤƧǧƚƄ": 5126,
      "ƴƁ": 5127,
      "ǧƾƎǥƑƳǧƚƄ": 5128,
      "ǧƾƎǥƥƽ": 5129,
      "ǥƮƃǦƘƯ": 5130,
      "Di": 5131,
      "ǥƱƅǦưƑ": 5132,
      "ƻƘ": 5133,
      "ǦƘƎǦƘƾ": 5134,
      "ǥƮƶǧƚƄ": 5135,
      "ǧƭƉǩƗƮǩƢƘ": 5136,
      "ǨƿƐǧƔƨ": 5137,
      "ǨƮƤǧƟƥ": 5138,
      "ǤƽƠǥƜƨ": 5139,
      "ǨưƃǥƑƳ": 5140,
      "ǥƧƋ": 5141,
      "ǥƯƹǨƱơ": 5142,
      "ǧƚƄǥƏƘǥƌƖ": 5143,
      "ǧƬƬǤƸƀ": 5144,
      "ǤƾƵ": 5145,
      "Ƌƥ": 5146,
      "ƊƊ": 5147,
      "ǥƜưǧƂƹ": 5148,
      "ǨƄƂǨƂƪ": 5149,
      "ǧƆƊ": 5150,
      "ǦƜƟǥƾƅ": 5151,
      "ƅƐ": 5152,
      "ǥƺƏǥƈƗ": 5153,
      "En": 5154,
      "ǨƧƄǨƌƃ": 5155,
      "ǩƕƿǧƚƄ": 5156,
      "ǩƕƿǦƗƶǩƗƴ": 5157,
      "ǥƿƽ": 5158,
      "ǥƓƥ": 5159,
      "ǩƀƉǦƋƩǩƀƂǥƐƈ": 5160,
      "ǥƩƚ": 5161,
      "ǦƕƙǥƸƈ": 5162,
      "ǦƳƨǦƄƏǥƊƛ": 5163,
      "ǦƙƂ": 5164,
      "ǧƁƾǥƮƳ": 5165,
      "ǦƵƋǩƇƏ": 5166,
      "ǦƑƘǨƦƁ": 5167,
      "ǦƏƒ": 5168,
      "ǦƸƅǥƍƕ": 5169,
      "Fa": 5170,
      "ǥƾƀǥƾƀ": 5171,
      "ƼƂ": 5172,
      "ǦƏƐǥƈưǤƺƆ": 5173,
      "ǨƶƳǧƐƃ": 5174,
      "ǥƸƌǦƜƛǨƿƙǤƺƛ": 5175,
      "ǦƀƧǨƴƨ": 5176,
      "ǨƯƷǥƑƊǨƯƉǦƈƑ": 5177,
      "ǥƜưǧƐƃǧƚƄ": 5178,
      "ƑƗ": 5179,
      "ǨƇƪǥƊƨǩƩƾǩƩƶ": 5180,
      "ǥƤƧǥƞƋ": 5181,
      "ǦƈƑǤƹƟ": 5182,
      "26": 5183,
      "ǦƼƫ": 5184,
      "ǩƘƵ": 5185,
      "Ƽư": 5186,
      "ƽƯ": 5187,
      "ǨƴƝ": 5188,
      "ǧƚƄǤƸƀǩƃƨǥƈƆ": 5189,
      "ǨƯƭǩƟƳǨƯƆǥƈƫ": 5190,
      "ǧƂƎ": 5191,
      "gy": 5192,
      "ǦƁƶ": 5193,
      "ǢƄ": 5194,
      "ǦƘƟǧƐƃ": 5195,
      "ǦƻƑ": 5196,
      "ǤƻƀǤƹƈǦƘƯ": 5197,
      "ǩƝƢǤƸƊ": 5198,
      "ƪƬ": 5199,
      "ǨƷƟǨ": 5200,
      "ǑƂ": 5201,
      "ǥƸƸǥƸƸ": 5202,
      "ǨƀƁǥƸƈ": 5203,
      "ƾƮ": 5204,
      "ǧƁƵǦƴƻ": 5205,
      "ƍƁ": 5206,
      "ǤƸƪǦƀƧǥƌƖǧƚƄ": 5207,
      "ǧƔƲ": 5208,
      "ǦƈƐǦƞƜ": 5209,
      "ǩƭƔǦƳƕ": 5210,
      "29": 5211,
      "34": 5212,
      "ƣƀǦƟƥ": 5213,
      "ǥƅƭ": 5214,
      "ǥƟƺǩƇƑ": 5215,
      "ǦƏƐǤƾƛǤƸƀǤƸƪ": 5216,
      "ǥƒƌǦƃƅǦƄƟ": 5217,
      "ǦƊƫǨƐƨ": 5218,
      "ǤƼƼǤƹƎ": 5219,
      "ǥƮƁ": 5220,
      "ƛƨ": 5221,
      "ǨơƨǧƎưǥƇƺ": 5222,
      "ǤƸƦ": 5223,
      "ǥƼƂǥƸƸ": 5224,
      "ǦƋƌ": 5225,
      "ǤƸƖǧƕƌǤƸƊǦƜƀ": 5226,
      "ǧƚƄǩƢƜǨƉƲ": 5227,
      "ǧƻƟǨƮơ": 5228,
      "ǦƜƬǦƖƇ": 5229,
      "ǥƭƸǧƿƒ": 5230,
      "Te": 5231,
      "ǥƱƏ": 5232,
      "ǧƮƀǦƴƁ": 5233,
      "ǥƇƆǧơƮǦƀƧ": 5234,
      "ǨƿƙǩƃƨǧƔƵǥƽƱ": 5235,
      "ǧƗƇǧƊƶ": 5236,
      "ǧƚƄǤƺƧǥƓƁ": 5237,
      "ǤƺƺǧƱƻǧ": 5238,
      "Ǥƺƺǥƣƫ": 5239,
      "ǦƱƤ": 5240,
      "ǥưƱǤƼƚ": 5241,
      "ǨƷƟǨƸƪ": 5242,
      "ǦƛƴǤƸƺ": 5243,
      "'t": 5244,
      "ǩƒƢ": 5245,
      "ǥƅƬǥƹƳ": 5246,
      "}$": 5247,
      "ǩƝƞǥƸƸǦƜƉ": 5248,
      "48": 5249,
      "31": 5250,
      "ǥƈƺǦ": 5251,
      "Ɛƅ": 5252,
      "az": 5253,
      "ǦƝƥǦƏƐǩƫƘ": 5254,
      "*,": 5255,
      "Ġǘ": 5256,
      "ǦƁƐ": 5257,
      "ǤƸƀǧƳƻǥƈƗ": 5258,
      "ǧƃƟ": 5259,
      "ǥƅƬǤƼƗ": 5260,
      "ǤƾƧ": 5261,
      ".ǣ": 5262,
      "ǤƼƠǨƾƾ": 5263,
      "ƕƏ": 5264,
      "ǦƝư": 5265,
      "ƷƑ": 5266,
      "rb": 5267,
      "ǥƈƙǦƘƯ": 5268,
      "ǤƹƉǨƯƍ": 5269,
      "ǥƓƪǩƇƌ": 5270,
      "ǦƵƮ": 5271,
      "ǥƯƒ": 5272,
      "ǤƸƉǨƧƒ": 5273,
      "}}": 5274,
      "Ar": 5275,
      "ǦƜƀǦƖưǧƚƄ": 5276,
      "ǧƚƄǤƸƀǧƧƍ": 5277,
      "ǧƧƟ": 5278,
      "Wo": 5279,
      "ǦƱƟ": 5280,
      "ǩƜƀǨƦƁǦƳƨǦƄƏ": 5281,
      "ǥƢƙ": 5282,
      "ƄƦ": 5283,
      "ĠǤƽƿǧƔƨ": 5284,
      "ǤƸƍǨƿƇ": 5285,
      "ǤƸƀǤƺƛǥƅƳǤƺƎ": 5286,
      "ǥƈưǨƾƾ": 5287,
      "ƸƁ": 5288,
      "ƿƔ": 5289,
      "ǩƻƎ": 5290,
      "ǧơƮǨƮƤ": 5291,
      "Ƅƃ": 5292,
      "ǦƖƇǦƘƎ": 5293,
      "ǩƁƵǥƾƪ": 5294,
      "Be": 5295,
      "ǨƀƃǨƯƕ": 5296,
      "Ǥƻƪ": 5297,
      "ǥƍƚǧƉƩǩƦƆ": 5298,
      "33": 5299,
      "ǧƚƄǦƃƅǥƆƵǤƸƋ": 5300,
      "ǦƎƢǩƙƩ": 5301,
      "ǥƜƟǥ": 5302,
      "Ƭƾ": 5303,
      "ǧƔƟǧƴƠ": 5304,
      "ǧƟƥǥƐƍ": 5305,
      "ǤƿơǥƏƷ": 5306,
      ">>": 5307,
      "ǦưƴǥƈƆ": 5308,
      "ǨƉƯǥƥƽ": 5309,
      "ǦƎƘ": 5310,
      "ǦƯƏǤƸƀ": 5311,
      "ƍƃ": 5312,
      "ǥƤƪǩƘƳǧƳƻ": 5313,
      "ǨƄƏ": 5314,
      "ǦƜƀǥƥƽǧƚƄ": 5315,
      "ǧƮơǧƐƆǥƒƌ": 5316,
      "ǨƮƩǤƺƺǤƻƬ": 5317,
      "ǦƟƥǦƉƾ": 5318,
      "Əư": 5319,
      "ƮƲ": 5320,
      "ǤƸƍǨƶƳ": 5321,
      "ǥƈƆǦƈƐ": 5322,
      "ǥƊƠǥƯƆ": 5323,
      "ǧƛƛ": 5324,
      "ǥƋƇǦưƔ": 5325,
      "ǩƜƇ": 5326,
      "ǦƕưǦƍƮǨƿƛǨơƌ": 5327,
      "ǩƙƆ": 5328,
      "ƈƿ": 5329,
      "55": 5330,
      "ǩƇƍǩƇƏ": 5331,
      "ƣƞ": 5332,
      "ǧƚƄǩƣƟǧƉƩ": 5333,
      "ǧƣ": 5334,
      "ƑƜ": 5335,
      "ǦƙƚǤƸƊ": 5336,
      "ǨƋƏ": 5337,
      "ǧƖƲ": 5338,
      "Ɩƫ": 5339,
      "ƴƣ": 5340,
      "ǥƺƔǨƯƥǦƘƯ": 5341,
      "ǧƅƮ": 5342,
      "ǦƶƈǨƀƗ": 5343,
      "ǧƂƸ": 5344,
      "ǧƛƑǦƎƧ": 5345,
      "ǩƇƊǦƔƾ": 5346,
      "ǩƂƣǩƇƌ": 5347,
      "ǤƹƋǩƗƴǧƚƄǥƅƳǧƳƻ": 5348,
      "ǧƚƄǦƖư": 5349,
      "ǧƜƋǧƜƋ": 5350,
      "ǤƼƚǥƯƼǨƇƴ": 5351,
      "ǥƒƌǦƊƀǦƜƯ": 5352,
      "ǥƽƢǥƮƹ": 5353,
      "IǦ": 5354,
      "ǦƉƓǥƍư": 5355,
      "ǥƏƑǦƘƎ": 5356,
      "ǥƜƣ": 5357,
      "Ƽƽ": 5358,
      "ǨƿƙǦƄƏǥƑƳǧƝƀ": 5359,
      "ǦƜƀǩƇƍǨƦƁǧƚƄ": 5360,
      "ǥơƫ": 5361,
      "cm": 5362,
      "ah": 5363,
      "ơƣ": 5364,
      "ǧƺƽǧƺƦ": 5365,
      "ǦƊƱ": 5366,
      "ǥƏƍǦƘƠ": 5367,
      "ǤƸƥǦƠƼ": 5368,
      "ǥƤƧǨƄƑ": 5369,
      "ǦƁƢǥƤƍ": 5370,
      "ƌƀ": 5371,
      "ǧƉƩǧƐƆǥƭƦ": 5372,
      "ǤƻƖǥƜƨ": 5373,
      "ǩƀƂǧƔƨǤƺƎ": 5374,
      "ǥƏƯǥƆƍǧƔƟ": 5375,
      "ǥƫ": 5376,
      "ǦƕƴǤƽƓ": 5377,
      "ǥƅƨǩƝƢ": 5378,
      "ǧƺƠ": 5379,
      "ƺƑ": 5380,
      "ǥƈƺǦƿƀ": 5381,
      "ǧƭƉǥƛƠǧƴƠ": 5382,
      "ǥƒƌǥƻƺǨƮƮ": 5383,
      "ǧƠƔǥƏƑ": 5384,
      "ƍƗ": 5385,
      "ǨơƨǨƾƾǤƺƆ": 5386,
      "ǤƸƺǦƂƨǦƏƐǤƾƛ": 5387,
      "ǥƒƌǨưƐ": 5388,
      "ƼƑ": 5389,
      "(-": 5390,
      "ƗƯ": 5391,
      "ǦƋƓ": 5392,
      "ǩƀƚǥƸƸǦƘƯ": 5393,
      "ǧƔƟǦƴƻǧƚƄ": 5394,
      "ǦƈƑǨƧƉǥƾƗ": 5395,
      "ǦƸƸǥƮƢ": 5396,
      "Ʊƽ": 5397,
      "ǨƢƫǥƹƿǦƳƛ": 5398,
      "ǦƈƐǧƻƩ": 5399,
      "ǥƒƌǦƕưǦƍƮ": 5400,
      "ǥƇƆǧơƮǧƚƄ": 5401,
      "ǦƸƩǥƮƤ": 5402,
      "ǥƁƶ": 5403,
      "Iǥ": 5404,
      "ǧƾƤǤƽƓ": 5405,
      "Ɖƌ": 5406,
      "ƚǣ": 5407,
      "ǩƣƎǦƙƯ": 5408,
      "Ǒƀ": 5409,
      "ǨƯƺ": 5410,
      "ǦƎƨǧƐƆ": 5411,
      "ǦƜƪǧƟƥ": 5412,
      "ǤƸƊǤƸƋǦƖƇ": 5413,
      "ǧƚƄǤƻƻǥƊơ": 5414,
      "ƍư": 5415,
      "ǧƭƉǥƾƅ": 5416,
      "ǩƀƃ": 5417,
      "ǥƝƇǥƌƀ": 5418,
      "ǥƈƛǤƸƚ": 5419,
      "ơƞ": 5420,
      "ǦƸƠǩƁƓ": 5421,
      "ǤƺƺǦưƑ": 5422,
      "ǧƚƄǧƜƟ": 5423,
      "ǨƒƸ": 5424,
      "ǧƈƱǧƚƄ": 5425,
      "ǧƚƄǧƾƎǩƣƟ": 5426,
      "ǧƚƄǦƦƂǥƿƵ": 5427,
      "ǦƳƕǥƛƽ": 5428,
      "ǧƤƾǤƼƚǧƚƄ": 5429,
      "ƛƊ": 5430,
      "ǥƸƦǦƝƥǧƚƄ": 5431,
      "ƮƱ": 5432,
      "ǤƺƧǤƸƚ": 5433,
      "ǥƉƪ": 5434,
      "ƀƒ": 5435,
      "ǥƐƌǤƺƋ": 5436,
      "ƹƅ": 5437,
      "ǤƸƓǤƸƚǧƚƄ": 5438,
      "ƺƭ": 5439,
      "rp": 5440,
      "ǨƱơǥƾƁ": 5441,
      "ǧƝƛ": 5442,
      "ǩơƾǥƮƢ": 5443,
      "za": 5444,
      "ǥƓƁǥưƝ": 5445,
      "ǦƑƄǥƅƥ": 5446,
      "ǦƊƕǥƅƥ": 5447,
      "Ǩƺƫǥƿƃ": 5448,
      "ǩƁƓǨƷƯ": 5449,
      "==": 5450,
      "ǤƸƓǥƮƶ": 5451,
      "ǥƐƸǦƔƶ": 5452,
      "ǥƹƶǤƸƍǦƘƯ": 5453,
      "ǧƻƓǦƝƟ": 5454,
      "ǤƿƝǦƊƤǧƎƯǥƢƃ": 5455,
      "ǧƔƳǨƯƷ": 5456,
      "ǥƐƈǥƐƌ": 5457,
      "ǩƫƘǥƅƴ": 5458,
      "Ʃƿ": 5459,
      "ǧƮƀǧƟƭ": 5460,
      "dl": 5461,
      "ǥƮƚǥƈƶ": 5462,
      "ǦƗƶǥƅƉ": 5463,
      "ǧƚƄǨƮƾǨƮơ": 5464,
      "ǤƼƙ": 5465,
      "ƒƱ": 5466,
      "ǦƄƿǦƄƏ": 5467,
      "ǦƈƘǤƺƉ": 5468,
      ")^": 5469,
      "{\\": 5470,
      "ƍƈ": 5471,
      "$\\": 5472,
      "ǥƏƪǨƃƽ": 5473,
      "ǥƾƈǥƥƽ": 5474,
      "ǦƖƇǦơƣ": 5475,
      "Me": 5476,
      "65": 5477,
      "ǩƇƎǧƔƟ": 5478,
      "Us": 5479,
      "ǂư": 5480,
      "ƻƇ": 5481,
      "ǦƉƋǦƜƯ": 5482,
      "Ad": 5483,
      "Po": 5484,
      "ǥưƆǤƻƥǤƸƋ": 5485,
      "gt": 5486,
      "ǥƮƗǦƕƙ": 5487,
      "^{": 5488,
      "ǥƭƐǥƒƌ": 5489,
      "ǧƛƑǧƝƣ": 5490,
      "ƑƄǥƅƥ": 5491,
      "ƯƢ": 5492,
      "La": 5493,
      "ǧƙƌ": 5494,
      "ƕƥ": 5495,
      "ơơ": 5496,
      "ǧƔƵǨƯƝ": 5497,
      "ǤƸƋǩƙƍ": 5498,
      "ǤƿơǤƻư": 5499,
      "ǥƊƞǥƅƬ": 5500,
      "Ǩƾƣ": 5501,
      "ǦƈƑǤƻƬǧƚƄǧƔƟǦƴƻ": 5502,
      "ǥƔƯ": 5503,
      "ǧƴƯ": 5504,
      "ǤƼƘǦƃƠ": 5505,
      "ǦƬƧǦƴƲ": 5506,
      "ǦƔƶǧƛƊ": 5507,
      "ǥƍƏǨưƃ": 5508,
      "cd": 5509,
      "ǦƗƶǥƈƻ": 5510,
      "ƈƪ": 5511,
      "ǩƢƆǥƟƟǤƸƭ": 5512,
      "ǦƘƓǤƺƎ": 5513,
      "ǨưƃǨƊƂ": 5514,
      "ǧƴƧǥƼƠ": 5515,
      "ǤƽƓǨƂƲ": 5516,
      "ƼƦ": 5517,
      "Ƶư": 5518,
      "ƋƇ": 5519,
      "ǥƹƶǤƸƺ": 5520,
      "ǧƧƑǥƹƻ": 5521,
      "ǩƙƷ": 5522,
      "ǥƏƌǦƖƹ": 5523,
      ")ǯ": 5524,
      "ƪƉ": 5525,
      "ǥƜƟǥƣƤ": 5526,
      "ǦƭƌǨƯƍ": 5527,
      "Ǩƍƣ": 5528,
      "ǦƉƋǥƷƥ": 5529,
      "ƇƉ": 5530,
      "ƴƗ": 5531,
      "ǧƯƮ": 5532,
      "ǥƼƕǥƊƛ": 5533,
      "ǧƚƄǤƻƷǦƠƼ": 5534,
      "ǥƷƝ": 5535,
      "ǤƽƠǥƯƹ": 5536,
      "ǨƋƱǥƛƽ": 5537,
      "Ʋǩ": 5538,
      "ǥƐƍǨƯƍ": 5539,
      "ǤƸƊǦƵƷ": 5540,
      "ǤƻƋǧƻƍǤƺƆ": 5541,
      "ǧƔƵǥƭƐǩƂƮǤƻƶ": 5542,
      "ǦƝƃǥƈƩ": 5543,
      "ǥƁƥǥƺƷǩƥƮǩƣƟ": 5544,
      "ǦƠƇǧƭƾ": 5545,
      "ǦƘƯǤƸƀǥƐƍ": 5546,
      "Ƹƾ": 5547,
      "ǧƊƬ": 5548,
      "ƽƏ": 5549,
      "ƢƜ": 5550,
      "ǨƑơǨƐ": 5551,
      "ǦƌƑǦƈƘǥƒƌ": 5552,
      "ǦƀƎǦƠƷ": 5553,
      "ǤƸƍǤƻƅǤƻƅ": 5554,
      "ǨƓƝǨƉƲ": 5555,
      "ǨƯƢǩƗƮ": 5556,
      "Ǩƴƴ": 5557,
      "ǨƁƌǤƽƍ": 5558,
      "ǥƜƺǦƉƀ": 5559,
      "ǦƛƴǦƜƉ": 5560,
      "ǦƋƛǨƁƘ": 5561,
      "ǨƇƪǨơƌǨƽƦ": 5562,
      "ǦƸƅǦ": 5563,
      "ǤƸƀǩƁƓ": 5564,
      "Ro": 5565,
      "ǨƦƁǦƳƨǦƄƏ": 5566,
      "ǤƺƺǤƽƓ": 5567,
      "ǦƠƹǦƍƮǨƇƪǥƷƱǧƚƄ": 5568,
      "ƎƩ": 5569,
      "//": 5570,
      "ǨƣƤ": 5571,
      "ǥƅƁ": 5572,
      "ƍƏ": 5573,
      "ǥƏƯǤƻƥǨƀƃǨƙƑ": 5574,
      "ǥƅƅǨƶƳ": 5575,
      "ƮƳ": 5576,
      "ƀƀ": 5577,
      "ǥƅƔ": 5578,
      "ǤƻƎǦƖƇǧƫƠǤƸƭ": 5579,
      "ǧƴƧǦƀƥ": 5580,
      "ǥƜƺǥƐƈ": 5581,
      "ǤƼƤǥƮƳ": 5582,
      "ǨƯƕǥƛƾ": 5583,
      "ǨƏƌ": 5584,
      "ǦƍƟǥƤƱ": 5585,
      "ǥƭƩǥƭƐǤƻƬ": 5586,
      "ǤƺƒǧƛƸ": 5587,
      "ǦƉƘ": 5588,
      "ǥƒƌǥƷƥǤƽƜ": 5589,
      "ǩƙƄǨƿƑ": 5590,
      "ǦƢƦǦƃƳ": 5591,
      "ǥƏƯǤƻƥǧƔƨ": 5592,
      "ǦƕƬ": 5593,
      "ǩƻƄǨƉƲ": 5594,
      "ǧƙƼ": 5595,
      "ǥƮƉǥƅƨǥƒƌ": 5596,
      "ǧƚƄǧƟƭ": 5597,
      "ǧƕƙǤƸƋ": 5598,
      "Do": 5599,
      "ǩƁƎ": 5600,
      "ǥƍƕǤƽƍ": 5601,
      "ǩƣƟǨưƱ": 5602,
      "ƸƜ": 5603,
      "ǤƽƿǧƔƨǤƺƆ": 5604,
      "ǧƓƶ": 5605,
      "Pl": 5606,
      "ǩƫƔ": 5607,
      "ǤƸƭǥƛƽǧƚƄ": 5608,
      "ǩƚƏǦƗƶ": 5609,
      "ǤƺƺǥƜƨ": 5610,
      "ǦƈƑǦƃƳǧƟƥǩƁƓ": 5611,
      "ǥƅƍǧƖƫ": 5612,
      "ǦƗƧ": 5613,
      "ǧƚƄǧƥƞ": 5614,
      "ǥƓƪǧƧƍ": 5615,
      "ǧƚƄǦƀƁ": 5616,
      "Ƌƌ": 5617,
      "Ǧƀƕ": 5618,
      "ǦƈƐǥƊƟǧƚƄ": 5619,
      "ǨƸ": 5620,
      "ǦƞƄǦƈƐ": 5621,
      "ǨưƊ": 5622,
      "ǦƎƥǨƧƦ": 5623,
      "ǤƸƻǨƧƒ": 5624,
      "Ǥƺơ": 5625,
      "ǥƏƯǤƻƥǦƘƯ": 5626,
      "ǧƺƷ": 5627,
      "ǥƜưǥƌƺǧƚƄ": 5628,
      "ǨƊƂǦƗƥ": 5629,
      "ǩƫƘǨƴƨǩƇƏ": 5630,
      "ǥƝƀ": 5631,
      "ƈƚ": 5632,
      "ǥƐƍǤƸƺ": 5633,
      "ǧƺƯ": 5634,
      "ix": 5635,
      "ǥƏƤǨƀƁ": 5636,
      "ǥƏƑǥƱƕǧƚƄ": 5637,
      "ǥƜưǧƚƄ": 5638,
      "ǤƸƓǦƳƨǤƺƎ": 5639,
      "ǧƋƗǧƋƗ": 5640,
      "ƊƬ": 5641,
      "ǥƆƠ": 5642,
      "ǥƷƲǧƻƏǦƈƐǤƸƺ": 5643,
      "ǦƘƯǩƀƚǨƿƇ": 5644,
      "ǦƘƯǩƝƞǥƸƸǩƇƍǨƦƁǧƚƄ": 5645,
      "ǧƢƍ": 5646,
      "ǧƧƍǦƤƍ": 5647,
      "ǥƿƃǦƃƅ": 5648,
      "ǥƎƟǥƈƙ": 5649,
      "ǑƁ": 5650,
      "ǧƚƄǦƼƔ": 5651,
      "ǦưƔǦƸƩ": 5652,
      "ǧƬƬǤƸƉ": 5653,
      "Ǝƅ": 5654,
      "ǥƏƗǤƼƗ": 5655,
      "ǧƺƤ": 5656,
      "ǦƜƍǨƣƅ": 5657,
      "ǦƈƑǥƸƌǦƜƛ": 5658,
      "ƢƑ": 5659,
      "ǦƕưǧƻƄ": 5660,
      "ƷƮ": 5661,
      "ǥƆƍǦƬơ": 5662,
      "ǤƹƟǥƜƨ": 5663,
      "ǦƉƩǥƤƧ": 5664,
      "ǥƮƌǥƖƄ": 5665,
      "ƚƮ": 5666,
      "ǨƂƺ": 5667,
      "ǦƝƥǨƮơǧƮƗ": 5668,
      "Ɔư": 5669,
      "95": 5670,
      "ǧƈƆ": 5671,
      "ǥƒƌǧƐƆǨƧƣ": 5672,
      "ǥƀƒǥƅƥ": 5673,
      "ǧƎƯǥƢƃǦƱơǦƟƓ": 5674,
      "Gi": 5675,
      "ƢƝ": 5676,
      "ǦƂƠ": 5677,
      "ǩƪƑ": 5678,
      "ǥƏƯǨƃƽǦƀƧ": 5679,
      "ǩƚƜǧƢƍ": 5680,
      "lf": 5681,
      "ǦƅƢ": 5682,
      "ǦưƸǨƿƜ": 5683,
      "ƿƵ": 5684,
      "ǥƒƌǨơƌǤƸƺ": 5685,
      "ǥƊƠǤƸƊ": 5686,
      "ǤƽƠǦƘƯ": 5687,
      "ǦƂƣǨƀƅǧƚƄ": 5688,
      "ǥƼƕǦƓ": 5689,
      "ǩƠ": 5690,
      "ƦƆ": 5691,
      "ǦƜƉǦƉƀǤƸƍǥƐƌ": 5692,
      "ǧƚƄǥƏƥǥƭƐ": 5693,
      "ǤƸƀǦƝơ": 5694,
      "ƪǦƘƎ": 5695,
      "ǥƅƁǨƮƸ": 5696,
      "ǥƮƞǤƽƓ": 5697,
      "ƷƝ": 5698,
      "Ǧƹƿ": 5699,
      "ǦƘƨ": 5700,
      "ǨƷƯǧƺƿ": 5701,
      "ǥƸƝ": 5702,
      "ǧƬƦǥƏƷ": 5703,
      "ǧƚƄǧƉƹǧƂƹ": 5704,
      "ǥƲƁ": 5705,
      "ǨƦƆǧƛƖ": 5706,
      "ƳƳ": 5707,
      "ǨƽƬǥƌƖǤƸƺ": 5708,
      "Ǩƽƨ": 5709,
      "cs": 5710,
      "ǥƐƹ": 5711,
      "nǥ": 5712,
      "ǦƉƀǩƜƀǧƚƄ": 5713,
      "ƢƎ": 5714,
      "Ɲƒ": 5715,
      "ǨƿƅǩƀƟ": 5716,
      "ǦƏƐǥƈư": 5717,
      "ǥƿƠ": 5718,
      "ǤƺƋǤƸƚ": 5719,
      "ǥƊƠǩƀƟ": 5720,
      "Na": 5721,
      "ǥƤƚǦƠƷǦƀƧ": 5722,
      "Ba": 5723,
      "ǨƺƫǤƽƓǥƁƥǥƺƷ": 5724,
      "ǦƁƋ": 5725,
      "ǦƏƐǧƤƺ": 5726,
      "ƕƪ": 5727,
      "ǥƹƶǧơƮǤƿƝ": 5728,
      "ǦƜƟǦƜƛ": 5729,
      "hl": 5730,
      "ǥƺƦǨƿƇ": 5731,
      "ǥƷƴǩƻƎ": 5732,
      "ƲƳ": 5733,
      "ƪƗ": 5734,
      "ǦưƧǦưƔ": 5735,
      "ǥƇƠǧƧƍ": 5736,
      "ǤƽƓǧƎư": 5737,
      "ƪǨƌƄ": 5738,
      "Ɖ-": 5739,
      "ƄƉ": 5740,
      "ǥƏƘǩƝƩ": 5741,
      "Ǩƚ": 5742,
      "ǤƼƘǧƧƀǧƚƄ": 5743,
      "ǦƄƟǦƟƓ": 5744,
      "ƂǧƚƄ": 5745,
      "ǩƁƭ": 5746,
      "ǥƜƈ": 5747,
      "eu": 5748,
      "ǦƗƠǩƙƐ": 5749,
      "ǦƉƬ": 5750,
      "ƽƩ": 5751,
      "96": 5752,
      "ǥƕƊ": 5753,
      "ǥƒƪ": 5754,
      "ƺƜ": 5755,
      "ǨƵƄǤƺƧ": 5756,
      "ǥƌƹǩƅƍ": 5757,
      "ǦưƴǧƚƄ": 5758,
      "ǦƲƿ": 5759,
      "ǦƉƩǥƱƕ": 5760,
      "ǨƮƤǧƜƟ": 5761,
      "ǥƾƈǦƜƉ": 5762,
      "ǥƜưǤƽƍ": 5763,
      "ǦƈƑǥƯƹ": 5764,
      "ǦưƴǤƸƭ": 5765,
      "ǥƼƕǦƓƎ": 5766,
      "ǨƵƢ": 5767,
      "ǥƅƈǨƿƛ": 5768,
      "ǥƾƈǥƥƽǧƚƄ": 5769,
      "ǨƊƱǨƴƹ": 5770,
      "ǨƑơǨƐƄ": 5771,
      "ǩƸơǨƛƋ": 5772,
      "ǦƎƨǥƇƺ": 5773,
      "ǥƯƹǤƺƺǧƱƻ": 5774,
      "ǨƿƙǦƠƷǥƏƯǤƻƥ": 5775,
      "ǧƺƹ": 5776,
      "GP": 5777,
      "ǥƋƕ": 5778,
      "ǤƼƸ": 5779,
      "ǧƖƫǨƋƗ": 5780,
      "ǦƩƙ": 5781,
      "ǥƅƶǤƻƖǧƚƄ": 5782,
      "ǥƹƿǦƳƛǧƚƄǥƺƔǧƔƨ": 5783,
      "ǥƎƟǥ": 5784,
      "Ƃǯ": 5785,
      "ǦƎƨǨƍƐǤƸƀǤƺƛ": 5786,
      "ǦƜƉǥƤƚǥưƑ": 5787,
      "ƅǥƊƛ": 5788,
      "ǥƇƺǨơƌ": 5789,
      "ǦƘƾǨƑƗ": 5790,
      "ǦƙƮǩƀƚ": 5791,
      "ǧƻƙǤƺƈ": 5792,
      "ǩƸƣ": 5793,
      "ǥƏƋǨưƊ": 5794,
      "ǦƕưǤƸƺ": 5795,
      "ǧƔư": 5796,
      "ƥƖ": 5797,
      "ǨƆ": 5798,
      "ƽƙ": 5799,
      "ǨƊƱǥƛƭ": 5800,
      "ǥƽƱǥƃƏ": 5801,
      "ƨơǥƼƏ": 5802,
      "ǧƬƬǤƸƀǤƸƪ": 5803,
      "ǤƸƍǩƜƀǨƦƁ": 5804,
      "ǩƇƑǥƱƞ": 5805,
      "ǦƮƖ": 5806,
      "ǤƸƪǤƺƺǧƚƄ": 5807,
      "ǦƖƇǥƌƖǧƚƄ": 5808,
      "ǧƚƄǦƽƜ": 5809,
      "ǧƥƞǧƧƘǧƚƄ": 5810,
      "ǧƨƮ": 5811,
      "ǦƛƴǩƫƘǧƚƄ": 5812,
      "ǥƒƌǥƭƦǤƹƠ": 5813,
      "ǥƝƦ": 5814,
      "ǥƎƋǥƊƛǥƒƌ": 5815,
      "ǥƤƖǧƚƄ": 5816,
      "ǨƺƫǤƽƓǥƒƌ": 5817,
      ".,": 5818,
      "ǥƀƺ": 5819,
      "ǧƻƴǧƔƟǧƴƠ": 5820,
      "ǥƷƨǥƤƧ": 5821,
      "ǨƢƫǨƮƤǤƸƺǦƘƯ": 5822,
      "ǨƿƇǤƺƎ": 5823,
      "ǥƅƫ": 5824,
      "ƥƝ": 5825,
      "Ɲƃ": 5826,
      "ǥƈƇǦƈƐ": 5827,
      "ǨƃƽǥƤƟǥƜƨ": 5828,
      "ƿƎ": 5829,
      "ek": 5830,
      "Ph": 5831,
      "ǥƛƠǤƸƺǥƮƃǤƻƬ": 5832,
      "ǥƉƯ": 5833,
      "ǧƿƻǨƯƑǦƈƐ": 5834,
      "ƃƧ": 5835,
      "ǧƚƄǧƼƖǧƨƋ": 5836,
      "ǨƷƃ": 5837,
      "ƈƻ": 5838,
      "ǤƻƋǧƻƍǤƸƀǤƸƋ": 5839,
      "ǥƒƌǤƽƿǧƔƨ": 5840,
      "ǥƁƚǥƥƽ": 5841,
      "ǨƂƯ": 5842,
      "ǦƜƉǦƜƺ": 5843,
      "ǨƯƦǧƻƆǧƚƄ": 5844,
      "ǦƄƉǥƿƫ": 5845,
      "ǨƿƐǧƮƗ": 5846,
      "Ɖƴ": 5847,
      "ǦƄƉǦƂƦ": 5848,
      "ǦƛƿǦƍƢ": 5849,
      "ǥƏƯǥƆƍǧƔƟǨƃƽǦƺƐ": 5850,
      "zi": 5851,
      "ǤƺƺǥƷƥǦƙƺǨƃƽǧƚƄǥƏƑǥƱƕ": 5852,
      "ǧƔƟǦƗƥ": 5853,
      "ǥƊƛǤƺƎ": 5854,
      "ǦƝƥǧƚƄ": 5855,
      "ǦƂƉ": 5856,
      "ƒƖ": 5857,
      "ǨƿƛǨơƌǤƺƆ": 5858,
      "ǩơƌ": 5859,
      "ǥƒƌǩƜƀǦƱƂ": 5860,
      "ǧƛƒ": 5861,
      "ǥƏƂǨƧƂ": 5862,
      "'r": 5863,
      "ǨƮƩǤƻƖǤƻƬ": 5864,
      "ǩƘƻ": 5865,
      "ǧƐƴ": 5866,
      "ǥƼƺǨưƃǤƺƆ": 5867,
      "ǥƿƧ": 5868,
      "Ǧƈƴ": 5869,
      "ǥƤƚǥƅƃ": 5870,
      "ǥƌƻǩƙƢ": 5871,
      "gg": 5872,
      "ǧƫƞǤƺƉǥƯƹǦƉƋ": 5873,
      "ǤƸƖǧƺƪ": 5874,
      "ǩƣƘ": 5875,
      "ƲƸ": 5876,
      "ǧƚƄǩƜƀǦƱƂ": 5877,
      "ǦơƈǤƾƋ": 5878,
      "ǥƒƌǦƗƶǩƗƴ": 5879,
      "ǦƊƕǨƵƄǨƀƅ": 5880,
      "Ƃƪ": 5881,
      "ǨƑƱ": 5882,
      "ǨƿƙǧƯƇǦƖƇǧƫƠǤƸƭ": 5883,
      "ƊƳ": 5884,
      "ǥƮƚǤƽƍ": 5885,
      "ǥƈƸ": 5886,
      "97": 5887,
      "ǨƯƷǧƻƙǦƈƑ": 5888,
      "Ƹƴ": 5889,
      "ǧƶ": 5890,
      "ǧƻƄǦƈƐǩƃƨǥƈƆ": 5891,
      "Ǥƺƺǩƙƅ": 5892,
      "ǥƹƶǥưƆǥƅƶ": 5893,
      "ǨƁƪǦƘƎ": 5894,
      "ǦƏƏǧƻƘ": 5895,
      "ǥƯƸ": 5896,
      "Un": 5897,
      "ǧƼƺǧƂƹ": 5898,
      "ǥƏƣǨƯƭ": 5899,
      "ǥƛƞǥƿƆ": 5900,
      "`ǯ": 5901,
      "Lo": 5902,
      "'m": 5903,
      "ƍƫ": 5904,
      "ǦơƈǤƻƶ": 5905,
      "ǥƒƌǦƊƀǨƃƽ": 5906,
      "ǧƚƄǤƽƍǧƽƮ": 5907,
      "ǦƯƏǤƸƀǤƸƪ": 5908,
      "ƆƊ": 5909,
      "ǩƘƔ": 5910,
      "ǧƚƄǦƴƻǥƊƨ": 5911,
      "ǤƸƍǥƤƪ": 5912,
      "ǨƿƙǤƺƛǩƗƮǩƢƘ": 5913,
      "ǦƂƲ": 5914,
      "ǥƥƽǥƤƄ": 5915,
      "ǙƄ": 5916,
      "ER": 5917,
      "ǦƈƑǥƐƬǨƯƴ": 5918,
      "ƊƯ": 5919,
      "ǩƀƂǩƇƏ": 5920,
      "ǥƔƮ": 5921,
      "Ƙƾ": 5922,
      "ǤƺƺǥƏƣ": 5923,
      "Ġz": 5924,
      "ƒư": 5925,
      "ǩƂƣǤƸƪ": 5926,
      "Ɗƽ": 5927,
      "ƂƮ": 5928,
      "ǧƦƻǥƼƀ": 5929,
      "ǦƊƀǨơƓ": 5930,
      "ǥƾƗǥƇƺ": 5931,
      "ǨƏƜǥƍƕ": 5932,
      "ǦƋƅǥƿƃ": 5933,
      "ƤƾǤƼƚ": 5934,
      "ǧƽƚ": 5935,
      "ǧƲƾǥƇƆ": 5936,
      "ƗƇ": 5937,
      "ƜƗ": 5938,
      "Ơƴ": 5939,
      "ǧƲƾǥƊƛ": 5940,
      "ǧƚƄǧƝơ": 5941,
      "ǨƄƉ": 5942,
      "ǨƿƘǨƃƽ": 5943,
      "ǥƎƻǧ": 5944,
      "ǤƺƆǥƾƈǥƤƚ": 5945,
      "ǥƤƧǥƤƚ": 5946,
      "ǦƙƮǩƁƍ": 5947,
      "ǩƫƘǧƺƧ": 5948,
      "ǩƝƢǨƯƕ": 5949,
      "ǧƉƹǦƀƧ": 5950,
      "ǥƿƃǧƐƆǥƁƥǥƺƷ": 5951,
      "ǥƿƃǧƁƵ": 5952,
      "Ǧƴƛ": 5953,
      "ǦƜƀǩƀƂǥƐƈ": 5954,
      "ǥƈƩǦƶƦ": 5955,
      "ǩƔƀǥƔƮǩƢƝ": 5956,
      "ǨƙƚǦƋƟǧƎưǥƮƞ": 5957,
      "Ƈƻ": 5958,
      "ǤƻƥǥƸƮǥƊƩ": 5959,
      "Sp": 5960,
      "ƻƪ": 5961,
      "ǧƩƿǧƝƀ": 5962,
      "ǦƏƐǤƾƛǦƛƴ": 5963,
      "Ɔƥ": 5964,
      "ǨƇƴǥƊƛǤƺƎ": 5965,
      "ǨƎƓ": 5966,
      "ǧƔƟǥƑƽǧƚƄ": 5967,
      "ǦƷơ": 5968,
      "ǩƙƪ": 5969,
      "ǦƗƠǤƺƺ": 5970,
      "ǩƇƍǥƤƧ": 5971,
      "ǥƓƺ": 5972,
      "ǦƘƯǦƈƑǤƻƬ": 5973,
      "LE": 5974,
      "Br": 5975,
      "Ɛƨ": 5976,
      ")ǣ": 5977,
      "ǧƉƈǦƜƬ": 5978,
      "ǥƹƿǦƳƛǧƚƄ": 5979,
      "ǨƋƥ": 5980,
      "ǥƌƺǥƈƫ": 5981,
      "ǤƸƃ": 5982,
      "ǧƼƖǧƨƋǨƯƭǨƨƀ": 5983,
      "ǩƜƀǨƦƁǥƜƨ": 5984,
      "ǥƿƃǦƀƁ": 5985,
      "ǤƹƱ": 5986,
      "ǧƔƷǦƀƧ": 5987,
      "ǤƸƀǧƛƴǥƜƨ": 5988,
      "ǦƄƟǦƃƅ": 5989,
      "ǥƸƂǥƜ": 5990,
      "ǩƃƽǥƏƯǤƻƥ": 5991,
      "ǨƲƌ": 5992,
      "ǩƀƉǦƋƩǥƐƈǩƀƂǧƚƄ": 5993,
      "ǨƍƷ": 5994,
      "ǧƚƄǦƖƇǦƜƬ": 5995,
      "ǩƓƅ": 5996,
      "ǥƥƖǥƊƱ": 5997,
      "ǧƚƄǦƜƺǤƼƚ": 5998,
      "ǥƺƦǥƁƇ": 5999,
      "ƺƲ": 6000,
      "ǨƴƧǥƸƁ": 6001,
      "ǦƗƶǧƚƄ": 6002,
      "Cl": 6003,
      "ǤƹƟǥƾƈ": 6004,
      "IT": 6005,
      "ǦƗƋǥƾƋ": 6006,
      "ǦƎƥǤƸƋǦƝƥ": 6007,
      "ǦƜƬǨƺƫ": 6008,
      "Ve": 6009,
      "89": 6010,
      "ǧƈƽ": 6011,
      "ǧƚƇ": 6012,
      "42": 6013,
      "Ɣƅ": 6014,
      "ǦƕưǥƭƗǥƌƖ": 6015,
      "ǤƸƊǨƿư": 6016,
      "ǥƛƛǤƸƪ": 6017,
      "ǧƖƫǦƃƅ": 6018,
      "AIǥƜƨ": 6019,
      "ǨƢƫǧƧưǤƸƺ": 6020,
      "ǩƛƄ": 6021,
      "ǧƐƆǥƿƵ": 6022,
      "ǩƃƽǥƜƨ": 6023,
      "ǥƎƟǥƧƋ": 6024,
      "ǦƄƏǨƯƆǥƈư": 6025,
      "ǥƮƞǧƔƨ": 6026,
      "ǨơƌǧƚƄ": 6027,
      "ǤƽƓǧƳƻ": 6028,
      "ǤƿƮǥƤƍ": 6029,
      "eh": 6030,
      "84": 6031,
      "ǧƁƵǦƄƟ": 6032,
      "ǥƍƏǨƮƮ": 6033,
      "ǧƚƄǥƟƎǥƸƂ": 6034,
      "ǦơƆǦƞƶ": 6035,
      "ǩƢƑǧƎƇ": 6036,
      "ǧƚƄǨƿƇǧƨƋǤƸƭ": 6037,
      "ǤƼƙǤƼƴ": 6038,
      "ǥƏƪǨƦƁ": 6039,
      "ǥƸƸǧƔƨǧƚƄ": 6040,
      "ǧƚƄǥƤƧ": 6041,
      "wr": 6042,
      "ǦƶƂ": 6043,
      "ǤƻƥǦƏƐǩƫƘ": 6044,
      "Ɵƿ": 6045,
      "ǧƚƄǥƤƩǦưƔ": 6046,
      "ǧƭƉǤƺƎ": 6047,
      "ǦƃƅǥƆƵǤƸƋ": 6048,
      "88": 6049,
      "ǧƚƄǥƁƥǥƺƷ": 6050,
      "ƀƑ": 6051,
      "ǩƛƷ": 6052,
      "ǧƺƤǧƻƴ": 6053,
      "ǠƮ": 6054,
      "ƒƑ": 6055,
      "ǦƋƼǥƆƙ": 6056,
      "ǨƘ": 6057,
      "As": 6058,
      "ǩƘƴ": 6059,
      "ǨƞƍǥƐƈ": 6060,
      "ǤƸƀǥƅƱ": 6061,
      "ǧƚƄǧƜƋ": 6062,
      "ǥƧƿ": 6063,
      "ƆƷ": 6064,
      "ǥƤƖǨƧƂ": 6065,
      "Ƌƒ": 6066,
      "ǦƈƑǦƜƀǨƿƑ": 6067,
      "ǦưƔǦƁƯ": 6068,
      "ǩƼƠ": 6069,
      "ǧƜƟǦƭƣǧƚƄ": 6070,
      "ǦƈƑǤƻƬǤƼƚ": 6071,
      "05": 6072,
      "ǥƹƴǨƽƻǤƺƺ": 6073,
      "ǥƹƳǦƖƹ": 6074,
      "ƵǧƛƖ": 6075,
      "ǦƕưǥƈƗ": 6076,
      "ƢǦƅƢ": 6077,
      "ǥƈƠ": 6078,
      "ǩƢƄǦƊƥ": 6079,
      "ǦƌƇǥƍƗ": 6080,
      "ƭƩ": 6081,
      "ǥƦƆ": 6082,
      "ǤƸƀǩơƹ": 6083,
      "nǧ": 6084,
      "ǦƈƑǥƀƑ": 6085,
      "ƈƞ": 6086,
      "ǦƞƝ": 6087,
      "ǥƤƧǧƺƦ": 6088,
      "ǦƷƋ": 6089,
      "ǥƄƿǧƫƥ": 6090,
      "ƽƐ": 6091,
      "ǥƉƲ": 6092,
      "ǤƺƺǧƱƻǧƤƾǤƼƚ": 6093,
      "ǤƸƋǥƈƗ": 6094,
      "ǦƀƧǦƠƼ": 6095,
      "ǧƛƾ": 6096,
      "ǨƁƌǥƜƺ": 6097,
      "ǦƨơǥƞƋǧƚƄ": 6098,
      "ǧƴƫ": 6099,
      "ǥƮƢǦƜƍ": 6100,
      "ǤƾƿǦƍƷ": 6101,
      "ƻƅ": 6102,
      "Ǧƀƪ": 6103,
      "ǤƻƿǤƽƛ": 6104,
      "ǦƬƺ": 6105,
      "Ʊƞ": 6106,
      "ǨƊƝ": 6107,
      "ǦƚƗ": 6108,
      "ǦƯƏǦƬơ": 6109,
      "ǨƵƄǦƖƙ": 6110,
      "ǤƸƍǥƆƍ": 6111,
      "ǦƈƑǦƗƠǦƳƕ": 6112,
      "ǥƼƕǥƏƑ": 6113,
      "ǤƽƓǩƇƍ": 6114,
      "ǥƜƨǨƿƙ": 6115,
      "ǥƼƕǥƯƼ": 6116,
      "ǥƦƂǦƭƤ": 6117,
      "ƸƝ": 6118,
      "ǩƜƀǨƦƁǨƿƛǨơƌ": 6119,
      "ǧƎƯǤƿƝǧƚƄ": 6120,
      "ǥƈƶǥƺƦ": 6121,
      "ǨƷƑǦƭƥ": 6122,
      "ǧƈƬ": 6123,
      "ǤƸƁ": 6124,
      "67": 6125,
      "ǩƩƱ": 6126,
      "ǨƀƃǨƙƑǥƈư": 6127,
      "ǥƒƌǦưƴ": 6128,
      "ǨƇƪǧƄƶǧƁƾǥƮƳ": 6129,
      "ǦƞƁǧƫƯ": 6130,
      "ƄƑ": 6131,
      "ǨƯƷǦƏƐǤƾƛ": 6132,
      "ǦƟƐǧƧƍ": 6133,
      "ǦƌƖ": 6134,
      "ƾƣ": 6135,
      "ǦƈƑǦƃƳǤƺƆǨƧƣ": 6136,
      "ǨƯƷǦƱƂ": 6137,
      "ǥƈƶǦƈƐ": 6138,
      "Ha": 6139,
      "ǨƉƺǦƜƯǥƮƶ": 6140,
      "ǦƕưǦƍƮǥƺƓ": 6141,
      "ƥƚ": 6142,
      "ǥƌƖǥƐƈ": 6143,
      "ǦƃƅǦƄƟǥƒƌ": 6144,
      "ǥƏƑǩƀƁ": 6145,
      "ǥƑƨǦƜƟ": 6146,
      "ǧƞ": 6147,
      "ǧƔƵǥƙƨ": 6148,
      "ǥƎƟǥƭƐ": 6149,
      "QL": 6150,
      "Ǩƴƫ": 6151,
      "ǦƲƙǦƻƩ": 6152,
      "ǧƎƯǥƢƃǧƚƄ": 6153,
      "ǦƗƥǥƸƸǧƔƟǦƴƻ": 6154,
      "Ǡƹ": 6155,
      "ǦƊƵ": 6156,
      "ǤƿƗ": 6157,
      "ǤƼƠǦƄƟ": 6158,
      "ƾƁ": 6159,
      "ǥƒƌǥưƏ": 6160,
      "ǧƻƓǨƮƺ": 6161,
      "ƱƁ": 6162,
      "Ɠƾ": 6163,
      "ǤƺƋǩơƹ": 6164,
      "ǥƏƯǤƻƥǤƻƎ": 6165,
      "ǤƸƀǥƜƺ": 6166,
      "ǥƱƏǥƹƕ": 6167,
      "ǧƕƪǨƌƄ": 6168,
      "tm": 6169,
      "iu": 6170,
      "ǥƁƏǨƧƁ": 6171,
      "ǧƜƋǥƈưǤƺƆ": 6172,
      "ǥƟƃ": 6173,
      "ǨƣƁ": 6174,
      "Ǩƅƿ": 6175,
      "ǨƿƙǤƸƪǥƏƥǥƭƐ": 6176,
      "ǧƚƄǨƯƝ": 6177,
      "ǩƣƞǦƜƺ": 6178,
      "ǧƭƛ": 6179,
      "ǥƐƉ": 6180,
      "ƹƻ": 6181,
      "$.": 6182,
      "ǦƠƇǨƮư": 6183,
      "ǧƚƄǧƝơǧƜƠ": 6184,
      "ǦƻƤ": 6185,
      "ǦƝƥǨƧƣǥƆƳ": 6186,
      "ǥƏƯǤƻƥǧƔƨǦƝƥ": 6187,
      "ǦƳư": 6188,
      "ǦƘƎǥƤƩ": 6189,
      "ǦưƢ": 6190,
      "ǦƝƀ": 6191,
      "ǦƊƑ": 6192,
      "ǦƈƑǤƻƬǥƏƯǤƻƥǩƀƚǨƿƇ": 6193,
      "ǧƼƖǥƆƙǤƸƀǤƸƪ": 6194,
      "ƅƿ": 6195,
      "ǥƤƄǤƺƎ": 6196,
      "78": 6197,
      "Ǩƿƫ": 6198,
      "ƙƻ": 6199,
      "ǥƭƦǧƧƑ": 6200,
      "ǧƝƀǦ": 6201,
      "ǦƝƥǥƸƮǥƊƩ": 6202,
      "ǥƮƌǦƈƐǤƻƻǥƊơ": 6203,
      "CT": 6204,
      "ǥƍưǥƺƦ": 6205,
      "Ǧưƴǥƒƌ": 6206,
      "ǥƈƆǧƱƻǤƸƺ": 6207,
      "Ƈƥ": 6208,
      "ǧƚƄǦƕƈǦƞƜ": 6209,
      "ǨƮƓ": 6210,
      "ǦƁƩ": 6211,
      "ǨƌƃǥƛƴǥƆƅ": 6212,
      "ƷƳ": 6213,
      "ǤƿơǧƔƨ": 6214,
      "nǤ": 6215,
      "ǥƓƺǤƹƳ": 6216,
      "ǦƯƕ": 6217,
      "ǤƼƠǦƄƟǥƙƨ": 6218,
      "ǨƴƸ": 6219,
      "ưƁ": 6220,
      "Ǩƿƙǩơƹ": 6221,
      "ǥƏƖǥƾƗǤƺƆ": 6222,
      "ǦƿƀǥƊƱ": 6223,
      "ǧƚƄǧƜƋǦƳƕ": 6224,
      "ǥƮƉǥƅƨǦƀƧ": 6225,
      "ǧƛƸǥƊƠ": 6226,
      "ƺƯ": 6227,
      "ǥƐƈǧƐƆǧƚƄ": 6228,
      "ǦƲƙǦƋƉ": 6229,
      "ƽƒ": 6230,
      "ǦƖƇǦƜƬǤƸƭǧƚƄ": 6231,
      "ǤƺƋǦƕƅ": 6232,
      "ǦƷƱǨƿƜǧƚƄǥƽƱǥƓƍ": 6233,
      "ǧƚƄǤƸƻ": 6234,
      "ǧƚƄǧƔƟǦƴƻǦƖƹǥƼƏ": 6235,
      "ǨơƀǥƎƋ": 6236,
      "ơƾ": 6237,
      "ǧƾƊ": 6238,
      "ǤƸƀǥƤƩ": 6239,
      "ǦƜƀǦƖư": 6240,
      "ƃƯ": 6241,
      "ǥƷƥǧƨƋǥƸƈ": 6242,
      "ǥƕƆǥƊơ": 6243,
      "ǧƻƏǧƐƆ": 6244,
      "tion": 6245,
      "ǦƿƀǥƏƑ": 6246,
      "ǤƼƟ": 6247,
      "ǧƛƈ": 6248,
      "ǤƸƊǥƍƇ": 6249,
      "ǧƻƓǦƞƄǥƒƌ": 6250,
      "ǩƘƐ": 6251,
      "ǥƐƬǨƵƷǦƝƥ": 6252,
      "ǩƻƑǨƉƲ": 6253,
      "ǥƺƆǧƥƝ": 6254,
      "ǥƈƛǩƀƠǥƇƺ": 6255,
      "ǩƃƽǨƃƽ": 6256,
      "ǧƚƄǦƄƟǨƧƉ": 6257,
      "ǦƂƬ": 6258,
      "ǥƷƲǧƟƥ": 6259,
      "ǥƼƦ": 6260,
      "ǧƲƾǧơƮ": 6261,
      "ǦƢư": 6262,
      "Gr": 6263,
      "ǧƚƄǥƅƳǧƳƻ": 6264,
      "Ɨƛ": 6265,
      "ǦƵƸ": 6266,
      "ǦƙƯǨƧƂ": 6267,
      "ǧƎƩǥƅƷ": 6268,
      "ǤƿơǦƁƯǥƒƌ": 6269,
      "ǦưƑǦƗƏ": 6270,
      "ǧƟƩ": 6271,
      "ǦƋƍ": 6272,
      "ƿƽ": 6273,
      "ǥƈƝǥƭƦ": 6274,
      "ƌ\"": 6275,
      "ǩƓƅǧƬƔ": 6276,
      "ym": 6277,
      "ǧƚƄǧƗƅ": 6278,
      "ǦƉƣ": 6279,
      "ǦƂƨǥƏƯǤƻƥǥƜƨ": 6280,
      "ǨƮƾǥƮƚ": 6281,
      "ǤƹƟǥưƆ": 6282,
      "ƜƆ": 6283,
      "ǦƕƣǦƭƥ": 6284,
      "ǤƸƍǧơƮǥƮƚ": 6285,
      "ƑƘǨƦƁ": 6286,
      "ǧƚƄǧƽƑǧƫƙ": 6287,
      "ǥƈƷ": 6288,
      "ǧƚƄǧƁƵ": 6289,
      "ǨƴƦǦƈƷ": 6290,
      "ƫƞ": 6291,
      "ǦƹƖ": 6292,
      "ǦƏƴ": 6293,
      "ǤƸƀǤƻƶ": 6294,
      "ǧƣƁ": 6295,
      "ƧƜ": 6296,
      "ǥƑƨǦƜƫ": 6297,
      "Əƫ": 6298,
      "ǨƗ": 6299,
      "ǩƺƦ": 6300,
      "ǨƿƙǦƬơ": 6301,
      "ǨƿƙǥƮƶ": 6302,
      "ǦƈƑǦƘƯ": 6303,
      "ǤƸƋǩƝƢǦƘƯ": 6304,
      "ƾƪ": 6305,
      "ǩƇƏǥƒƌ": 6306,
      "ǧƁƭ": 6307,
      "ǦƉƾǥƈưǤƺƆ": 6308,
      "ǨƿƙǦƜƬǤƹƦ": 6309,
      "ǩƸơǨƂƉ": 6310,
      "SE": 6311,
      "ǦƌƂ": 6312,
      "ǩƀƂǩƇƏǧƚƄ": 6313,
      "Ɗƞ": 6314,
      "ǧƃƭǦƃƅ": 6315,
      "ǧƎƯǥƢƃǥƒƌ": 6316,
      "ǨƴƨǧƚƄ": 6317,
      "ǦƦƂǦƋƬ": 6318,
      "ƜƂ": 6319,
      "ǥƏƹ": 6320,
      "ǩƫƘǦƕƈǧƚƄ": 6321,
      "ǦƄƟǧƟƥ": 6322,
      "ǩƜƀǨƦƁǦƠƹǦƍƮ": 6323,
      "ǤƼƊ": 6324,
      "ǥƽƓǤƽƠ": 6325,
      "ǤƸƀǥƼƠ": 6326,
      "ǧƚƄǦƀƁǥƺƦ": 6327,
      "ǧƚƄǧƾƎǥƥƽ": 6328,
      "ǤƹƟǥƏƯǨƃƽ": 6329,
      "ǤƼƑǩƗƲ": 6330,
      "ka": 6331,
      "ǧƚƄǨƯƭǨƨƀ": 6332,
      "ǦƭƣǩƝƢ": 6333,
      "ǥƤƧǥƜư": 6334,
      "ǦƜƈǧƐƃ": 6335,
      "ƌƙ": 6336,
      "Ǧƒư": 6337,
      "ǧƚƄǧƋƬ": 6338,
      "ǥƼƀǥƱƕ": 6339,
      "Ʃƚ": 6340,
      "ǥƦƂǦƞƜǦƈƑǤƻƬ": 6341,
      "Ɛƭǩƅƍ": 6342,
      "ǧƪƗ": 6343,
      "ǥƱƂǦƬơ": 6344,
      "ǥƇƺǨƉƲ": 6345,
      "ǦƏƭ": 6346,
      "ǨơƌǩƩƶ": 6347,
      "ǥƒƌǥƹƳ": 6348,
      "ǤƺƌǦưƧǥƌƖ": 6349,
      "ǥƛƞǦƊƥ": 6350,
      "ƛư": 6351,
      "ǨƎƷǥƾƗǤƺƆ": 6352,
      "ĠǧƚƄ": 6353,
      "ǨƪƉ": 6354,
      "ǧƚƄǧƈƱǦƃƅ": 6355,
      "ǤƸƍǨƉƯ": 6356,
      "ǧƕƶ": 6357,
      "ǣƁƮ": 6358,
      "ǦƛƴǥƥƽǥƜưǧƮơǧƐƆ": 6359,
      "ǩƀƲǨơƌ": 6360,
      "ƂƎ": 6361,
      "ǥƈƆǨƧƣ": 6362,
      "DNA": 6363,
      "85": 6364,
      "ǤƼƁǤƸƚǧƚƄ": 6365,
      "ƭƢ": 6366,
      "ơƫ": 6367,
      "ǥƤƜǦƙƚ": 6368,
      "ƈǦƁƯ": 6369,
      "ǥƖƜǦƬƢǧƚƄ": 6370,
      "Ǧƾ": 6371,
      "ǨƮƾǨƮơǤƸƀǤƸƪ": 6372,
      "ǦƝƥǨƿƛǨơƌ": 6373,
      "ǧƔƷǥƭƩ": 6374,
      "64": 6375,
      "ǦƈƑǤƻƬǥƏƯǤƻƥǤƽƿǧƔƨ": 6376,
      "ǨƿƐǨƾƓ": 6377,
      "ǦƏƐǥƉƍ": 6378,
      "ǥƿƗǦƄƿ": 6379,
      "dg": 6380,
      "ǥƇƝ": 6381,
      "ǧƪƁǥƇƺ": 6382,
      "ǥƏƯǨƃƽǤƼƚǥƯƹ": 6383,
      "ǦƓƅ": 6384,
      "Ǩƥƿǧ": 6385,
      "ǥƐƈǦƳƕ": 6386,
      "ǩƇƎǧƔƟǥƊƨǧƉƩ": 6387,
      "ǨƈƒǩƀƂǧƚƄ": 6388,
      "ǩƁƗǤƺƧ": 6389,
      "ǧƧƑǦƊƀǧƚƄ": 6390,
      "ǥƷƥǤƽƜǥƒƌ": 6391,
      "Əƌ": 6392,
      "ǧƚƄǥƊƟǨƃƽ": 6393,
      "ǩƢƆǥƟƟǧƚƄǥƺƔǧƔƨ": 6394,
      "ǥƈƠǩƙƤ": 6395,
      "ǩƗƜ": 6396,
      "ǨƽƻǨƽƻ": 6397,
      "ǥƞƃǥƜƾǥƈƆǧƱƻ": 6398,
      "ǦƕƏǦƄƟ": 6399
    },
    "merges": [
      [
        "ǯ",
        "Ƽ"
      ],
      [
        "Ǥ",
        "Ƹ"
      ],
      [
        "ǧ",
        "ƚ"
      ],
      [
        "Ƽ",
        "ƌ"
      ],
      [
        "ǣ",
        "ƀ"
      ],
      [
        "ǧƚ",
        "Ƅ"
      ],
      [
        "ƀ",
        "Ƃ"
      ],
      [
        "Ǥ",
        "ƻ"
      ],
      [
        "Ǥ",
        "ƺ"
      ],
      [
        "ǥ",
        "Ə"
      ],
      [
        "Ǧ",
        "Ɯ"
      ],
      [
        "Ǧ",
        "ƈ"
      ],
      [
        "Ǥ",
        "ƽ"
      ],
      [
        "Ǩ",
        "ƿ"
      ],
      [
        "ǥ",
        "ƅ"
      ],
      [
        "ǥ",
        "ƒ"
      ],
      [
        "ǥ",
        "ƈ"
      ],
      [
        "ǧ",
        "Ɣ"
      ],
      [
        "ǥ",
        "Ƥ"
      ],
      [
        "Ǧ",
        "Ƙ"
      ],
      [
        "ǥ",
        "Ʈ"
      ],
      [
        "ǥ",
        "Ɯ"
      ],
      [
        "ǥƒ",
        "ƌ"
      ],
      [
        "ǥ",
        "Ɗ"
      ],
      [
        "Ǩ",
        "Ư"
      ],
      [
        "Ƽ",
        "ƚ"
      ],
      [
        "Ǧ",
        "Ɩ"
      ],
      [
        "ǥ",
        "Ɛ"
      ],
      [
        "Ǥ",
        "ƹ"
      ],
      [
        "ǧ",
        "ƻ"
      ],
      [
        "ǤƸ",
        "ƀ"
      ],
      [
        "ƀ",
        "Ɓ"
      ],
      [
        "ǥ",
        "ư"
      ],
      [
        "ǥ",
        "ƭ"
      ],
      [
        "Ǩ",
        "Ʈ"
      ],
      [
        "ƃ",
        "ƽ"
      ],
      [
        "Ǥƻ",
        "ƥ"
      ],
      [
        "ǦƘ",
        "Ư"
      ],
      [
        "ǥ",
        "ƺ"
      ],
      [
        "Ǧ",
        "ƕ"
      ],
      [
        "ǥƏ",
        "Ư"
      ],
      [
        "ǥ",
        "Ƹ"
      ],
      [
        "Ǧ",
        "Ɲ"
      ],
      [
        "Ǧ",
        "Ɨ"
      ],
      [
        "ǩ",
        "Ƈ"
      ],
      [
        "ƚ",
        "Ƅ"
      ],
      [
        "ǥ",
        "ƹ"
      ],
      [
        "Ǧƈ",
        "Ƒ"
      ],
      [
        "Ǩ",
        "ơ"
      ],
      [
        "ǥƜ",
        "ƨ"
      ],
      [
        "ǥ",
        "ƌ"
      ],
      [
        "ǥ",
        "ƛ"
      ],
      [
        "ǥ",
        "Ʒ"
      ],
      [
        "ǤƸ",
        "ƪ"
      ],
      [
        "ǩ",
        "ƀ"
      ],
      [
        "Ǩ",
        "Ƨ"
      ],
      [
        "Ǩ",
        "ƃƽ"
      ],
      [
        "Ǥƺ",
        "ƺ"
      ],
      [
        "Ǩ",
        "Ʀ"
      ],
      [
        "ǥ",
        "Ư"
      ],
      [
        "ǥ",
        "Ƈ"
      ],
      [
        "ǦƜ",
        "Ɖ"
      ],
      [
        "ǧ",
        "Ǝ"
      ],
      [
        "ǧ",
        "ƭ"
      ],
      [
        "ǥ",
        "Ƽ"
      ],
      [
        "ǥ",
        "Ɔ"
      ],
      [
        "ǩ",
        "Ƣ"
      ],
      [
        "ǥ",
        "ƥ"
      ],
      [
        "ǧ",
        "Ɖ"
      ],
      [
        "Ǧ",
        "Ɗ"
      ],
      [
        "ǧ",
        "Ƨ"
      ],
      [
        "ǥƏƯ",
        "Ǥƻƥ"
      ],
      [
        "ǧƔ",
        "ƨ"
      ],
      [
        "ǥ",
        "ƾ"
      ],
      [
        "ǩ",
        "Ɨ"
      ],
      [
        "Ǥƻ",
        "Ƭ"
      ],
      [
        "Ǥ",
        "ƿ"
      ],
      [
        "Ǩƿ",
        "ƙ"
      ],
      [
        "ǨƦ",
        "Ɓ"
      ],
      [
        "Ǧ",
        "ƀ"
      ],
      [
        "Ǧ",
        "Ɖ"
      ],
      [
        "Ǧ",
        "ƞ"
      ],
      [
        "Ǥƺ",
        "Ɔ"
      ],
      [
        "ǥ",
        "Ʀ"
      ],
      [
        "Ǧ",
        "Ƴ"
      ],
      [
        "Ǩ",
        "ƀ"
      ],
      [
        "ǤƸ",
        "ƭ"
      ],
      [
        "Ǧ",
        "ƭ"
      ],
      [
        "ǥ",
        "ƽ"
      ],
      [
        "ǧ",
        "ƛ"
      ],
      [
        "ǤƸ",
        "ƺ"
      ],
      [
        "ǩ",
        "Ɲ"
      ],
      [
        "Ǧ",
        "Ơ"
      ],
      [
        "Ǧ",
        "Ə"
      ],
      [
        "Ǩ",
        "Ƈ"
      ],
      [
        "Ǧ",
        "Ƅ"
      ],
      [
        "ǥ",
        "ƍ"
      ],
      [
        "ǧ",
        "Ɛ"
      ],
      [
        "Ġ",
        "t"
      ],
      [
        "Ǥ",
        "Ƽ"
      ],
      [
        "ǤƸ",
        "ƍ"
      ],
      [
        "Ǧ",
        "ƛ"
      ],
      [
        "ǥ",
        "Ɠ"
      ],
      [
        "Ǥ",
        "ƾ"
      ],
      [
        "Ǧ",
        "ƃ"
      ],
      [
        "Ɯ",
        "ƀ"
      ],
      [
        "Ǧ",
        "ƙ"
      ],
      [
        "Ǧ",
        "Ǝ"
      ],
      [
        "i",
        "n"
      ],
      [
        "ǧƔ",
        "Ɵ"
      ],
      [
        "t",
        "h"
      ],
      [
        "ǦƝ",
        "ƥ"
      ],
      [
        "Ǧ",
        "ư"
      ],
      [
        "Ǧ",
        "Ƌ"
      ],
      [
        "ǥ",
        "Ƒ"
      ],
      [
        "Ǧ",
        "Ɣ"
      ],
      [
        "Ǩ",
        "ƴ"
      ],
      [
        "Ǧ",
        "Ƃ"
      ],
      [
        "Ġ",
        "a"
      ],
      [
        "ǥ",
        "ƿ"
      ],
      [
        "Ǥƺ",
        "ƛ"
      ],
      [
        "h",
        "e"
      ],
      [
        "Ǣ",
        "ƀ"
      ],
      [
        "Ǧ",
        "ƌ"
      ],
      [
        "Ǧ",
        "Ƶ"
      ],
      [
        "Ǧ",
        "ƍ"
      ],
      [
        "Ǩơ",
        "ƌ"
      ],
      [
        "ǦƖ",
        "ƹ"
      ],
      [
        "Ǥ",
        "Ƽƚ"
      ],
      [
        "Ǧ",
        "Ư"
      ],
      [
        "Ǥƽ",
        "Ơ"
      ],
      [
        "ǥ",
        "Ǝ"
      ],
      [
        "Ǧƛ",
        "ƴ"
      ],
      [
        "ǥƜ",
        "ư"
      ],
      [
        "Ǩ",
        "Ƶ"
      ],
      [
        "Ǧƈ",
        "Ɛ"
      ],
      [
        "ǥƭ",
        "Ʀ"
      ],
      [
        "ǥƈ",
        "ư"
      ],
      [
        "Ƽ",
        "Ɵ"
      ],
      [
        "e",
        "r"
      ],
      [
        "ǧ",
        "Ʈ"
      ],
      [
        "ǥ",
        "Ʊ"
      ],
      [
        "Ǧƕ",
        "ư"
      ],
      [
        "ǥƯ",
        "ƹ"
      ],
      [
        "Ƹ",
        "ƀ"
      ],
      [
        "ǦƗ",
        "ƶ"
      ],
      [
        "ǤƸƀ",
        "ǤƸƪ"
      ],
      [
        "Ǥƺ",
        "Ǝ"
      ],
      [
        "ǩ",
        "Ɯƀ"
      ],
      [
        "o",
        "n"
      ],
      [
        "ǦƏ",
        "Ɛ"
      ],
      [
        "ǥƦ",
        "Ƃ"
      ],
      [
        "Ǩ",
        "ƾ"
      ],
      [
        "ǨƇ",
        "ƪ"
      ],
      [
        "Ǥƽ",
        "Ɯ"
      ],
      [
        "a",
        "n"
      ],
      [
        "ǦƈƑ",
        "ǤƻƬ"
      ],
      [
        "r",
        "e"
      ],
      [
        "Ǥƻ",
        "Ɩ"
      ],
      [
        "ǩ",
        "ƣ"
      ],
      [
        "ǧ",
        "Ʊ"
      ],
      [
        "ǥ",
        "Ɵ"
      ],
      [
        "ǥƤ",
        "ƚ"
      ],
      [
        "ǥƷ",
        "ƥ"
      ],
      [
        "Ǧ",
        "ƴ"
      ],
      [
        "ǧ",
        "ƺ"
      ],
      [
        "ǧƭ",
        "Ɖ"
      ],
      [
        "ǦƖ",
        "Ƈ"
      ],
      [
        "ǩ",
        "ƙ"
      ],
      [
        "ǩ",
        "ƫ"
      ],
      [
        "ǥƈ",
        "Ɔ"
      ],
      [
        "ǥƊ",
        "ƨ"
      ],
      [
        "ǧ",
        "ƫ"
      ],
      [
        "Ǧ",
        "Ƹ"
      ],
      [
        "Ƙ",
        "Ư"
      ],
      [
        "Ƅ",
        "Ǧ"
      ],
      [
        "ǥƇ",
        "ƺ"
      ],
      [
        "Ǩ",
        "Ɖ"
      ],
      [
        "ǧƐ",
        "Ɔ"
      ],
      [
        "ǥƏ",
        "Ƒ"
      ],
      [
        "ǤƸ",
        "Ƌ"
      ],
      [
        "ǥ",
        "Ɓ"
      ],
      [
        "ǧƉ",
        "Ʃ"
      ],
      [
        "ǥƹ",
        "ƶ"
      ],
      [
        "ǥƤ",
        "Ƨ"
      ],
      [
        "ǥƌ",
        "Ɩ"
      ],
      [
        "ǥƺ",
        "Ɣ"
      ],
      [
        "ǧ",
        "ƨ"
      ],
      [
        "ǩ",
        "Ɓ"
      ],
      [
        "Ǩƿ",
        "Ƈ"
      ],
      [
        "ǩƜƀ",
        "ǨƦƁ"
      ],
      [
        "Ǧ",
        "Ʊ"
      ],
      [
        "Ǧƈ",
        "Ɩ"
      ],
      [
        "Ǧ",
        "Ʋ"
      ],
      [
        "ǧ",
        "Ƅ"
      ],
      [
        "ǤƸ",
        "Ɗ"
      ],
      [
        "ƻ",
        "ƥ"
      ],
      [
        "ǦƳ",
        "ƕ"
      ],
      [
        "ǧƧ",
        "ƍ"
      ],
      [
        "t",
        "e"
      ],
      [
        "Ǩƿ",
        "ƛ"
      ],
      [
        "Ġ",
        "i"
      ],
      [
        "Ƹ",
        "ƪ"
      ],
      [
        "Ǧƀ",
        "Ƨ"
      ],
      [
        "ǦƂ",
        "ƨ"
      ],
      [
        "ǦƊ",
        "ƀ"
      ],
      [
        "Ǥƿ",
        "Ɲ"
      ],
      [
        "e",
        "s"
      ],
      [
        "Ǩ",
        "ƽ"
      ],
      [
        "ǩƀ",
        "ƚ"
      ],
      [
        "ǧƎ",
        "ư"
      ],
      [
        "ǥƊ",
        "ƛ"
      ],
      [
        "Ǧ",
        "Ƭ"
      ],
      [
        "ǥư",
        "Ɔ"
      ],
      [
        "Ǥƽ",
        "ƿ"
      ],
      [
        "e",
        "n"
      ],
      [
        "ǧ",
        "Ƴ"
      ],
      [
        "ǥƊ",
        "Ơ"
      ],
      [
        "t",
        "i"
      ],
      [
        "Ƌ",
        "ǥ"
      ],
      [
        "Ƅ",
        "ǥ"
      ],
      [
        "ǥƥ",
        "ƽ"
      ],
      [
        "Ʀ",
        "Ƃ"
      ],
      [
        "Ǥƽ",
        "Ɠ"
      ],
      [
        "ǥƮ",
        "ƚ"
      ],
      [
        "ǧ",
        "ơ"
      ],
      [
        "Ǩ",
        "ƃ"
      ],
      [
        "ǩƝ",
        "Ƣ"
      ],
      [
        "Ư",
        "Ǥ"
      ],
      [
        "Ǩ",
        "ƶ"
      ],
      [
        "ǥƅ",
        "Ƴ"
      ],
      [
        "ǨƧ",
        "ƣ"
      ],
      [
        "a",
        "t"
      ],
      [
        "ǩ",
        "Ƙ"
      ],
      [
        "Ġ",
        "Ġ"
      ],
      [
        "ǧƚƄ",
        "ǧ"
      ],
      [
        "ǥƮ",
        "ƃ"
      ],
      [
        "ƒ",
        "ƌ"
      ],
      [
        "ƺ",
        "ǥ"
      ],
      [
        "Ġ",
        "s"
      ],
      [
        "ƻ",
        "ǧ"
      ],
      [
        "o",
        "r"
      ],
      [
        "ǥƐ",
        "ƌ"
      ],
      [
        "ǥƸ",
        "Ƹ"
      ],
      [
        "Ǩ",
        "ư"
      ],
      [
        "Ǥƹ",
        "Ɵ"
      ],
      [
        "ƀ",
        "ǥ"
      ],
      [
        "Ǧƍ",
        "Ʈ"
      ],
      [
        "ǩƢ",
        "Ƙ"
      ],
      [
        "ǥ",
        "Ƣ"
      ],
      [
        "ƀ",
        "Ǥ"
      ],
      [
        "ǥƅ",
        "ƶ"
      ],
      [
        "ǩƫ",
        "Ƙ"
      ],
      [
        "Ɯ",
        "ƨ"
      ],
      [
        "ǥ",
        "ƻ"
      ],
      [
        "ǧ",
        "Ƃ"
      ],
      [
        "ǩƇ",
        "ƍ"
      ],
      [
        "Ǧƞ",
        "Ɯ"
      ],
      [
        "Ǩ",
        "Ƃ"
      ],
      [
        "i",
        "s"
      ],
      [
        "ǧ",
        "Ƥ"
      ],
      [
        "ǥƭ",
        "Ɛ"
      ],
      [
        "ǥƓ",
        "Ɓ"
      ],
      [
        "ǥ",
        "ƀ"
      ],
      [
        "ǦƜ",
        "Ư"
      ],
      [
        "ǩƇ",
        "Ə"
      ],
      [
        "ǦƄ",
        "Ɵ"
      ],
      [
        "Ġ",
        "o"
      ],
      [
        "ƈ",
        "Ƒ"
      ],
      [
        "ǧ",
        "Ɯ"
      ],
      [
        "ǩƗ",
        "Ʈ"
      ],
      [
        "Ǧƃ",
        "ƅ"
      ],
      [
        "ơ",
        "Ǧ"
      ],
      [
        "ǥƺ",
        "Ʀ"
      ],
      [
        "ǧƱ",
        "ƻ"
      ],
      [
        "ǧ",
        "Ɲ"
      ],
      [
        "s",
        "t"
      ],
      [
        "a",
        "l"
      ],
      [
        "ǩ",
        "Ɣ"
      ],
      [
        "ǥƊ",
        "Ʃ"
      ],
      [
        "Ǩ",
        "Ɗ"
      ],
      [
        "Ǧ",
        "Ɯƀ"
      ],
      [
        "ǥƮ",
        "ƶ"
      ],
      [
        "a",
        "r"
      ],
      [
        "n",
        "t"
      ],
      [
        "Ǧƙ",
        "ƺ"
      ],
      [
        "ǥƐ",
        "ƈ"
      ],
      [
        "Ġ",
        "c"
      ],
      [
        "ǦƖ",
        "ư"
      ],
      [
        "Ǩơ",
        "ƨ"
      ],
      [
        "n",
        "g"
      ],
      [
        "ƀ",
        "Ɲ"
      ],
      [
        "ǩƗ",
        "ƴ"
      ],
      [
        "ǥư",
        "Ə"
      ],
      [
        "ǧ",
        "Ɵ"
      ],
      [
        "ǥ",
        "Ɖ"
      ],
      [
        "Ǥƽƿ",
        "ǧƔƨ"
      ],
      [
        "ǥƾ",
        "Ɨ"
      ],
      [
        "ǤƸ",
        "ƚ"
      ],
      [
        "ǤƸƀ",
        "Ǥƺƛ"
      ],
      [
        "ǧ",
        "ƴ"
      ],
      [
        "Ǧƙƺ",
        "Ǩƃƽ"
      ],
      [
        "l",
        "e"
      ],
      [
        "ǩ",
        "ƚ"
      ],
      [
        "n",
        "d"
      ],
      [
        "ǨƮ",
        "ơ"
      ],
      [
        "ǧƨ",
        "Ƌ"
      ],
      [
        "ƥ",
        "ƽ"
      ],
      [
        "ǧ",
        "ƾ"
      ],
      [
        "ǧƻ",
        "Ə"
      ],
      [
        "ǧơ",
        "Ʈ"
      ],
      [
        "ƀ",
        "Ɯ"
      ],
      [
        "Ǥƹ",
        "Ơ"
      ],
      [
        "ƥ",
        "ǥ"
      ],
      [
        "ǥƮ",
        "ƞ"
      ],
      [
        "Ġ",
        "ǥ"
      ],
      [
        "ǥƼ",
        "Ə"
      ],
      [
        "Ƹ",
        "ƭ"
      ],
      [
        "ǧ",
        "ƽ"
      ],
      [
        "Ǩƀ",
        "ƌ"
      ],
      [
        "Ġ",
        "="
      ],
      [
        "ǥƸ",
        "Ʈ"
      ],
      [
        "ƺ",
        "ƺ"
      ],
      [
        "ǧ",
        "Ʃ"
      ],
      [
        "ƌ",
        "Ǧ"
      ],
      [
        "Ɓ",
        "Ư"
      ],
      [
        "ƀ",
        "Ǧ"
      ],
      [
        "ǩ",
        "ơ"
      ],
      [
        "Ǥƾ",
        "ƛ"
      ],
      [
        "ǥƽ",
        "Ʊ"
      ],
      [
        "ǩ",
        "Ʀ"
      ],
      [
        "ǥƈ",
        "ƶ"
      ],
      [
        "ǦƊƀ",
        "ǦƜƯ"
      ],
      [
        "Ǩƀ",
        "ƅ"
      ],
      [
        "ǦƄ",
        "Ə"
      ],
      [
        "i",
        "t"
      ],
      [
        "ǥƅ",
        "Ƭ"
      ],
      [
        "*",
        "*"
      ],
      [
        "ƥ",
        "Ǥ"
      ],
      [
        "ǥƏƯ",
        "Ǩƃƽ"
      ],
      [
        "Ġ",
        "p"
      ],
      [
        "ǥƛ",
        "Ơ"
      ],
      [
        "ƭ",
        "Ɖ"
      ],
      [
        "ǤƸ",
        "Ǝ"
      ],
      [
        "ƙ",
        "ƨ"
      ],
      [
        "s",
        "e"
      ],
      [
        "Ǧ",
        "Ʒ"
      ],
      [
        "Ə",
        "Ư"
      ],
      [
        "ǦƜ",
        "Ƭ"
      ],
      [
        "t",
        "o"
      ],
      [
        "r",
        "a"
      ],
      [
        "ǨƯ",
        "ƭ"
      ],
      [
        "ƨ",
        "ǥ"
      ],
      [
        "ǧ",
        "ƕ"
      ],
      [
        "ǥƻ",
        "ƺ"
      ],
      [
        "ǥ",
        "ƞ"
      ],
      [
        "Ƹ",
        "Ƌ"
      ],
      [
        "ǦƏƐ",
        "Ǥƾƛ"
      ],
      [
        "ǩ",
        "Ƃ"
      ],
      [
        "Ǩƿƛ",
        "Ǩơƌ"
      ],
      [
        "Ġ",
        "f"
      ],
      [
        "o",
        "u"
      ],
      [
        "ǩƗƮ",
        "ǩƢƘ"
      ],
      [
        "Ǧƴ",
        "ƻ"
      ],
      [
        "ǥƱ",
        "ƕ"
      ],
      [
        "ǥƅ",
        "Ʒ"
      ],
      [
        "Ǥƺ",
        "Ƨ"
      ],
      [
        "ǧƳ",
        "ƻ"
      ],
      [
        "ǩ",
        "ƕ"
      ],
      [
        "ƨ",
        "Ǧ"
      ],
      [
        "ǦƜ",
        "ƺ"
      ],
      [
        "r",
        "i"
      ],
      [
        "Ǩ",
        "Ɓ"
      ],
      [
        "Ġ",
        "w"
      ],
      [
        "ƽ",
        "ǧ"
      ],
      [
        "ǧƛ",
        "Ƹ"
      ],
      [
        "Ơ",
        "Ǧ"
      ],
      [
        "ǥƸƮ",
        "ǥƊƩ"
      ],
      [
        "Ɣ",
        "Ɵ"
      ],
      [
        "Ǥƹ",
        "Ƌ"
      ],
      [
        "ǧ",
        "Ƭ"
      ],
      [
        "Ɯ",
        "Ɖ"
      ],
      [
        "ƿ",
        "ƙ"
      ],
      [
        "Ǩ",
        "Ʒ"
      ],
      [
        "ǩ",
        "ƃ"
      ],
      [
        "Ɩ",
        "Ƈ"
      ],
      [
        "ǧƎ",
        "Ư"
      ],
      [
        "Ġ",
        "b"
      ],
      [
        "ǩƃ",
        "ƽ"
      ],
      [
        "ǩ",
        "ƅ"
      ],
      [
        "ǨƉ",
        "Ʋ"
      ],
      [
        "ǥƿ",
        "ƃ"
      ],
      [
        "Ǩƿ",
        "Ƙ"
      ],
      [
        "ǥƤ",
        "Ʃ"
      ],
      [
        "ǩ",
        "ƪ"
      ],
      [
        "ǥƅ",
        "ƥ"
      ],
      [
        "ǧƉ",
        "ƹ"
      ],
      [
        "Ǥƹ",
        "ƈ"
      ],
      [
        "ǤƸ",
        "ƻ"
      ],
      [
        "ƺ",
        "Ǩ"
      ],
      [
        "ǥƊ",
        "ơ"
      ],
      [
        "ǧ",
        "Ơ"
      ],
      [
        "ǧ",
        "ƃ"
      ],
      [
        "0",
        "0"
      ],
      [
        "ǥ",
        "Ɩ"
      ],
      [
        "Ǧƃ",
        "Ƴ"
      ],
      [
        "i",
        "o"
      ],
      [
        "Ɔ",
        "ǥ"
      ],
      [
        "ǧƮ",
        "Ɨ"
      ],
      [
        "ǧƄ",
        "ƶ"
      ],
      [
        "Ġ",
        "1"
      ],
      [
        "ǨƯ",
        "ƥ"
      ],
      [
        "d",
        "e"
      ],
      [
        "Ǧƕư",
        "ǦƍƮ"
      ],
      [
        "Ġ",
        "\\"
      ],
      [
        "Ǩ",
        "Ƣ"
      ],
      [
        "ǨƮ",
        "Ʃ"
      ],
      [
        "ǩ",
        "ƛ"
      ],
      [
        "ǧƔ",
        "Ƶ"
      ],
      [
        "Ǧƌ",
        "Ɓ"
      ],
      [
        "m",
        "e"
      ],
      [
        "ǦƉ",
        "ƀ"
      ],
      [
        "ǥƭƦ",
        "ǤƹƠ"
      ],
      [
        "ƭ",
        "Ƥ"
      ],
      [
        "v",
        "e"
      ],
      [
        "ǧ",
        "Ƽ"
      ],
      [
        "ǥ",
        "Ɲ"
      ],
      [
        "Ǧ",
        "Ɵ"
      ],
      [
        "ƺ",
        "ƫ"
      ],
      [
        "Ǧ",
        "ơ"
      ],
      [
        "ƨ",
        "Ǩ"
      ],
      [
        "ǧƂ",
        "ƹ"
      ],
      [
        "Ǩƿƙ",
        "Ǥƺƛ"
      ],
      [
        "Ƅ",
        "ǧ"
      ],
      [
        "ǩƀƚ",
        "ǨƿƇ"
      ],
      [
        "e",
        "d"
      ],
      [
        "ǩ",
        "Ɵ"
      ],
      [
        "Ǩ",
        "ƙ"
      ],
      [
        "ǥƅ",
        "ƨ"
      ],
      [
        "ǥƷ",
        "Ʊ"
      ],
      [
        "ǥƏ",
        "Ƙ"
      ],
      [
        "ǦƘ",
        "Ǝ"
      ],
      [
        "Ƹ",
        "ƺ"
      ],
      [
        "ǨƇƪ",
        "ǥƷƱ"
      ],
      [
        "Ƽ",
        "Ɖ"
      ],
      [
        "c",
        "o"
      ],
      [
        "ư",
        "Ə"
      ],
      [
        "ƥ",
        "Ǧ"
      ],
      [
        "a",
        "s"
      ],
      [
        "Ǧư",
        "ƴ"
      ],
      [
        "ƭ",
        "Ʀ"
      ],
      [
        "Ɵ",
        "Ǧ"
      ],
      [
        "Ǥƺƺ",
        "ǥƷƥ"
      ],
      [
        "ǧƻ",
        "ƙ"
      ],
      [
        "Ǥƻ",
        "Ǝ"
      ],
      [
        "Ƒ",
        "Ǧ"
      ],
      [
        "ǥƾ",
        "ƈ"
      ],
      [
        "Ġ",
        "m"
      ],
      [
        "Ġ",
        "d"
      ],
      [
        "Ǥƽ",
        "Ɔ"
      ],
      [
        "ǥƛ",
        "ƽ"
      ],
      [
        "ǧƝ",
        "ƀ"
      ],
      [
        "Ǧ",
        "Ʈ"
      ],
      [
        "Ǥƽ",
        "ƕ"
      ],
      [
        "ǩ",
        "ƀƂ"
      ],
      [
        "Ǥƻ",
        "ƣ"
      ],
      [
        "l",
        "i"
      ],
      [
        "ƶ",
        "ǥ"
      ],
      [
        "Ƽ",
        "ƈ"
      ],
      [
        "ǤƺƺǥƷƥ",
        "ǦƙƺǨƃƽ"
      ],
      [
        "Ɣ",
        "ƨ"
      ],
      [
        "Ġ",
        "Ǧ"
      ],
      [
        "ǩƣ",
        "Ɵ"
      ],
      [
        "Ǧư",
        "Ɣ"
      ],
      [
        "t",
        "a"
      ],
      [
        "ǩƀ",
        "Ɖ"
      ],
      [
        "c",
        "e"
      ],
      [
        "Ǩƿƙ",
        "ǤƸƪ"
      ],
      [
        "Ǩ",
        "Ɛ"
      ],
      [
        "Ə",
        "ǥ"
      ],
      [
        "Ƒ",
        "ǥ"
      ],
      [
        "Ǥƺ",
        "Ƌ"
      ],
      [
        "r",
        "o"
      ],
      [
        "ƪ",
        "ǥ"
      ],
      [
        "Ɨ",
        "ƶ"
      ],
      [
        "ƪ",
        "Ǧ"
      ],
      [
        "ư",
        "ǥ"
      ],
      [
        "Ǩ",
        "ƨ"
      ],
      [
        "e",
        "a"
      ],
      [
        "i",
        "c"
      ],
      [
        "ǨƮ",
        "ƾ"
      ],
      [
        "Ʀ",
        "Ɓ"
      ],
      [
        "o",
        "f"
      ],
      [
        "Ư",
        "ǥ"
      ],
      [
        "ƽ",
        "Ɠ"
      ],
      [
        "ǧƛ",
        "Ʈ"
      ],
      [
        "Ǧƈ",
        "Ʒ"
      ],
      [
        "ƽ",
        "Ơ"
      ],
      [
        "Ƣ",
        "Ƙ"
      ],
      [
        "ǥƌ",
        "ƅ"
      ],
      [
        "ƕ",
        "ư"
      ],
      [
        "ǥƐ",
        "Ǝ"
      ],
      [
        "Ə",
        "Ǧ"
      ],
      [
        "ǩƝ",
        "ƞ"
      ],
      [
        "ǥƏ",
        "Ɩ"
      ],
      [
        "ƌ",
        "ǥ"
      ],
      [
        "ƹ",
        "Ǧ"
      ],
      [
        "ƅ",
        "Ǧ"
      ],
      [
        "ǥƏ",
        "Ɗ"
      ],
      [
        "ƙ",
        "Ǥ"
      ],
      [
        "ǦƯ",
        "Ɣ"
      ],
      [
        "Ǩ",
        "Ƌ"
      ],
      [
        "Ɩ",
        "ǥ"
      ],
      [
        "ƨ",
        "ǧ"
      ],
      [
        "Ǥƺ",
        "Ƥ"
      ],
      [
        "ƾ",
        "Ƌ"
      ],
      [
        "ǥƸ",
        "Ƃ"
      ],
      [
        "ǨƯ",
        "Ʒ"
      ],
      [
        "ǥƏ",
        "Ɨ"
      ],
      [
        "h",
        "a"
      ],
      [
        "ǧ",
        "Ɩ"
      ],
      [
        "ǥƐ",
        "ƍ"
      ],
      [
        "Ǧƕ",
        "ƈ"
      ],
      [
        "ǩ",
        "ƥ"
      ],
      [
        "ǧƻ",
        "Ɵ"
      ],
      [
        "ǦƯ",
        "Ə"
      ],
      [
        "ƈ",
        "Ɛ"
      ],
      [
        "ǧƐ",
        "ƃ"
      ],
      [
        "Ƈ",
        "ǥ"
      ],
      [
        "ǥƹ",
        "Ƴ"
      ],
      [
        "Ǧƭ",
        "ƣ"
      ],
      [
        "Ƌ",
        "Ǧ"
      ],
      [
        "ǧ",
        "Ƌ"
      ],
      [
        "ǥ",
        "ƽƓ"
      ],
      [
        "ǤƸƍ",
        "ǥƐƌ"
      ],
      [
        "1",
        "0"
      ],
      [
        "Ǥƻ",
        "ƻ"
      ],
      [
        "Ġ",
        "r"
      ],
      [
        "Ɵ",
        "ǥ"
      ],
      [
        "ǦƘƯ",
        "ǤƸƀ"
      ],
      [
        "ǥƜ",
        "ƺ"
      ],
      [
        "Ġ",
        "e"
      ],
      [
        "Ǩƴ",
        "ƨ"
      ],
      [
        "Ɛ",
        "Ǥ"
      ],
      [
        "ǥƦƂ",
        "ǦƞƜ"
      ],
      [
        "ƽ",
        "ǥ"
      ],
      [
        "n",
        "e"
      ],
      [
        "a",
        "c"
      ],
      [
        "ǥƓ",
        "ƍ"
      ],
      [
        "Ƈ",
        "ǧ"
      ],
      [
        "ǧƾ",
        "Ǝ"
      ],
      [
        "ǩƕ",
        "ƿ"
      ],
      [
        "ǩƇƍ",
        "ǨƦƁ"
      ],
      [
        "ƺ",
        "Ɛ"
      ],
      [
        "ǥƈ",
        "ƛ"
      ],
      [
        "ǥƤ",
        "Ɵ"
      ],
      [
        "ǦƱ",
        "Ƃ"
      ],
      [
        "n",
        "s"
      ],
      [
        "ƍ",
        "ǥ"
      ],
      [
        "Ƅ",
        "ƶ"
      ],
      [
        "Ɩ",
        "Ɨ"
      ],
      [
        "Ǧ",
        "ƶ"
      ],
      [
        "e",
        "t"
      ],
      [
        "ǨƢ",
        "ƫ"
      ],
      [
        "ǥƺƔ",
        "ǧƔƨ"
      ],
      [
        "ǥƭ",
        "Ɨ"
      ],
      [
        "Ǥƻƥ",
        "ǤƸƋ"
      ],
      [
        "ƻ",
        "Ƭ"
      ],
      [
        "Ǝ",
        "ǥ"
      ],
      [
        "ǧ",
        "Ư"
      ],
      [
        "Ƒ",
        "Ǥ"
      ],
      [
        "Ġ",
        "2"
      ],
      [
        "ǤƻƖ",
        "ǤƻƬ"
      ],
      [
        "o",
        "m"
      ],
      [
        "Ʈ",
        "ǩ"
      ],
      [
        "ǥƆ",
        "ƅ"
      ],
      [
        "ǤƸƭ",
        "ǧƚƄ"
      ],
      [
        "ƥ",
        "Ǩ"
      ],
      [
        "ǥƆ",
        "Ƴ"
      ],
      [
        "ǧ",
        "ƈ"
      ],
      [
        "ǩƁ",
        "Ɠ"
      ],
      [
        "ǥƈ",
        "Ʃ"
      ],
      [
        "Ɲ",
        "ƥ"
      ],
      [
        "ǥƞ",
        "Ƌ"
      ],
      [
        "ǧ",
        "Ɨ"
      ],
      [
        "Ƈ",
        "Ǧ"
      ],
      [
        "Ƹ",
        "ƍ"
      ],
      [
        "ƴ",
        "ǥ"
      ],
      [
        "ǨƵ",
        "Ʒ"
      ],
      [
        "`",
        "`"
      ],
      [
        "u",
        "r"
      ],
      [
        "ǥƽƱ",
        "ǥƓƍ"
      ],
      [
        "ƨ",
        "ơ"
      ],
      [
        "ǥƢ",
        "ƃ"
      ],
      [
        "ǥƤ",
        "Ƅ"
      ],
      [
        "Ơ",
        "ǥ"
      ],
      [
        "A",
        "I"
      ],
      [
        "2",
        "0"
      ],
      [
        "Ġ",
        "n"
      ],
      [
        "Ǥƻ",
        "ƶ"
      ],
      [
        "ǩƃ",
        "ƨ"
      ],
      [
        "l",
        "l"
      ],
      [
        "ǥƏƑ",
        "ǥƱƕ"
      ],
      [
        "ǩƂ",
        "ƣ"
      ],
      [
        "Ǩ",
        "ƈ"
      ],
      [
        "s",
        "i"
      ],
      [
        "ǧ",
        "ƥ"
      ],
      [
        "l",
        "a"
      ],
      [
        "ƀ",
        "Ǩ"
      ],
      [
        "ƈ",
        "Ɔ"
      ],
      [
        "ǥư",
        "Ƒ"
      ],
      [
        "ǦƠ",
        "Ƈ"
      ],
      [
        "ǩƝƞ",
        "ǥƸƸ"
      ],
      [
        "Ǥƽ",
        "ƍ"
      ],
      [
        "ƀ",
        "ǧ"
      ],
      [
        "-",
        "-"
      ],
      [
        "ǩƣ",
        "Ǝ"
      ],
      [
        "m",
        "a"
      ],
      [
        "ǦƉ",
        "Ƌ"
      ],
      [
        "ǧƻ",
        "Ɠ"
      ],
      [
        "Ʈ",
        "ǥ"
      ],
      [
        "ƺ",
        "Ɔ"
      ],
      [
        "Ġ",
        "l"
      ],
      [
        "ǩƢ",
        "Ɔ"
      ],
      [
        "ƞ",
        "Ɯ"
      ],
      [
        "ǦƗƶ",
        "ǩƗƴ"
      ],
      [
        "Ƅ",
        "Ǥ"
      ],
      [
        "ǦƳ",
        "ƨ"
      ],
      [
        "ǥƹ",
        "ƴ"
      ],
      [
        "e",
        "l"
      ],
      [
        "Ƭ",
        "ǥ"
      ],
      [
        "Ɨ",
        "Ʈ"
      ],
      [
        "Ġ",
        "h"
      ],
      [
        "ǥƏ",
        "Ƹ"
      ],
      [
        "ǩ",
        "Ɯ"
      ],
      [
        "ǩƟ",
        "Ƴ"
      ],
      [
        "Ƅ",
        "Ǩ"
      ],
      [
        "ǥƮ",
        "Ɖ"
      ],
      [
        "Ə",
        "Ɛ"
      ],
      [
        "Ǩ",
        "Ʊ"
      ],
      [
        "ƺ",
        "Ǝ"
      ],
      [
        "ƺ",
        "Ǥ"
      ],
      [
        "ǦƋ",
        "Ʃ"
      ],
      [
        "ǩƇ",
        "ƌ"
      ],
      [
        "ǧƧ",
        "Ƒ"
      ],
      [
        "ǩƀƉ",
        "ǦƋƩ"
      ],
      [
        "ǨƮ",
        "Ʈ"
      ],
      [
        "ǨƯ",
        "Ɔ"
      ],
      [
        "p",
        "r"
      ],
      [
        "Ɔ",
        "Ǧ"
      ],
      [
        "h",
        "i"
      ],
      [
        "Ƃ",
        "ƨ"
      ],
      [
        "ǥƈ",
        "ƫ"
      ],
      [
        "c",
        "a"
      ],
      [
        "Ǩ",
        "ƍ"
      ],
      [
        "Ǥƻ",
        "ƀ"
      ],
      [
        "Ʒ",
        "ƥ"
      ],
      [
        "ƽ",
        "Ɯ"
      ],
      [
        "Ɖ",
        "ǥ"
      ],
      [
        "Ġ",
        "-"
      ],
      [
        "Ƥ",
        "ǥ"
      ],
      [
        "Ƙ",
        "ǥ"
      ],
      [
        "ǥƼ",
        "ƀ"
      ],
      [
        "Ǧ",
        "Ɓ"
      ],
      [
        "ǥƦƂ",
        "Ǥƽƕ"
      ],
      [
        "Ư",
        "ƹ"
      ],
      [
        "ǥƟ",
        "Ɵ"
      ],
      [
        "Ǩƃƽ",
        "ǥƤƟ"
      ],
      [
        "ǧƤ",
        "ƾ"
      ],
      [
        "ơǦ",
        "ƁƯ"
      ],
      [
        "ƙ",
        "ǥ"
      ],
      [
        "n",
        "c"
      ],
      [
        "ǥƅƬ",
        "ǥƏƸ"
      ],
      [
        "ǦƜ",
        "Ɵ"
      ],
      [
        "ƺ",
        "Ʀ"
      ],
      [
        "ǦƵ",
        "Ɓ"
      ],
      [
        "ǩ",
        "ƻ"
      ],
      [
        "Ǥƿ",
        "ơǦƁƯ"
      ],
      [
        "c",
        "t"
      ],
      [
        "Ǥƻƀ",
        "Ǥƹƈ"
      ],
      [
        "ǥƷƥ",
        "ǤƽƜ"
      ],
      [
        "ƺ",
        "Ǧ"
      ],
      [
        "ǧ",
        "Ʋ"
      ],
      [
        "h",
        "o"
      ],
      [
        "Ġ",
        "|"
      ],
      [
        "Ǩ",
        "ƺƫ"
      ],
      [
        "ǧƟ",
        "ƥ"
      ],
      [
        "ǦƗ",
        "Ơ"
      ],
      [
        "Ɛ",
        "ǥ"
      ],
      [
        "Ǩ",
        "Ə"
      ],
      [
        "ǧ",
        "ƙ"
      ],
      [
        "ǥƉ",
        "ƍ"
      ],
      [
        "Ġ",
        "*"
      ],
      [
        "c",
        "h"
      ],
      [
        "ǩ",
        "ƒ"
      ],
      [
        "ǥƽ",
        "Ƣ"
      ],
      [
        "ǦƠ",
        "ƹ"
      ],
      [
        "ư",
        "Ǧ"
      ],
      [
        "ǧ",
        "Ɓ"
      ],
      [
        "ƻ",
        "ǥ"
      ],
      [
        "ƛ",
        "Ơ"
      ],
      [
        "ǧƎƯ",
        "ǥƢƃ"
      ],
      [
        "ǦƏƐ",
        "ǩƫƘ"
      ],
      [
        "ƍ",
        "Ǧ"
      ],
      [
        "ǥƑ",
        "Ƙ"
      ],
      [
        "ǥƯ",
        "Ƽ"
      ],
      [
        "ǦƠ",
        "Ʒ"
      ],
      [
        "ǦƜ",
        "ƍ"
      ],
      [
        "ǦƖƹ",
        "ǥƼƏ"
      ],
      [
        "Ǩƀ",
        "ƃ"
      ],
      [
        "ǥư",
        "Ʊ"
      ],
      [
        "ǦƔ",
        "ƾ"
      ],
      [
        "Ǩ",
        "Ƅ"
      ],
      [
        "ǧƜ",
        "Ƌ"
      ],
      [
        "ƅ",
        "ǥ"
      ],
      [
        "ǦƜ",
        "ƪ"
      ],
      [
        "Ƙ",
        "Ǝ"
      ],
      [
        "u",
        "m"
      ],
      [
        "ǨƯ",
        "ƍ"
      ],
      [
        "Ɖ",
        "Ǧ"
      ],
      [
        "f",
        "o"
      ],
      [
        "ǥƍ",
        "ƕ"
      ],
      [
        "ǥƁ",
        "ƥ"
      ],
      [
        "ǦƗ",
        "ƥ"
      ],
      [
        "e",
        "c"
      ],
      [
        "ǥ",
        "ƕ"
      ],
      [
        "ǥƆ",
        "ƙ"
      ],
      [
        "b",
        "e"
      ],
      [
        "Ǥƹ",
        "Ɛ"
      ],
      [
        "ǥƼ",
        "ƺ"
      ],
      [
        "ǩ",
        "Ʃ"
      ],
      [
        "ǦƸ",
        "Ƹ"
      ],
      [
        "Ǧƛƴ",
        "ǥƥƽ"
      ],
      [
        "Ǩư",
        "ƃ"
      ],
      [
        "o",
        "t"
      ],
      [
        "ƙ",
        "Ǧ"
      ],
      [
        "Ǧƌ",
        "Ƈ"
      ],
      [
        "Ġ",
        "ǧ"
      ],
      [
        "ƚ",
        "ǥ"
      ],
      [
        "ǥƟ",
        "ƺ"
      ],
      [
        "ǨƯ",
        "ƴ"
      ],
      [
        "Ǥƺƺ",
        "ǧƱƻ"
      ],
      [
        "ǥƎ",
        "ƻ"
      ],
      [
        "ǨƇƪǥƷƱ",
        "ǧƚƄ"
      ],
      [
        "ǦƊ",
        "Ƥ"
      ],
      [
        "ƺ",
        "ǧ"
      ],
      [
        "ǨƮ",
        "Ƥ"
      ],
      [
        "Ƈ",
        "Ə"
      ],
      [
        "Ə",
        "ǧ"
      ],
      [
        "ƍ",
        "Ʈ"
      ],
      [
        "ǥƮƃ",
        "ǤƻƬ"
      ],
      [
        "ƹ",
        "Ƌ"
      ],
      [
        "Ɓ",
        "ǥ"
      ],
      [
        "ǦƋ",
        "Ƭ"
      ],
      [
        "Ǩ",
        "Ǝ"
      ],
      [
        "r",
        "s"
      ],
      [
        "ǦƖƹ",
        "ǦƳƕ"
      ],
      [
        "Ǧƛƴ",
        "ǥƊƠ"
      ],
      [
        "ǦƠ",
        "Ƽ"
      ],
      [
        "ǦƷ",
        "Ʊ"
      ],
      [
        "Ɩ",
        "ƹ"
      ],
      [
        "ǥƅƶ",
        "ǤƻƖ"
      ],
      [
        "ǧƔƟ",
        "Ǧƴƻ"
      ],
      [
        "l",
        "o"
      ],
      [
        "ƹ",
        "ƴ"
      ],
      [
        "ǥƮ",
        "Ƣ"
      ],
      [
        "ǨƊ",
        "Ƃ"
      ],
      [
        "ơ",
        "ƌ"
      ],
      [
        "ǥƺƔ",
        "ǨƯƥ"
      ],
      [
        "n",
        "a"
      ],
      [
        "ǧƴ",
        "Ơ"
      ],
      [
        "Ǩƿ",
        "ư"
      ],
      [
        "Ʃ",
        "Ǧ"
      ],
      [
        "Ƹ",
        "Ɗ"
      ],
      [
        "ǧƫ",
        "Ơ"
      ],
      [
        "ǧƮ",
        "ơ"
      ],
      [
        "ƶ",
        "Ǧ"
      ],
      [
        "ǥƐ",
        "Ƅ"
      ],
      [
        "ǦƖ",
        "ƭ"
      ],
      [
        "ǦƠƹ",
        "ǦƍƮ"
      ],
      [
        "Ƨ",
        "ǥ"
      ],
      [
        "Ƥ",
        "Ɩ"
      ],
      [
        "Ǧƙ",
        "Ư"
      ],
      [
        "Ǧ",
        "ƻ"
      ],
      [
        "ƛ",
        "ǥ"
      ],
      [
        "ǨƧ",
        "Ƃ"
      ],
      [
        "ǥƺ",
        "Ʒ"
      ],
      [
        "Ʊ",
        "ǥ"
      ],
      [
        "ǦƉ",
        "ƾ"
      ],
      [
        "ƿ",
        "Ɲ"
      ],
      [
        "Ƨ",
        "Ƌ"
      ],
      [
        "ǨƯ",
        "ƕ"
      ],
      [
        "Ǧƕ",
        "ƙ"
      ],
      [
        "Ɠ",
        "ǥ"
      ],
      [
        "Ʀ",
        "Ǥ"
      ],
      [
        "Ư",
        "ǧ"
      ],
      [
        "d",
        "i"
      ],
      [
        "ǤƸ",
        "Ƥ"
      ],
      [
        "ƾ",
        "ǥ"
      ],
      [
        "ǩƢƆ",
        "ǥƟƟ"
      ],
      [
        "ƪ",
        "ǧ"
      ],
      [
        "ǤƼ",
        "Ơ"
      ],
      [
        "ǦƵ",
        "Ƌ"
      ],
      [
        "ǧƻ",
        "Ƅ"
      ],
      [
        "ǥƈ",
        "Ɨ"
      ],
      [
        "Ǥ",
        "ƾƋ"
      ],
      [
        "u",
        "s"
      ],
      [
        "Ǧƭ",
        "ƥ"
      ],
      [
        "ơ",
        "ǧ"
      ],
      [
        "ǨƮơ",
        "ǧƮƗ"
      ],
      [
        "ǥƐ",
        "Ƒ"
      ],
      [
        "Ǩ",
        "ƣ"
      ],
      [
        "ƙ",
        "ƺ"
      ],
      [
        "Ƃ",
        "ǥ"
      ],
      [
        "ǦƔ",
        "ƹ"
      ],
      [
        "ǩƪ",
        "ƌ"
      ],
      [
        "Ʈ",
        "Ǧ"
      ],
      [
        "g",
        "e"
      ],
      [
        "ƀ",
        "ƻ"
      ],
      [
        "ǥƸ",
        "Ʀ"
      ],
      [
        "t",
        "r"
      ],
      [
        "ǥƁƥ",
        "ǥƺƷ"
      ],
      [
        "ǦƖƇ",
        "ǧƫƠ"
      ],
      [
        "ǥƌƅ",
        "ǦƋƬ"
      ],
      [
        "Ư",
        "Ǧ"
      ],
      [
        "ƫ",
        "Ƙ"
      ],
      [
        "ǩƀ",
        "Ơ"
      ],
      [
        "ǥƇ",
        "Ɔ"
      ],
      [
        "Ɖ",
        "ǧ"
      ],
      [
        "ǦƖ",
        "ƙ"
      ],
      [
        "Ƃ",
        "Ǧ"
      ],
      [
        "ǥ",
        "ƇƏ"
      ],
      [
        "Ɯ",
        "ƺ"
      ],
      [
        "Ǩƿ",
        "Ɛ"
      ],
      [
        "ƻ",
        "Ǥ"
      ],
      [
        "p",
        "e"
      ],
      [
        "ǤƼ",
        "Ƙ"
      ],
      [
        "Ɛ",
        "Ɔ"
      ],
      [
        "ǥƏ",
        "ƥ"
      ],
      [
        "Ƹ",
        "Ƹ"
      ],
      [
        "ƭ",
        "Ɛ"
      ],
      [
        "ƽ",
        "Ǧ"
      ],
      [
        "ƿ",
        "ǧ"
      ],
      [
        "ƛ",
        "ƴ"
      ],
      [
        "ǦƖƹ",
        "ǩƝƢ"
      ],
      [
        "ǥƮ",
        "ƹ"
      ],
      [
        "Ǧƞ",
        "Ɛ"
      ],
      [
        "ǥƤ",
        "Ƈ"
      ],
      [
        "ǥƛ",
        "ƞ"
      ],
      [
        "Ƥ",
        "Ʃ"
      ],
      [
        "ǧƔ",
        "Ʊ"
      ],
      [
        "Ɠ",
        "ǧ"
      ],
      [
        "i",
        "l"
      ],
      [
        "Ġ",
        "$"
      ],
      [
        "Ǩƾ",
        "ƾ"
      ],
      [
        "ƻǧ",
        "ƖƗ"
      ],
      [
        "T",
        "h"
      ],
      [
        "ǤƺƆ",
        "ǨƧƣ"
      ],
      [
        "Ǧƕ",
        "ƴ"
      ],
      [
        "Ƈ",
        "ƺ"
      ],
      [
        "ǥƷ",
        "Ʋ"
      ],
      [
        "Ɲ",
        "Ƣ"
      ],
      [
        "ǥƏƯǤƻƥ",
        "ǥƸƮǥƊƩ"
      ],
      [
        "ǥƻƺ",
        "ǨƮƮ"
      ],
      [
        "ǧƳƻ",
        "ǧƻƟ"
      ],
      [
        "Ơ",
        "ǧ"
      ],
      [
        "ǥƈƆ",
        "ǦƞƐ"
      ],
      [
        "u",
        "t"
      ],
      [
        "ǥƀ",
        "Ƽ"
      ],
      [
        "ǦƜƺ",
        "ǥ"
      ],
      [
        "Ƅ",
        "ǩ"
      ],
      [
        "ǥƢ",
        "ƞ"
      ],
      [
        "ǧ",
        "ƿ"
      ],
      [
        "ǨƧ",
        "Ɔ"
      ],
      [
        "ǥƺ",
        "Ə"
      ],
      [
        "Ǩƨ",
        "ƀ"
      ],
      [
        "ƍ",
        "Ǩ"
      ],
      [
        "Ǥƺƺ",
        "ǤƻƬ"
      ],
      [
        "ƈ",
        "ư"
      ],
      [
        "p",
        "l"
      ],
      [
        "Ɨ",
        "Ǧ"
      ],
      [
        "Ƽ",
        "Ɓ"
      ],
      [
        "Ɓ",
        "ǧ"
      ],
      [
        "ǥƁ",
        "ƚ"
      ],
      [
        "Ġ",
        "3"
      ],
      [
        "ƀ",
        "Ƌ"
      ],
      [
        "ǩ",
        "Ɠ"
      ],
      [
        "Ǥƻ",
        "Ʒ"
      ],
      [
        "i",
        "m"
      ],
      [
        "o",
        "l"
      ],
      [
        "ƀ",
        "Ɗ"
      ],
      [
        "Ƒ",
        "ǧ"
      ],
      [
        "ǦƜƺǥ",
        "ƙƨ"
      ],
      [
        "o",
        "w"
      ],
      [
        "ǦƵ",
        "Ʒ"
      ],
      [
        "Ƈ",
        "ƪ"
      ],
      [
        "ƻ",
        "ƙ"
      ],
      [
        "ǥƏ",
        "ƪ"
      ],
      [
        "w",
        "e"
      ],
      [
        "ǦƖƇ",
        "ǥƌƖ"
      ],
      [
        "Ƴ",
        "ǥ"
      ],
      [
        "ǥƎ",
        "Ɔ"
      ],
      [
        "Ʀ",
        "ǥ"
      ],
      [
        "Ɩ",
        "ǧƕ"
      ],
      [
        "Ɓ",
        "Ǧ"
      ],
      [
        "ƹ",
        "ǥ"
      ],
      [
        "Ʒ",
        "Ǧ"
      ],
      [
        "ǧƤ",
        "ƺ"
      ],
      [
        "ǩƢ",
        "Ƅ"
      ],
      [
        "ǦƲ",
        "ơ"
      ],
      [
        "Ġ",
        "("
      ],
      [
        "ǥƮ",
        "ƌ"
      ],
      [
        "ǥƊ",
        "Ɵ"
      ],
      [
        "ǧƎ",
        "Ƈ"
      ],
      [
        "Ǝ",
        "Ǧ"
      ],
      [
        "ǦƎ",
        "ƥ"
      ],
      [
        "ƨ",
        "Ǥ"
      ],
      [
        "ƈ",
        "ǥ"
      ],
      [
        "Ɛ",
        "ƌ"
      ],
      [
        "ǧƽ",
        "Ƒ"
      ],
      [
        "Ǩƽ",
        "Ʀ"
      ],
      [
        "u",
        "l"
      ],
      [
        "ƞ",
        "ǥ"
      ],
      [
        "ǦƜƪ",
        "ǦƝƥ"
      ],
      [
        "Ɖ",
        "Ʃ"
      ],
      [
        "Ġ",
        "y"
      ],
      [
        "Ɯ",
        "Ƭ"
      ],
      [
        "ǥƑ",
        "Ƴ"
      ],
      [
        "u",
        "n"
      ],
      [
        "Ɔ",
        "ǧ"
      ],
      [
        "ǧ",
        "Ɗ"
      ],
      [
        "ǥƆ",
        "Ƶ"
      ],
      [
        "ǧƚ",
        "ƄǦ"
      ],
      [
        "Ư",
        "ƭ"
      ],
      [
        "ǩơ",
        "ƹ"
      ],
      [
        "ǦƬ",
        "Ƣ"
      ],
      [
        "Ʈ",
        "ƚ"
      ],
      [
        "ƿ",
        "Ƈ"
      ],
      [
        "Ġ",
        "Ǩ"
      ],
      [
        "ǨƮ",
        "ƺ"
      ],
      [
        "Ǧơ",
        "ƈ"
      ],
      [
        "ǦƔ",
        "Ư"
      ],
      [
        "Ġ",
        "+"
      ],
      [
        "ǥƐ",
        "Ʀ"
      ],
      [
        "ǥƹ",
        "ƿ"
      ],
      [
        "Ʈ",
        "ơ"
      ],
      [
        "Ġ",
        "\""
      ],
      [
        "ǥƤƄ",
        "ǧƐƆ"
      ],
      [
        "ǥ",
        "ƤƖ"
      ],
      [
        "Ǧ",
        "ƀƝ"
      ],
      [
        "Ɯ",
        "Ǧ"
      ],
      [
        "e",
        "x"
      ],
      [
        "s",
        "s"
      ],
      [
        "ƍ",
        "ǧ"
      ],
      [
        "Ɩ",
        "ǧ"
      ],
      [
        "ǦƘƯǤƸƀ",
        "ǤƸƪ"
      ],
      [
        "Ƅ",
        "Ə"
      ],
      [
        "ƶ",
        "Ǥ"
      ],
      [
        "ƭ",
        "Ɣ"
      ],
      [
        "ǤƸ",
        "Ɣ"
      ],
      [
        "ƌ",
        "Ɩ"
      ],
      [
        "ƅ",
        "ƶ"
      ],
      [
        "ƅ",
        "Ƴ"
      ],
      [
        "ƹ",
        "Ǩ"
      ],
      [
        "ƻ",
        "Ɩ"
      ],
      [
        "Ǥƿ",
        "ơ"
      ],
      [
        "ǥƼ",
        "ƕ"
      ],
      [
        "ǨƇƪ",
        "ǧƄƶ"
      ],
      [
        "ǨƮ",
        "Ƹ"
      ],
      [
        "ǥƐ",
        "Ɨ"
      ],
      [
        "Ɛ",
        "Ǝ"
      ],
      [
        "ǩ",
        "Ƹ"
      ],
      [
        "ǦƮ",
        "Ƶ"
      ],
      [
        "ƌ",
        "ǧ"
      ],
      [
        "ǥƭ",
        "Ƙ"
      ],
      [
        "Ɗ",
        "ƨ"
      ],
      [
        "Ƴ",
        "ƕ"
      ],
      [
        "ǥƏ",
        "ƣ"
      ],
      [
        "ǧ",
        "Ʀ"
      ],
      [
        "Ɣ",
        "ǥ"
      ],
      [
        "ƹ",
        "ƈ"
      ],
      [
        "ǥƛƠ",
        "ǤƸƺ"
      ],
      [
        "ǥƌ",
        "ƺ"
      ],
      [
        "ǥƓ",
        "ƪ"
      ],
      [
        "Ǥƻƥ",
        "ǥƏƊ"
      ],
      [
        "ƭ",
        "ǥ"
      ],
      [
        "ǤƺƧ",
        "ǥƓƁ"
      ],
      [
        "Ɯ",
        "ư"
      ],
      [
        "Ġ",
        "T"
      ],
      [
        "r",
        "t"
      ],
      [
        "Ǧƛƴǥƥƽ",
        "ǥƜư"
      ],
      [
        "Ư",
        "Ʒ"
      ],
      [
        "Ǥƹ",
        "Ɖ"
      ],
      [
        "t",
        "s"
      ],
      [
        "ƺ",
        "ƛ"
      ],
      [
        "Ǧ",
        "ƭƤ"
      ],
      [
        "e",
        "m"
      ],
      [
        "ƌ",
        "Ǩ"
      ],
      [
        "ǤƸƪ",
        "Ǥƺƺ"
      ],
      [
        "Ǧƞ",
        "Ɓ"
      ],
      [
        "ǥƈ",
        "ƙ"
      ],
      [
        "Ɔ",
        "Ǩ"
      ],
      [
        "ǧƩ",
        "ƺ"
      ],
      [
        "ǧƺ",
        "ƿ"
      ],
      [
        "Ġ",
        "A"
      ],
      [
        "Ƣ",
        "Ǧ"
      ],
      [
        "l",
        "y"
      ],
      [
        "ǦƲơ",
        "ǦƜƉ"
      ],
      [
        "Ƥ",
        "Ƨ"
      ],
      [
        "ǨƇ",
        "ƴ"
      ],
      [
        "Ɨ",
        "ǥ"
      ],
      [
        "ǥƅ",
        "Ɖ"
      ],
      [
        "Ƒ",
        "Ǩ"
      ],
      [
        "Ġ",
        "S"
      ],
      [
        "ǥƈ",
        "ƒ"
      ],
      [
        "ƌ",
        "Ǥ"
      ],
      [
        "ǥƏ",
        "ƍ"
      ],
      [
        "ǧƔƨ",
        "ǦƈƷ"
      ],
      [
        "ǥƅƳ",
        "ǤƺƎ"
      ],
      [
        "Ǩƙ",
        "Ƒ"
      ],
      [
        "ǥ",
        "ƣ"
      ],
      [
        "ǨƯ",
        "Ɲ"
      ],
      [
        "ǥƿ",
        "ƫ"
      ],
      [
        "ǧơƮ",
        "ǤƿƝ"
      ],
      [
        "n",
        "o"
      ],
      [
        "ƶ",
        "Ǩ"
      ],
      [
        "ǨƵ",
        "Ƅ"
      ],
      [
        "f",
        "i"
      ],
      [
        "i",
        "d"
      ],
      [
        "Ġ",
        "Ǥ"
      ],
      [
        "ǥƤ",
        "ƍ"
      ],
      [
        "ƹ",
        "Ơ"
      ],
      [
        "Ɵ",
        "ǧ"
      ],
      [
        "ǤƸ",
        "Ɖ"
      ],
      [
        "Ǧƛƴ",
        "ǥƤƚ"
      ],
      [
        "Ǩƶ",
        "Ɗ"
      ],
      [
        "ǤƿƝ",
        "ǦƊƤ"
      ],
      [
        "Ɵ",
        "ƥ"
      ],
      [
        "ǩƙ",
        "Ʃ"
      ],
      [
        "ƃ",
        "Ə"
      ],
      [
        "i",
        "v"
      ],
      [
        "p",
        "o"
      ],
      [
        "Ɔ",
        "Ǥ"
      ],
      [
        "ǦƬ",
        "ơ"
      ],
      [
        "Ǧ",
        "ƣ"
      ],
      [
        "ǧƫ",
        "Ƌ"
      ],
      [
        "ǦƗ",
        "ƅ"
      ],
      [
        "ǥƮƉ",
        "ǥƅƨ"
      ],
      [
        "ƪ",
        "Ǩ"
      ],
      [
        "Ɗ",
        "ƀ"
      ],
      [
        "Ə",
        "Ƒ"
      ],
      [
        "ƥ",
        "ǩ"
      ],
      [
        "s",
        "o"
      ],
      [
        "ƿ",
        "ǥ"
      ],
      [
        "Ơ",
        "Ǥ"
      ],
      [
        "Ƽ",
        "ƛ"
      ],
      [
        "ƻ",
        "ƺ"
      ],
      [
        "ǩ",
        "Ƥ"
      ],
      [
        "ǦƎ",
        "ƒ"
      ],
      [
        "Ċ",
        "Ġ"
      ],
      [
        "a",
        "m"
      ],
      [
        "ƾ",
        "Ǝ"
      ],
      [
        "ƺ",
        "Ɣ"
      ],
      [
        "Ɲ",
        "Ǧ"
      ],
      [
        "ǤƽƠ",
        "ǧƚƄ"
      ],
      [
        "i",
        "e"
      ],
      [
        "ƥ",
        "ǧ"
      ],
      [
        "ǦƏ",
        "Ə"
      ],
      [
        "ƀ",
        "ƌ"
      ],
      [
        "ǦƘ",
        "Ɵ"
      ],
      [
        "Ʃ",
        "ǥ"
      ],
      [
        "ǥƏ",
        "Ƃ"
      ],
      [
        "ǥƤ",
        "ƪ"
      ],
      [
        "Ǧ",
        "ƨơ"
      ],
      [
        "ǥƎ",
        "Ɵ"
      ],
      [
        "ƈ",
        "Ǧ"
      ],
      [
        "ǦƈƑǤƻƬ",
        "ǧƚƄ"
      ],
      [
        "m",
        "i"
      ],
      [
        "Ʒ",
        "ǥ"
      ],
      [
        "Ɣ",
        "ǧ"
      ],
      [
        "Ɖ",
        "Ǥ"
      ],
      [
        "Ġ",
        "g"
      ],
      [
        "Ǩƾ",
        "ƃ"
      ],
      [
        "ǥƖ",
        "Ɯ"
      ],
      [
        "ƨ",
        "ǩ"
      ],
      [
        "ư",
        "Ɔ"
      ],
      [
        "s",
        "u"
      ],
      [
        "ƀ",
        "ƚ"
      ],
      [
        "ǦƜƍ",
        "ǥƊơ"
      ],
      [
        "Ƭ",
        "ǧ"
      ],
      [
        "ƴ",
        "Ǧ"
      ],
      [
        "ǨƊ",
        "Ʊ"
      ],
      [
        "ǨƧƣ",
        "ǥƆƳ"
      ],
      [
        "n",
        "u"
      ],
      [
        "Ǝ",
        "ǧ"
      ],
      [
        "$",
        "$"
      ],
      [
        "ǦƔ",
        "ƶ"
      ],
      [
        "Ǧƴƻ",
        "ǥƊƨ"
      ],
      [
        "Ǧƈ",
        "Ƙ"
      ],
      [
        "ǩƀƚ",
        "ǥƸƸ"
      ],
      [
        "Ɛ",
        "ǩ"
      ],
      [
        "Ǩƃƽ",
        "ǥƊƛ"
      ],
      [
        "m",
        "p"
      ],
      [
        "e",
        "e"
      ],
      [
        "Ɗ",
        "ƛ"
      ],
      [
        "ǧƔƟ",
        "ǦƈƐ"
      ],
      [
        "ǨƯƭ",
        "Ǩƨƀ"
      ],
      [
        "ǩƀ",
        "Ɵ"
      ],
      [
        "ǩƅ",
        "ƍ"
      ],
      [
        "ǥƅ",
        "Ʊ"
      ],
      [
        "Ǧ",
        "Ƽ"
      ],
      [
        "ǧƮ",
        "ƀ"
      ],
      [
        "ơ",
        "ǥ"
      ],
      [
        "ƫ",
        "Ơ"
      ],
      [
        "ƀ",
        "Ƨ"
      ],
      [
        "ƚ",
        "ǧ"
      ],
      [
        "ǧƯ",
        "Ƈ"
      ],
      [
        "a",
        "i"
      ],
      [
        "ǦƸ",
        "ƅ"
      ],
      [
        "ǩƘ",
        "Ɵ"
      ],
      [
        "Ɗ",
        "Ơ"
      ],
      [
        "Ƭ",
        "Ǥ"
      ],
      [
        "ƅ",
        "Ƨ"
      ],
      [
        "w",
        "i"
      ],
      [
        "Ʀ",
        "ǧ"
      ],
      [
        "Ƹ",
        "ǥ"
      ],
      [
        "ǦƖƇ",
        "ǦƜƬ"
      ],
      [
        "Ƨ",
        "ƣ"
      ],
      [
        "ǥƇ",
        "Ơ"
      ],
      [
        "ǩƇ",
        "Ƈ"
      ],
      [
        "ǦƜ",
        "ƛ"
      ],
      [
        "Ǝ",
        "Ǥ"
      ],
      [
        "ǥƑ",
        "Ɗ"
      ],
      [
        "ǨƱ",
        "ơ"
      ],
      [
        "ǥƟ",
        "Ǝ"
      ],
      [
        "ƞ",
        "ǧ"
      ],
      [
        "ǦƈƖ",
        "Ǩƀƅ"
      ],
      [
        "ǥƮƞ",
        "ǧƎư"
      ],
      [
        "Ƥ",
        "ƚ"
      ],
      [
        "n",
        "i"
      ],
      [
        "Ǩ",
        "ƌ"
      ],
      [
        "ǧ",
        "ƌ"
      ],
      [
        "Ġ",
        "ǩ"
      ],
      [
        "Ƴ",
        "Ǥ"
      ],
      [
        "ǨƯ",
        "Ƅ"
      ],
      [
        "Ǥƾ",
        "ƿ"
      ],
      [
        "Ǥƻƻ",
        "ǥƊơ"
      ],
      [
        "i",
        "g"
      ],
      [
        "ǦƂƨ",
        "ǧƚƄ"
      ],
      [
        "ƭ",
        "ǧ"
      ],
      [
        "Ɗ",
        "Ǧ"
      ],
      [
        "Ɠ",
        "Ǧ"
      ],
      [
        "ǧƮơ",
        "ǧƐƆ"
      ],
      [
        "ƚ",
        "Ǩ"
      ],
      [
        "ƃ",
        "ǥ"
      ],
      [
        "ǧƗ",
        "ƅ"
      ],
      [
        "ƽ",
        "ƿ"
      ],
      [
        "ƛ",
        "Ǧ"
      ],
      [
        "Ǩƶ",
        "Ƴ"
      ],
      [
        "ǧƈ",
        "Ʊ"
      ],
      [
        "ǧƩ",
        "ƶ"
      ],
      [
        "ǤƸƍǥƐƌ",
        "ǧƚƄ"
      ],
      [
        "ư",
        "Ɣ"
      ],
      [
        "ǧ",
        "ƛƴ"
      ],
      [
        "ƶ",
        "ǩ"
      ],
      [
        "ǥƐƌ",
        "ǦƗƶ"
      ],
      [
        "Ǩ",
        "Ƒ"
      ],
      [
        "Ƌ",
        "Ƭ"
      ],
      [
        "ǨƮƸ",
        "ǥƤƚ"
      ],
      [
        "ư",
        "ǧ"
      ],
      [
        "ǥƏƯǨƃƽ",
        "ǤƼƚ"
      ],
      [
        "ǨƧ",
        "ƒ"
      ],
      [
        "ǥƷƲ",
        "ǧƻƏ"
      ],
      [
        "ƣ",
        "ǥ"
      ],
      [
        "ǧƧ",
        "Ư"
      ],
      [
        "ƭ",
        "Ǧ"
      ],
      [
        "Ƙ",
        "Ǧ"
      ],
      [
        "ǦƎ",
        "ƨ"
      ],
      [
        "ƌ",
        "ƅ"
      ],
      [
        "ǨƏ",
        "Ɯ"
      ],
      [
        "ƻ",
        "Ǧ"
      ],
      [
        "Ǧƃƅ",
        "ǥƆƵ"
      ],
      [
        "Ǧ",
        "ƀƻ"
      ],
      [
        "ǧƻ",
        "ƃ"
      ],
      [
        "ǤƿƝ",
        "ǦƌƁ"
      ],
      [
        "ǦƖ",
        "ƽ"
      ],
      [
        "ǨƧ",
        "Ƅ"
      ],
      [
        "Ǧƞ",
        "Ƅ"
      ],
      [
        "ǦƊ",
        "ƕ"
      ],
      [
        "ǨƮƾ",
        "ǨƮơ"
      ],
      [
        "Ə",
        "Ǩ"
      ],
      [
        "ǨƧ",
        "Ɖ"
      ],
      [
        "ǦƖư",
        "ǧƚƄ"
      ],
      [
        "ǥƥ",
        "ƹ"
      ],
      [
        "Ɨ",
        "ƴ"
      ],
      [
        "Ɲ",
        "ǥ"
      ],
      [
        "ǥƥƽ",
        "ǧƚƄ"
      ],
      [
        "Ǩƽ",
        "ƻ"
      ],
      [
        "Ɣ",
        "Ʈ"
      ],
      [
        "Ƶ",
        "Ʒ"
      ],
      [
        "i",
        "r"
      ],
      [
        "ƿ",
        "ƛ"
      ],
      [
        "Ư",
        "ƴ"
      ],
      [
        "Ɛ",
        "ƍ"
      ],
      [
        "Ư",
        "Ɲ"
      ],
      [
        "ǤƹƋ",
        "ǩƗƴ"
      ],
      [
        "ǧƻ",
        "Ɔ"
      ],
      [
        "Ġ",
        "5"
      ],
      [
        "ǦƘƯ",
        "ǥƐƦ"
      ],
      [
        "Ǧƕ",
        "ƅ"
      ],
      [
        "ǦƘƯǤƸƀ",
        "ǧƧƍ"
      ],
      [
        "Ɩ",
        "Ǧ"
      ],
      [
        "ƈ",
        "ǧ"
      ],
      [
        "k",
        "e"
      ],
      [
        "Ǥƺ",
        "ƒ"
      ],
      [
        "ǥƈư",
        "ǤƺƆ"
      ],
      [
        "ǤƹƋ",
        "ǤƸƀ"
      ],
      [
        "ǦƎ",
        "Ƣ"
      ],
      [
        "Ǧ",
        "Ƒ"
      ],
      [
        "ǦƎ",
        "Ƨ"
      ],
      [
        "ƛ",
        "Ǩ"
      ],
      [
        "ǧƤƾ",
        "ǤƼƚ"
      ],
      [
        "f",
        "r"
      ],
      [
        "ƌ",
        "ƻ"
      ],
      [
        "y",
        "o"
      ],
      [
        "Ɵ",
        "Ǩ"
      ],
      [
        "ƃ",
        "ƅ"
      ],
      [
        "Ƌ",
        "ǧ"
      ],
      [
        "c",
        "i"
      ],
      [
        "ƻ",
        "Ǩ"
      ],
      [
        "ư",
        "Ǥ"
      ],
      [
        "Ƶ",
        "ǥ"
      ],
      [
        "Ƌ",
        "Ǥ"
      ],
      [
        "Ƴ",
        "ǧ"
      ],
      [
        "ǥƅ",
        "ƃ"
      ],
      [
        "a",
        "d"
      ],
      [
        "q",
        "u"
      ],
      [
        "t",
        "u"
      ],
      [
        "Ɣ",
        "ǧƩƶ"
      ],
      [
        "ǥƅ",
        "ƍ"
      ],
      [
        "Ƥ",
        "ƍ"
      ],
      [
        "ǨƮƤ",
        "ǤƸƺ"
      ],
      [
        "Ɗ",
        "Ʃ"
      ],
      [
        "Ǩƀƃ",
        "ǨƙƑ"
      ],
      [
        "ƚ",
        "Ǧ"
      ],
      [
        "Ǩƿ",
        "Ƒ"
      ],
      [
        "ǦƈƐ",
        "ǤƸƺ"
      ],
      [
        "Ʈ",
        "Ƶ"
      ],
      [
        "ǧƻ",
        "ƭ"
      ],
      [
        "Ɖ",
        "Ʋ"
      ],
      [
        "Ɔ",
        "ƙ"
      ],
      [
        "ƨ",
        "Ƌ"
      ],
      [
        "Ƥ",
        "Ǥ"
      ],
      [
        "ǧƐƆ",
        "ǨƧƣ"
      ],
      [
        "Ɩ",
        "Ǥ"
      ],
      [
        "m",
        "o"
      ],
      [
        "ǥ",
        "ƌƻ"
      ],
      [
        "Ǩƶ",
        "ƣ"
      ],
      [
        "Ʊ",
        "ƻ"
      ],
      [
        "ǤƸƻ",
        "ǨƦƁ"
      ],
      [
        "Ƹ",
        "Ʈ"
      ],
      [
        "Ƙ",
        "ǧ"
      ],
      [
        "ǦƏƏ",
        "Ǩƿư"
      ],
      [
        "ƅ",
        "ƃ"
      ],
      [
        "ǥƛ",
        "Ƣ"
      ],
      [
        "Ǝ",
        "Ư"
      ],
      [
        "ǧƔƵ",
        "ǥƽƱ"
      ],
      [
        "ǥƇƏ",
        "ǥưƑ"
      ],
      [
        "Ɯ",
        "Ư"
      ],
      [
        "Ǩƽ",
        "Ƭ"
      ],
      [
        "ǨƂ",
        "Ʋ"
      ],
      [
        "v",
        "i"
      ],
      [
        "ǦƝ",
        "Ɛ"
      ],
      [
        "ǨƎ",
        "Ʒ"
      ],
      [
        "ǤƸ",
        "Ɩǧƕ"
      ],
      [
        "o",
        "s"
      ],
      [
        "ǧƻ",
        "ƴ"
      ],
      [
        "ǥƏ",
        "Ʋ"
      ],
      [
        "ǩƟƳ",
        "ǤƹƐ"
      ],
      [
        "ǩƛ",
        "Ɔ"
      ],
      [
        "ǥƐ",
        "ƫ"
      ],
      [
        "ǦƔ",
        "ƿ"
      ],
      [
        "Ƅ",
        "Ɵ"
      ],
      [
        "p",
        "a"
      ],
      [
        "ǤƸ",
        "Ɠ"
      ],
      [
        "Ġ",
        "I"
      ],
      [
        "ǥƅƷ",
        "ǦƜƉ"
      ],
      [
        "b",
        "o"
      ],
      [
        "ƿ",
        "ơ"
      ],
      [
        "Ǩ",
        "ƛ"
      ],
      [
        "Ɯ",
        "Ɵ"
      ],
      [
        "Ʀ",
        "Ɩ"
      ],
      [
        "ǧƥ",
        "ƞ"
      ],
      [
        "i",
        "f"
      ],
      [
        "ǨƧ",
        "Ɓ"
      ],
      [
        "ǧƔƨ",
        "ǤƺƎ"
      ],
      [
        "ǤƸƭ",
        "ǥƛƽ"
      ],
      [
        "Ǩƾ",
        "Ɠ"
      ],
      [
        "d",
        "o"
      ],
      [
        "Ǧƃƅ",
        "ǦƄƟ"
      ],
      [
        "ǥƕ",
        "Ɔ"
      ],
      [
        "ǩƇ",
        "Ƒ"
      ],
      [
        "Ǧ",
        "ƺƐ"
      ],
      [
        "Ġ",
        "C"
      ],
      [
        "ǩƚ",
        "ƾ"
      ],
      [
        "Ƹ",
        "Ǧ"
      ],
      [
        "ǧƎƯ",
        "ǤƿƝ"
      ],
      [
        "ǤƸƀ",
        "ǧƧƍ"
      ],
      [
        "ƅ",
        "ƈ"
      ],
      [
        "u",
        "e"
      ],
      [
        "ǥƮƚ",
        "ǧƚƄ"
      ],
      [
        "ƚ",
        "Ǥ"
      ],
      [
        "ǥ",
        "ƅƈ"
      ],
      [
        "ǤƸƖǧƕ",
        "ƌ"
      ],
      [
        "ƾ",
        "ƈ"
      ],
      [
        "Ƥ",
        "ƾ"
      ],
      [
        "Ġ",
        "4"
      ],
      [
        "Ɖ",
        "ƀ"
      ],
      [
        "Ʊ",
        "Ǧ"
      ],
      [
        "Ɨ",
        "ƥ"
      ],
      [
        "Ơ",
        "ƹ"
      ],
      [
        "ǧ",
        "Ƣ"
      ],
      [
        "ǩƜƀ",
        "ǦƱƂ"
      ],
      [
        "ǥƸƂ",
        "ǥƜƺ"
      ],
      [
        "ǥƸƦ",
        "ǦƝƥ"
      ],
      [
        "#",
        "#"
      ],
      [
        "Ƴ",
        "Ǧ"
      ],
      [
        "Ɯ",
        "Ƌ"
      ],
      [
        "Ǥ",
        "ƺƫ"
      ],
      [
        "ǥƮƢ",
        "ǦƈƷ"
      ],
      [
        "1",
        "2"
      ],
      [
        "ǥƏƯǤƻƥ",
        "ǩƀƚǨƿƇ"
      ],
      [
        "Ɯ",
        "Ǥ"
      ],
      [
        "Ɖ",
        "ƍ"
      ],
      [
        "ǩƤ",
        "Ɛ"
      ],
      [
        "Ɗ",
        "ǥ"
      ],
      [
        "\\",
        "("
      ],
      [
        "ǨƿƇ",
        "ǧƨƋ"
      ],
      [
        "\\",
        ")"
      ],
      [
        "ǤƾƋ",
        "ǥƦƂ"
      ],
      [
        "ư",
        "ƴ"
      ],
      [
        "ƍ",
        "Ǥ"
      ],
      [
        "ǥƏ",
        "Ƌ"
      ],
      [
        "ǥƟƎ",
        "ǥƸƂ"
      ],
      [
        "ǥƤƧ",
        "ǧƚƄ"
      ],
      [
        "5",
        "0"
      ],
      [
        "ư",
        "Ƣ"
      ],
      [
        "Ƌ",
        "ǩ"
      ],
      [
        "ǧƼ",
        "Ɩ"
      ],
      [
        "ǦƘ",
        "Ɠ"
      ],
      [
        "Ư",
        "ƍ"
      ],
      [
        "Ɛ",
        "Ǧ"
      ],
      [
        "ǧƴ",
        "Ƣ"
      ],
      [
        "ƹ",
        "ƶ"
      ],
      [
        "Ǥƻ",
        "ƽ"
      ],
      [
        "Ʃ",
        "ǧ"
      ],
      [
        "Ɯ",
        "ǥ"
      ],
      [
        "ǧƚƄ",
        "Ǥƺƺ"
      ],
      [
        "Ɛ",
        "ǧ"
      ],
      [
        "ƅ",
        "ƥ"
      ],
      [
        "ǧƽ",
        "Ʈ"
      ],
      [
        "e",
        "p"
      ],
      [
        "ǨƯ",
        "Ɓ"
      ],
      [
        "ǩƀƂ",
        "ǥƐƈ"
      ],
      [
        "ǩƘ",
        "Ƴ"
      ],
      [
        "ǥƯƼ",
        "ǨƇƴ"
      ],
      [
        "ǨƁ",
        "Ɣ"
      ],
      [
        "ƙ",
        "Ǩ"
      ],
      [
        "ǧƮƗ",
        "ǦƳƕ"
      ],
      [
        "ǩƇƍǨƦƁ",
        "ǧƚƄ"
      ],
      [
        "Ǥƹ",
        "Ʀ"
      ],
      [
        "Ǩƺƫ",
        "ǤƽƓ"
      ],
      [
        "r",
        "m"
      ],
      [
        "ǥƐƄ",
        "ǧƧƍ"
      ],
      [
        "Ǩƴ",
        "ƹ"
      ],
      [
        "ǨƮ",
        "ư"
      ],
      [
        "Ʒ",
        "ǧ"
      ],
      [
        "ƭ",
        "Ɨ"
      ],
      [
        "ƛ",
        "ƞ"
      ],
      [
        "Ƽ",
        "Ơ"
      ],
      [
        "ƍ",
        "Ɛ"
      ],
      [
        "Ƨ",
        "ƍ"
      ],
      [
        "ǥ",
        "Ƨ"
      ],
      [
        "ǧƠ",
        "Ɓ"
      ],
      [
        "ǥƯƹ",
        "ǤƺƎ"
      ],
      [
        "ǦƸ",
        "Ʃ"
      ],
      [
        "Ɣ",
        "Ǧ"
      ],
      [
        "ǨƷ",
        "Ư"
      ],
      [
        "Ǩƿƙ",
        "ǧƧƍ"
      ],
      [
        "ǨƮơ",
        "ǥƈƒ"
      ],
      [
        "Ʈ",
        "ǧ"
      ],
      [
        "Ǧ",
        "Ɖƍ"
      ],
      [
        "Ɠ",
        "Ɓ"
      ],
      [
        "Ʈ",
        "ƶ"
      ],
      [
        "Ɨ",
        "ǧ"
      ],
      [
        "ǧƛƮ",
        "ǦƠƇ"
      ],
      [
        "ǥƐ",
        "Ƭ"
      ],
      [
        "ǦƉƀ",
        "ǦƜƉ"
      ],
      [
        "ǥƊ",
        "ƿ"
      ],
      [
        "ǥƏƘ",
        "ǥƌƖ"
      ],
      [
        "ǥƌ",
        "ƻǧƖƗ"
      ],
      [
        "ǥƼƀ",
        "ǥ"
      ],
      [
        "Ƃ",
        "Ǥ"
      ],
      [
        "Ə",
        "ƥ"
      ],
      [
        "ǦƝ",
        "ơ"
      ],
      [
        "Ʒ",
        "Ʊ"
      ],
      [
        "ƴ",
        "ǧ"
      ],
      [
        "Ǧƭ",
        "ƌ"
      ],
      [
        "Ƣ",
        "ǧ"
      ],
      [
        "d",
        "a"
      ],
      [
        "o",
        "o"
      ],
      [
        "ƪ",
        "Ǥ"
      ],
      [
        "ơ",
        "ƨ"
      ],
      [
        "Ƣ",
        "ǥ"
      ],
      [
        "ǥƀ",
        "ƙ"
      ],
      [
        "ǤƸƀ",
        "ǤƸƋ"
      ],
      [
        "ǩƥ",
        "Ʈ"
      ],
      [
        "ǥƅƷ",
        "ǤƽƓ"
      ],
      [
        "ǥƑ",
        "ƽ"
      ],
      [
        "ǥƑ",
        "Ƣ"
      ],
      [
        "ǧƧƑ",
        "ǦƊƀ"
      ],
      [
        "Ǧ",
        "Ɛ"
      ],
      [
        "ǥư",
        "ƽ"
      ],
      [
        "ǨƐ",
        "ƥ"
      ],
      [
        "ǧƬ",
        "Ʀ"
      ],
      [
        "ǤƻƥǤƸƋ",
        "ǦƘƯ"
      ],
      [
        "ǣ",
        "Ɓ"
      ],
      [
        "ǦƔƯ",
        "ǦƌƁ"
      ],
      [
        "ǩ",
        "ƦƖ"
      ],
      [
        "ǦƬ",
        "ƾ"
      ],
      [
        "ǥƐ",
        "Ƹ"
      ],
      [
        "ǦƉ",
        "Ɠ"
      ],
      [
        "ƌ",
        "Ɓ"
      ],
      [
        "i",
        "a"
      ],
      [
        "Ǝ",
        "ư"
      ],
      [
        "Ǩ",
        "ƥ"
      ],
      [
        "ǧ",
        "ƜƟ"
      ],
      [
        "Ǧ",
        "ƀƁ"
      ],
      [
        "ƕ",
        "ǥ"
      ],
      [
        "ǤƽƆ",
        "ǦƘƯ"
      ],
      [
        "ư",
        "Ƒ"
      ],
      [
        "Ġ",
        "u"
      ],
      [
        "ƪ",
        "ǩ"
      ],
      [
        "ǧƛƸ",
        "ǥƅƳ"
      ],
      [
        "Ƭ",
        "Ǧ"
      ],
      [
        "ƭ",
        "Ǩ"
      ],
      [
        "ǥƆ",
        "ƍ"
      ],
      [
        "Ư",
        "Ǩ"
      ],
      [
        "Ǝ",
        "Ǩ"
      ],
      [
        "ǨƉ",
        "ƺ"
      ],
      [
        "ǧƲ",
        "ƾ"
      ],
      [
        "ƈ",
        "ƶ"
      ],
      [
        "ǤƺƧ",
        "ǧƔƟ"
      ],
      [
        "Ư",
        "Ƈ"
      ],
      [
        "ƽ",
        "Ɔ"
      ],
      [
        "Ɔ",
        "ƅ"
      ],
      [
        "ǥ",
        "ƾƋ"
      ],
      [
        "ǤƸƍ",
        "ǦƖƭ"
      ],
      [
        "ƿ",
        "ƃ"
      ],
      [
        "ǥƼƀǥ",
        "ƧƋ"
      ],
      [
        "Ǩƣ",
        "ƅ"
      ],
      [
        "ǧƉ",
        "Ƈ"
      ],
      [
        "ǨƯ",
        "ƻ"
      ],
      [
        "Ǩƴ",
        "ƭ"
      ],
      [
        "ǩƁ",
        "ƿ"
      ],
      [
        "Ǥƺƺ",
        "ǧƚƄ"
      ],
      [
        "ǩƂƣ",
        "Ǥƹƈ"
      ],
      [
        "Ǥƻ",
        "ƅ"
      ],
      [
        "v",
        "a"
      ],
      [
        "ǥƿ",
        "ƅ"
      ],
      [
        "l",
        "d"
      ],
      [
        "ƻ",
        "Ǝ"
      ],
      [
        "ǥư",
        "Ɲ"
      ],
      [
        "Ǩƴƨ",
        "ǩƇƏ"
      ],
      [
        "Ɨ",
        "ƅ"
      ],
      [
        "Ƌ",
        "Ǩ"
      ],
      [
        "Ƣ",
        "Ǩ"
      ],
      [
        "ǧƃ",
        "ƭ"
      ],
      [
        "Ʈ",
        "Ǥ"
      ],
      [
        "Ɲ",
        "ƀ"
      ],
      [
        "Ɣ",
        "Ƶ"
      ],
      [
        "ƾ",
        "Ɨ"
      ],
      [
        "Ƹ",
        "ƻ"
      ],
      [
        "Ƹ",
        "ƚ"
      ],
      [
        "ǥƎƆ",
        "ǥƏƲ"
      ],
      [
        "Ǥƽ",
        "Ǝ"
      ],
      [
        "ǥƾƈ",
        "ǥƤƚ"
      ],
      [
        "ǩƚ",
        "Ə"
      ],
      [
        "Ǩơƌ",
        "ǤƸƺ"
      ],
      [
        "a",
        "g"
      ],
      [
        "Ǧƈ",
        "Ə"
      ],
      [
        "a",
        "y"
      ],
      [
        "Ə",
        "Ǥ"
      ],
      [
        "ǤƸƤ",
        "ǤƸƪ"
      ],
      [
        "ǧ",
        "ƋƬ"
      ],
      [
        "s",
        "h"
      ],
      [
        "Ƃ",
        "ǧ"
      ],
      [
        "ƅ",
        "Ƭ"
      ],
      [
        "ǨƿƐ",
        "ǥƊƨ"
      ],
      [
        "ǥƖƜ",
        "ǦƬƢ"
      ],
      [
        "ǂ",
        "Ʒ"
      ],
      [
        "Ɯ",
        "ƈ"
      ],
      [
        "ǥƈƩ",
        "ǧƔƨ"
      ],
      [
        "Ɠ",
        "ƍ"
      ],
      [
        "ǩ",
        "ƔƮ"
      ],
      [
        "ǨƇƪ",
        "ǥƊƨ"
      ],
      [
        "ǧ",
        "ƭƔ"
      ],
      [
        "ǩ",
        "Ʋ"
      ],
      [
        "ǨƮ",
        "ƭ"
      ],
      [
        "ǧƨƋ",
        "ǥƺƏ"
      ],
      [
        "ǧƭ",
        "Ɩ"
      ],
      [
        "ǥƤ",
        "ƴ"
      ],
      [
        "Ǧƕư",
        "ǥƭƗ"
      ],
      [
        "ƣ",
        "ǧ"
      ],
      [
        "o",
        "d"
      ],
      [
        "ǥƏƥ",
        "ǥƭƐ"
      ],
      [
        "Ƃ",
        "ƹ"
      ],
      [
        "ƞ",
        "ƍ"
      ],
      [
        "ǥƅ",
        "ƴ"
      ],
      [
        "g",
        "h"
      ],
      [
        "ƃ",
        "ǧ"
      ],
      [
        "Ǧƕƅ",
        "ǤƺƋ"
      ],
      [
        "Ƭ",
        "Ǩ"
      ],
      [
        "ǧƠ",
        "ƔǧƩƶ"
      ],
      [
        "ƀ",
        "ǩ"
      ],
      [
        "ƛ",
        "Ǥ"
      ],
      [
        "ǥƸ",
        "ƌ"
      ],
      [
        "Ǧƕƙ",
        "ǨƂƲ"
      ],
      [
        "Ɛ",
        "ƃ"
      ],
      [
        "Ơ",
        "Ǩ"
      ],
      [
        "ǦƟ",
        "Ɛ"
      ],
      [
        "ƾ",
        "ƛ"
      ],
      [
        "ƃ",
        "Ǧ"
      ],
      [
        "Ʈ",
        "ƞ"
      ],
      [
        "m",
        "b"
      ],
      [
        "ǥƤ",
        "Ʊ"
      ],
      [
        "ƅ",
        "Ǩ"
      ],
      [
        "ǦƈƑǤƻƬ",
        "ǥƏƯǤƻƥ"
      ],
      [
        "Ɗ",
        "ơ"
      ],
      [
        "ǧƚƄ",
        "ǥƽƱǥƓƍ"
      ],
      [
        "ǥƈƆ",
        "ǧƱƻ"
      ],
      [
        "ǥƏƑ",
        "ǧƎư"
      ],
      [
        "Ǧƌ",
        "Ƒ"
      ],
      [
        "ǤƻƎ",
        "Ǩƀƌ"
      ],
      [
        "Ǥ",
        "ƼƁ"
      ],
      [
        "ǦƯƏ",
        "ǤƸƪ"
      ],
      [
        "ǦƊ",
        "ƥ"
      ],
      [
        "Ʃ",
        "Ǥ"
      ],
      [
        "ǩƙ",
        "ƅ"
      ],
      [
        "ǧƬ",
        "Ƭ"
      ],
      [
        "Ƈ",
        "ƍ"
      ],
      [
        "ǥƭƦ",
        "ǧƔƟ"
      ],
      [
        "ǥ",
        "ƙ"
      ],
      [
        "ǥƢƞ",
        "ǥƊƠ"
      ],
      [
        "l",
        "u"
      ],
      [
        "Ʈ",
        "ƹ"
      ],
      [
        "ǥƯ",
        "ƻ"
      ],
      [
        "ǨƁ",
        "ƌ"
      ],
      [
        "Ǩơƨ",
        "Ǩƾƾ"
      ],
      [
        "1",
        "5"
      ],
      [
        "ǥƭƘ",
        "ǥƜƨ"
      ],
      [
        "w",
        "o"
      ],
      [
        "ǥƛƢ",
        "ǩƘƟ"
      ],
      [
        "ƕ",
        "Ǩ"
      ],
      [
        "ǥƸ",
        "ƈ"
      ],
      [
        "Ʈ",
        "Ɨ"
      ],
      [
        "ƫ",
        "ǥ"
      ],
      [
        "Ʋ",
        "ǧ"
      ],
      [
        "ǨƵƄ",
        "Ǧ"
      ],
      [
        "ǥƛ",
        "ƾ"
      ],
      [
        "o",
        "v"
      ],
      [
        "Ƈ",
        "ƌ"
      ],
      [
        "Ɣ",
        "Ǩ"
      ],
      [
        "ǦƈƑ",
        "ǧƚƄ"
      ],
      [
        "a",
        "p"
      ],
      [
        "Ǧ",
        "ƚ"
      ],
      [
        "Ư",
        "Ɣ"
      ],
      [
        "ǦƎƧ",
        "ǥƈƶ"
      ],
      [
        "Ɔ",
        "ǩ"
      ],
      [
        "ƹ",
        "ǧ"
      ],
      [
        "ƃ",
        "Ǥ"
      ],
      [
        "ǥ",
        "ƛƴ"
      ],
      [
        "Ɲ",
        "ƞ"
      ],
      [
        "ǥƊƨ",
        "ǧƉƩ"
      ],
      [
        "a",
        "b"
      ],
      [
        "ƛ",
        "Ʈ"
      ],
      [
        "Ʈ",
        "Ʈ"
      ],
      [
        "ǥƅƳ",
        "ǧƳƻ"
      ],
      [
        "ǥƥ",
        "Ƴ"
      ],
      [
        "Ǧƶ",
        "ƈ"
      ],
      [
        "ơ",
        "Ʈ"
      ],
      [
        "ǦƸƸ",
        "ǦƈƏ"
      ],
      [
        "Ġ",
        "v"
      ],
      [
        "u",
        "a"
      ],
      [
        "ƞ",
        "Ƌ"
      ],
      [
        "ƻ",
        "Ə"
      ],
      [
        "ǥƎ",
        "Ƌ"
      ],
      [
        "ǨƂ",
        "Ɖ"
      ],
      [
        "Ɩ",
        "ư"
      ],
      [
        "ƴ",
        "Ǩ"
      ],
      [
        "Ǥƹ",
        "ư"
      ],
      [
        "ǥƸƌ",
        "ǦƜƛ"
      ],
      [
        "Ǥƻ",
        "Ƌ"
      ],
      [
        "ǥƹƶ",
        "ǤƸƔ"
      ],
      [
        "ƭ",
        "ƣ"
      ],
      [
        "ǤƼƁ",
        "ǤƸƚ"
      ],
      [
        "ƻ",
        "Ɠ"
      ],
      [
        "ǦƳƨ",
        "ǦƄƏ"
      ],
      [
        "3",
        "0"
      ],
      [
        "ǧƚƄ",
        "ǥƏƑǥƱƕ"
      ],
      [
        "ǥƯ",
        "Ɔ"
      ],
      [
        "ƻ",
        "ƣ"
      ],
      [
        "Ǧ",
        "Ƣ"
      ],
      [
        "ǨƋ",
        "Ʊ"
      ],
      [
        "r",
        "y"
      ],
      [
        "ǥƍ",
        "Ƴ"
      ],
      [
        "ǨƵƄ",
        "ǦƺƐ"
      ],
      [
        "Ƽ",
        "Ə"
      ],
      [
        "ǧƺ",
        "Ƣ"
      ],
      [
        "ǥƅƨ",
        "ǧƐƃ"
      ],
      [
        "ƽ",
        "Ʊ"
      ],
      [
        "Ƃ",
        "Ǩ"
      ],
      [
        "Ġ",
        "P"
      ],
      [
        "ǩƔ",
        "ƙ"
      ],
      [
        "g",
        "i"
      ],
      [
        "ǩƁƿ",
        "ǥƅƍ"
      ],
      [
        "ǦƛƴǥƤƚ",
        "ǧƚƄ"
      ],
      [
        "ǦƊƕ",
        "ǨƵƄ"
      ],
      [
        "ƹ",
        "Ƴ"
      ],
      [
        "u",
        "c"
      ],
      [
        "ǥƑ",
        "ƨ"
      ],
      [
        "b",
        "l"
      ],
      [
        "ǥƭ",
        "Ʃ"
      ],
      [
        "T",
        "o"
      ],
      [
        "Ʈ",
        "ƃ"
      ],
      [
        "ǥƯ",
        "ƌ"
      ],
      [
        "Ɵ",
        "Ɠ"
      ],
      [
        "ǨƇ",
        "Ƴ"
      ],
      [
        "Ɖ",
        "Ǩ"
      ],
      [
        "ǦƀƧ",
        "ǥƒƌ"
      ],
      [
        "a",
        "v"
      ],
      [
        "ǥƆƅ",
        "ǥƮƹ"
      ],
      [
        "ǤƸƻ",
        "ǩƢƘ"
      ],
      [
        "ǥƷƥ",
        "ǥƅƷ"
      ],
      [
        "ƿ",
        "Ǧ"
      ],
      [
        "ƣ",
        "Ɵ"
      ],
      [
        "e",
        "f"
      ],
      [
        "Ʊ",
        "Ƃ"
      ],
      [
        "ǩƗ",
        "ƨ"
      ],
      [
        "ǥƷ",
        "Ƨ"
      ],
      [
        "ǦƎ",
        "ƪ"
      ],
      [
        "ǥƅ",
        "ƻ"
      ],
      [
        "ƙ",
        "ǧ"
      ],
      [
        "ǥ",
        "Ʋ"
      ],
      [
        "t",
        "y"
      ],
      [
        "ǥƸ",
        "ƃ"
      ],
      [
        "r",
        "r"
      ],
      [
        "o",
        "p"
      ],
      [
        "ǧƙ",
        "ƽ"
      ],
      [
        "Ʀ",
        "Ǧ"
      ],
      [
        "ǥƊƟ",
        "Ǩƃƽ"
      ],
      [
        "ƨ",
        "ƀ"
      ],
      [
        "Ƴ",
        "ƨ"
      ],
      [
        "w",
        "a"
      ],
      [
        "ǥƓƪ",
        "Ǥƺƛ"
      ],
      [
        "ƻ",
        "ơ"
      ],
      [
        "ǦƌƑ",
        "ǦƈƘ"
      ],
[...]
